<unk>	0
<s>	0
</s>	0
▁the	-2.91403
▁and	-3.52076
s	-3.56903
▁of	-3.614
▁to	-3.7357
▁a	-3.88215
▁in	-4.17475
▁i	-4.40527
▁he	-4.47493
▁that	-4.51629
▁it	-4.5736
▁was	-4.57676
ed	-4.73549
▁his	-4.8201
'	-4.82392
ing	-4.92866
▁with	-4.95168
▁for	-4.9727
▁you	-5.05549
▁as	-5.05697
▁had	-5.07067
▁is	-5.09088
▁her	-5.15529
▁be	-5.18702
▁but	-5.19313
▁not	-5.1952
▁she	-5.27154
▁on	-5.30617
▁at	-5.32469
t	-5.36171
▁they	-5.46208
▁by	-5.50896
▁him	-5.52228
▁	-5.52478
▁this	-5.54798
▁all	-5.55514
▁have	-5.57732
▁which	-5.57794
ly	-5.5896
▁from	-5.6306
e	-5.63737
d	-5.64192
▁so	-5.65365
▁one	-5.68507
▁my	-5.70597
▁were	-5.72334
▁said	-5.72501
▁me	-5.74186
▁we	-5.74615
▁or	-5.85823
▁there	-5.87552
▁no	-5.89031
▁their	-5.90102
▁are	-5.90353
▁when	-5.90938
▁an	-5.93901
▁them	-5.97123
y	-6.01213
▁if	-6.02411
▁would	-6.03315
▁who	-6.0502
▁what	-6.0967
▁will	-6.10993
▁out	-6.12914
▁been	-6.1608
▁do	-6.17749
▁up	-6.20051
▁man	-6.2535
▁then	-6.25883
er	-6.26402
▁into	-6.33096
▁could	-6.34262
▁more	-6.3631
▁some	-6.42692
▁now	-6.43499
▁very	-6.455
n	-6.48205
▁time	-6.49116
▁your	-6.49907
▁little	-6.50131
m	-6.53367
▁like	-6.55222
▁can	-6.55515
▁upon	-6.57398
▁about	-6.5771
▁has	-6.58991
▁than	-6.61054
▁two	-6.63469
▁any	-6.63603
▁over	-6.63864
▁only	-6.65914
▁did	-6.66207
▁other	-6.66801
es	-6.68659
▁well	-6.69283
▁good	-6.69342
▁our	-6.7073
▁see	-6.72677
r	-6.73483
▁great	-6.75316
▁before	-6.76122
▁down	-6.76834
▁after	-6.77464
▁made	-6.78693
▁should	-6.7949
▁these	-6.79834
▁such	-6.80258
▁know	-6.80672
▁day	-6.80901
▁old	-6.8271
▁must	-6.83394
▁go	-6.83513
▁where	-6.83733
▁came	-6.85077
ll	-6.85268
▁how	-6.85859
▁us	-6.87136
▁come	-6.89229
▁may	-6.89708
▁never	-6.92439
▁much	-6.92877
▁its	-6.93336
▁mister	-6.95835
▁first	-6.96619
▁long	-6.96689
▁men	-6.97679
c	-6.98584
▁way	-6.99243
▁back	-7.02157
re	-7.03818
▁here	-7.05216
▁himself	-7.05601
▁own	-7.0562
▁again	-7.05766
▁went	-7.06995
▁might	-7.08175
in	-7.0916
▁say	-7.09729
▁most	-7.10785
▁think	-7.11433
▁even	-7.1294
en	-7.13229
▁am	-7.13461
g	-7.13829
▁just	-7.13967
al	-7.14565
▁make	-7.15005
a	-7.15099
▁those	-7.1535
▁without	-7.15863
▁thought	-7.16522
▁away	-7.1694
▁life	-7.17234
▁every	-7.17626
▁too	-7.17755
▁through	-7.19281
▁hand	-7.19698
p	-7.21341
▁still	-7.22205
▁take	-7.2301
ness	-7.23143
u	-7.24282
▁shall	-7.24529
▁many	-7.2472
▁three	-7.24918
▁eyes	-7.27014
▁being	-7.27085
▁night	-7.28094
▁let	-7.28386
▁don	-7.28393
▁found	-7.28854
▁while	-7.29261
st	-7.29585
▁last	-7.29871
▁house	-7.29928
▁people	-7.30507
▁same	-7.30912
▁nothing	-7.32385
▁place	-7.32457
▁head	-7.32481
▁under	-7.33449
ion	-7.34748
▁put	-7.35738
b	-7.36237
l	-7.36752
▁get	-7.36987
▁saw	-7.37065
▁once	-7.37479
▁off	-7.37481
▁yet	-7.37493
▁right	-7.3844
▁s	-7.38833
▁another	-7.39676
▁new	-7.40441
or	-7.42307
▁though	-7.42763
▁tell	-7.4384
▁father	-7.44961
▁un	-7.44985
▁took	-7.45197
o	-7.4521
ve	-7.45891
▁face	-7.46658
▁king	-7.46879
▁ever	-7.47468
le	-7.47538
i	-7.477
▁world	-7.48048
▁young	-7.49124
on	-7.49408
▁things	-7.49469
▁room	-7.49939
▁work	-7.49965
▁thing	-7.50131
▁left	-7.5367
▁part	-7.53677
▁missus	-7.53926
▁look	-7.54016
▁mind	-7.54575
▁home	-7.55765
▁looked	-7.55804
▁far	-7.55932
ation	-7.56082
▁give	-7.57238
▁mother	-7.57277
▁sir	-7.57306
▁water	-7.57765
ers	-7.57896
▁asked	-7.58002
▁always	-7.59632
▁o	-7.59955
▁because	-7.61573
▁light	-7.62726
▁find	-7.63199
▁why	-7.64141
▁seemed	-7.64148
▁de	-7.64202
▁something	-7.64239
▁heart	-7.64537
ic	-7.65155
▁heard	-7.65372
th	-7.66361
▁years	-7.66445
▁god	-7.66873
▁got	-7.66967
▁love	-7.6699
▁also	-7.67279
▁going	-7.67282
▁soon	-7.67411
▁moment	-7.67533
▁side	-7.67549
▁each	-7.67993
▁few	-7.68404
▁against	-7.68551
ri	-7.68781
▁woman	-7.68869
ity	-7.69175
able	-7.69539
f	-7.69589
an	-7.71457
▁yes	-7.72348
▁door	-7.7286
▁half	-7.73064
ch	-7.73565
▁knew	-7.74957
▁among	-7.75231
▁told	-7.75568
us	-7.76097
▁began	-7.76169
▁having	-7.76722
▁quite	-7.76747
▁end	-7.77444
ar	-7.77719
w	-7.77889
▁better	-7.7818
▁re	-7.78214
▁called	-7.78374
k	-7.78725
▁done	-7.79056
▁enough	-7.79314
▁both	-7.79825
▁miss	-7.80592
▁whole	-7.80809
▁course	-7.82093
▁oh	-7.82418
▁set	-7.82479
v	-7.82549
▁nor	-7.82783
▁seen	-7.83108
▁between	-7.83393
▁gave	-7.83969
ra	-7.84061
▁turned	-7.8613
▁white	-7.86621
it	-7.87038
▁hundred	-7.87211
▁almost	-7.87336
▁name	-7.8817
▁small	-7.88326
▁poor	-7.88357
▁four	-7.89109
▁dear	-7.8912
▁morning	-7.8921
▁country	-7.89411
▁girl	-7.89563
▁however	-7.89997
▁hands	-7.90057
▁lady	-7.90559
▁until	-7.91117
is	-7.91785
est	-7.92294
▁whom	-7.9246
▁stood	-7.92998
▁felt	-7.93723
▁words	-7.95069
▁want	-7.9649
▁f	-7.96662
▁days	-7.96837
▁voice	-7.97137
el	-7.97148
less	-7.97427
▁perhaps	-7.97483
▁till	-7.98102
il	-7.98159
▁round	-7.98867
▁myself	-7.99489
h	-7.9956
▁boy	-7.99685
la	-7.99842
ent	-8.00588
▁sea	-8.00633
▁does	-8.00682
▁kind	-8.01089
▁brought	-8.01109
▁together	-8.01109
▁anything	-8.01394
▁sat	-8.01404
▁matter	-8.01441
▁large	-8.01477
▁herself	-8.01678
▁nature	-8.01678
▁lay	-8.02059
▁high	-8.0207
▁best	-8.02208
▁land	-8.02393
ful	-8.02695
▁next	-8.02755
▁indeed	-8.03924
▁themselves	-8.04063
▁fire	-8.04282
▁five	-8.04904
▁since	-8.05012
▁air	-8.05197
man	-8.05287
▁thus	-8.05536
▁feet	-8.05911
▁full	-8.06421
▁rest	-8.0662
▁open	-8.06628
▁word	-8.07009
ry	-8.07156
▁black	-8.07489
▁reason	-8.08046
▁replied	-8.08397
▁cannot	-8.08779
▁hard	-8.09238
▁keep	-8.09345
▁along	-8.09434
▁war	-8.09442
ies	-8.09611
▁present	-8.09767
▁children	-8.10169
▁rather	-8.10172
▁wife	-8.10636
▁taken	-8.10845
▁master	-8.10847
▁power	-8.1085
▁looking	-8.10974
▁cried	-8.11028
▁twenty	-8.11499
▁lord	-8.11645
▁friend	-8.11861
lo	-8.12202
ro	-8.13007
▁death	-8.13408
▁near	-8.13864
▁less	-8.13945
ous	-8.14125
▁believe	-8.14264
▁child	-8.1437
▁true	-8.14383
▁therefore	-8.14945
▁sure	-8.15038
ne	-8.1508
▁whose	-8.1519
▁help	-8.15425
▁gone	-8.15717
▁earth	-8.16021
▁behind	-8.16755
▁body	-8.17177
▁others	-8.17694
li	-8.17834
▁state	-8.18554
▁hope	-8.18589
▁speak	-8.18855
▁ground	-8.19116
▁red	-8.19199
▁use	-8.19412
▁dead	-8.19903
▁hear	-8.2019
led	-8.20372
▁doctor	-8.20476
te	-8.2066
▁alone	-8.21344
▁fact	-8.21418
ter	-8.21477
▁care	-8.21496
ton	-8.215
▁leave	-8.21583
▁horse	-8.21831
▁often	-8.21932
▁ga	-8.22028
▁wish	-8.22227
▁ten	-8.22744
▁thousand	-8.22759
▁general	-8.23286
▁passed	-8.23387
▁given	-8.23748
▁second	-8.24073
▁money	-8.24883
ur	-8.24974
ting	-8.25124
▁order	-8.25659
▁sun	-8.26347
▁con	-8.26391
▁point	-8.26593
▁answered	-8.26696
▁certain	-8.27038
▁question	-8.2721
▁itself	-8.27342
▁bring	-8.27442
▁fell	-8.28046
▁son	-8.28414
x	-8.28416
▁turn	-8.28534
▁call	-8.28587
id	-8.2875
▁city	-8.28776
▁known	-8.2903
▁sent	-8.29105
▁table	-8.2961
▁least	-8.30149
ie	-8.302
▁thou	-8.30244
▁six	-8.30287
▁fear	-8.30484
▁case	-8.30507
ine	-8.30551
▁dur	-8.30562
▁really	-8.30699
▁dark	-8.30937
▁bed	-8.31091
▁town	-8.31097
▁above	-8.31392
▁close	-8.31612
▁whether	-8.31969
ling	-8.31977
▁law	-8.3254
▁within	-8.3292
▁answer	-8.33138
▁used	-8.33519
▁women	-8.33626
▁either	-8.33823
ive	-8.34055
▁year	-8.34107
ment	-8.34154
▁river	-8.34223
▁coming	-8.34245
▁form	-8.34433
▁fine	-8.345
▁wind	-8.34856
▁dis	-8.35137
▁hour	-8.3522
▁clear	-8.35237
▁read	-8.35671
▁already	-8.35812
▁suddenly	-8.36101
▁short	-8.36243
▁live	-8.36481
▁means	-8.36619
ish	-8.36636
▁captain	-8.36822
ff	-8.37387
▁ran	-8.37881
▁feel	-8.37946
▁evening	-8.38009
▁beautiful	-8.3815
▁several	-8.38356
▁prince	-8.38486
ck	-8.38498
▁doubt	-8.38598
▁sight	-8.387
▁around	-8.38769
▁lost	-8.38831
▁held	-8.38964
▁became	-8.39391
▁returned	-8.39416
▁big	-8.39489
▁rose	-8.39515
▁making	-8.39809
▁mean	-8.39991
▁e	-8.40228
▁la	-8.40474
ard	-8.40905
▁manner	-8.41639
▁become	-8.42549
▁c	-8.42764
▁strange	-8.43056
▁p	-8.4333
▁wood	-8.43447
▁number	-8.4355
ted	-8.43818
ul	-8.44005
co	-8.44042
▁everything	-8.44082
▁kept	-8.44408
ant	-8.44726
▁human	-8.44822
▁daughter	-8.45067
▁past	-8.45332
na	-8.45908
▁different	-8.4618
▁won	-8.46205
▁possible	-8.46622
▁ask	-8.46678
▁sound	-8.46818
▁need	-8.4685
ia	-8.47378
▁road	-8.47419
▁friends	-8.47693
ma	-8.47698
▁business	-8.48205
▁idea	-8.48224
▁towards	-8.48389
▁truth	-8.48777
▁person	-8.48788
▁times	-8.49035
▁sometimes	-8.49346
▁soul	-8.49783
▁cold	-8.49909
▁co	-8.49919
▁ready	-8.50204
▁dream	-8.50365
▁hair	-8.50403
▁cut	-8.50492
▁family	-8.50618
as	-8.50637
ir	-8.50848
▁hold	-8.51241
▁arms	-8.51461
▁else	-8.5203
▁free	-8.52267
ty	-8.52324
▁sort	-8.52523
▁eye	-8.52762
▁letter	-8.53496
▁run	-8.53656
▁cover	-8.53824
▁ye	-8.53923
▁per	-8.53998
▁common	-8.54057
ge	-8.54085
▁story	-8.54417
▁understand	-8.54417
▁strong	-8.54664
▁ho	-8.54741
▁return	-8.54755
▁talk	-8.54755
am	-8.54779
▁john	-8.55006
▁husband	-8.55023
▁followed	-8.55225
et	-8.55614
▁character	-8.55877
▁ma	-8.56051
▁across	-8.56248
▁carried	-8.56553
▁act	-8.56832
▁show	-8.56985
▁met	-8.57093
men	-8.57636
▁deep	-8.57636
▁foot	-8.57648
▁school	-8.57738
▁able	-8.57758
▁tree	-8.57882
▁change	-8.5801
▁sleep	-8.58142
▁brother	-8.58713
ated	-8.58876
▁imp	-8.59028
▁account	-8.5925
ce	-8.59986
▁usual	-8.6002
▁reached	-8.60193
▁wild	-8.60345
taking	-8.60404
▁happy	-8.60657
at	-8.61192
▁sense	-8.61347
ci	-8.61404
▁says	-8.61498
ta	-8.6172
ary	-8.6199
▁fall	-8.62458
▁toward	-8.62834
▁view	-8.62871
▁subject	-8.6296
▁window	-8.62972
▁d	-8.63486
▁arm	-8.63526
▁green	-8.63691
▁car	-8.63859
ate	-8.63892
▁g	-8.63972
▁bright	-8.64066
▁bad	-8.64137
▁suppose	-8.64242
▁longer	-8.64412
▁blood	-8.64485
▁purpose	-8.64866
▁heaven	-8.64902
um	-8.65037
de	-8.65041
▁lo	-8.65103
▁fair	-8.65334
land	-8.65405
▁saying	-8.65461
ac	-8.65528
▁sweet	-8.65675
▁art	-8.65698
▁spoke	-8.65793
▁public	-8.6581
▁pleasure	-8.66627
▁cat	-8.66639
▁low	-8.66709
▁continued	-8.66843
▁remember	-8.66844
▁appeared	-8.6689
▁thy	-8.6718
▁later	-8.67359
▁ha	-8.67429
▁po	-8.67459
▁didn	-8.67525
▁spirit	-8.67679
ance	-8.67684
▁ought	-8.68004
▁eighteen	-8.68281
▁seven	-8.68635
▁blue	-8.68701
▁pro	-8.69101
▁cause	-8.69269
▁interest	-8.69353
▁glad	-8.69446
po	-8.69523
age	-8.69989
▁line	-8.70121
▁em	-8.70794
▁ship	-8.70852
▁government	-8.70961
▁opened	-8.71344
ru	-8.71349
▁party	-8.71472
▁seem	-8.71891
▁real	-8.71902
▁play	-8.71987
▁respect	-8.72036
▁da	-8.72038
▁ex	-8.7261
▁meet	-8.72828
▁pretty	-8.72976
▁tried	-8.73206
▁none	-8.73225
▁seems	-8.73225
▁trouble	-8.7324
red	-8.73633
▁street	-8.73683
▁hours	-8.73728
▁age	-8.7389
▁received	-8.74035
▁gold	-8.74268
▁certainly	-8.74305
▁mu	-8.74434
▁fellow	-8.74511
▁late	-8.7465
▁wanted	-8.74883
▁front	-8.74892
▁lived	-8.74964
▁count	-8.75047
▁early	-8.75248
▁neither	-8.75484
▁except	-8.75568
▁feeling	-8.75798
▁garden	-8.76006
▁beyond	-8.76083
▁further	-8.76235
rs	-8.76251
▁wall	-8.76385
▁desire	-8.76522
▁church	-8.7655
ut	-8.76718
▁although	-8.76837
▁forward	-8.7699
▁spring	-8.76999
▁chance	-8.77298
▁en	-8.77417
▁w	-8.78012
▁living	-8.78056
▁book	-8.78135
▁pay	-8.78372
▁bear	-8.7848
ver	-8.78537
▁hall	-8.78747
un	-8.7898
▁entered	-8.79121
▁pre	-8.79241
▁stand	-8.79324
ni	-8.79509
▁try	-8.79527
▁miles	-8.79555
▁nearly	-8.79855
▁attention	-8.80068
▁ro	-8.80245
pe	-8.80299
▁si	-8.80503
ens	-8.80545
▁effect	-8.80691
▁laid	-8.80733
▁sp	-8.80854
▁regard	-8.81239
▁fish	-8.81273
▁wait	-8.81359
▁heavy	-8.81547
▁wonder	-8.81771
▁queen	-8.81963
▁natural	-8.82067
▁necessary	-8.82122
▁walk	-8.82137
▁minutes	-8.82159
sh	-8.82164
ol	-8.82408
▁eat	-8.82469
ad	-8.82608
▁boat	-8.83105
▁deal	-8.83192
▁princess	-8.83369
▁soft	-8.83382
▁mouth	-8.83448
▁english	-8.83537
▁court	-8.83568
▁happened	-8.83724
▁rich	-8.83854
▁top	-8.83909
▁eight	-8.83945
▁walked	-8.84138
▁reach	-8.8417
▁aunt	-8.84232
▁force	-8.84329
▁thirty	-8.84547
▁sister	-8.84692
ot	-8.84727
▁opinion	-8.84873
▁chair	-8.85052
▁led	-8.85092
▁wide	-8.85265
ist	-8.8528
▁length	-8.85531
▁smile	-8.85682
▁self	-8.85839
▁pass	-8.86065
▁mine	-8.86356
ti	-8.86528
▁fast	-8.86737
ho	-8.86839
▁position	-8.86908
▁secret	-8.8701
ical	-8.87216
▁silence	-8.87365
▁stay	-8.87495
que	-8.87644
▁doing	-8.87658
▁ill	-8.87731
ca	-8.87756
▁mo	-8.87934
▁ago	-8.87966
▁pain	-8.88205
▁uncle	-8.88228
▁forth	-8.88233
▁fight	-8.88342
▁caught	-8.88379
▁knowledge	-8.88379
▁instead	-8.88394
▁fifty	-8.8889
▁stone	-8.8897
▁army	-8.89034
▁added	-8.89071
▁distance	-8.89232
▁gentleman	-8.8925
▁object	-8.8927
▁drew	-8.89576
me	-8.90017
▁food	-8.90093
▁third	-8.9012
▁paper	-8.90407
▁plain	-8.9043
▁grew	-8.90456
▁visit	-8.90531
▁bo	-8.90596
▁bar	-8.90667
be	-8.9087
to	-8.90907
▁trees	-8.91075
▁le	-8.9109
▁following	-8.91107
▁saint	-8.91486
▁bell	-8.91618
bo	-8.91632
ial	-8.91636
im	-8.91742
▁die	-8.91762
▁tom	-8.91785
▁dog	-8.91941
tic	-8.92068
ber	-8.92074
▁beauty	-8.92189
▁wise	-8.92236
▁danger	-8.92336
ha	-8.92348
▁palace	-8.92366
ke	-8.92466
▁standing	-8.92483
▁england	-8.9272
▁stopped	-8.92726
▁afraid	-8.92898
▁dinner	-8.93078
▁tone	-8.93248
▁camp	-8.93444
▁bit	-8.93466
op	-8.93589
▁whatever	-8.93614
▁di	-8.93625
▁company	-8.93791
▁pick	-8.93799
▁bound	-8.93802
▁forest	-8.93804
▁mary	-8.93866
▁seeing	-8.94122
▁thinking	-8.94332
▁scarce	-8.94337
om	-8.94769
▁ba	-8.94836
▁rock	-8.95489
▁save	-8.95807
▁b	-8.95941
▁yourself	-8.95966
▁pe	-8.96351
▁watch	-8.96541
▁corner	-8.9678
▁society	-8.96887
▁simple	-8.96887
▁battle	-8.97075
▁hardly	-8.97232
▁piece	-8.97276
▁besides	-8.97368
▁exclaimed	-8.97511
▁slowly	-8.97826
▁spot	-8.98022
▁command	-8.98126
▁french	-8.98163
▁bird	-8.98421
▁thank	-8.98433
▁experience	-8.98775
▁follow	-8.9881
▁states	-8.99394
▁action	-8.99649
▁please	-8.99732
ious	-8.9977
▁wrong	-9.00083
▁broken	-9.00194
▁ra	-9.00312
▁pan	-9.00313
▁nine	-9.00468
▁died	-9.00468
▁guard	-9.00637
▁immediately	-9.00772
▁south	-9.01036
▁brown	-9.01057
▁easy	-9.01236
▁beside	-9.01292
dy	-9.01356
▁strength	-9.01501
▁single	-9.01705
▁evil	-9.01817
les	-9.01904
▁placed	-9.01927
▁quickly	-9.01942
▁send	-9.02067
▁peace	-9.02179
▁m	-9.02217
▁filled	-9.02354
ure	-9.02357
▁floor	-9.02402
▁tea	-9.02439
▁breath	-9.02447
▁quiet	-9.02624
▁ca	-9.02693
▁fortune	-9.02794
▁north	-9.02918
▁t	-9.0294
▁game	-9.03024
cy	-9.03033
▁straight	-9.03186
▁loved	-9.03301
▁hot	-9.03328
▁getting	-9.03343
ian	-9.03376
▁cross	-9.03381
▁grave	-9.03683
▁chief	-9.04001
▁sitting	-9.04206
▁horses	-9.0421
▁warm	-9.04243
▁glance	-9.04576
▁impossible	-9.04576
▁consider	-9.04717
▁sign	-9.04781
▁appearance	-9.04791
▁sudden	-9.04803
▁remained	-9.04853
▁boys	-9.04894
▁scene	-9.05379
tion	-9.05425
▁outside	-9.05729
▁fresh	-9.05782
▁probably	-9.05782
ship	-9.05911
▁struck	-9.05984
▁music	-9.05992
▁island	-9.06151
▁according	-9.06234
▁afternoon	-9.06391
▁dress	-9.065
▁add	-9.06533
▁joy	-9.06541
▁mountain	-9.06643
▁waiting	-9.06709
▁noble	-9.06773
▁started	-9.06853
▁lips	-9.06898
▁march	-9.07165
lt	-9.07684
▁office	-9.0787
▁post	-9.08038
▁thoughts	-9.08082
▁arrived	-9.08117
▁greater	-9.0812
▁j	-9.08121
▁iron	-9.08144
▁thick	-9.08159
▁tears	-9.08313
ley	-9.0838
▁american	-9.08414
und	-9.08447
▁pen	-9.08483
do	-9.08576
▁path	-9.08653
▁lift	-9.08655
▁write	-9.08766
▁sit	-9.08811
▁ah	-9.08964
▁week	-9.08977
▁duty	-9.09089
▁field	-9.09112
go	-9.09135
▁chapter	-9.09287
▁laughed	-9.09304
▁worth	-9.09317
ism	-9.09385
▁begin	-9.09524
▁stop	-9.09693
▁latter	-9.097
os	-9.09732
▁glass	-9.09775
di	-9.09826
▁particular	-9.09958
▁girls	-9.0999
▁sky	-9.10155
▁books	-9.10228
▁fashion	-9.10333
▁lad	-9.10379
▁pleasant	-9.10545
▁anne	-9.10565
▁expression	-9.10588
▁sand	-9.10808
▁clothes	-9.11047
▁li	-9.11047
▁moon	-9.11466
▁board	-9.11814
ily	-9.11856
▁cap	-9.12217
▁service	-9.1269
▁speaking	-9.12806
▁below	-9.1289
▁snow	-9.12906
▁hat	-9.13029
▁cast	-9.13036
▁shot	-9.13123
▁knight	-9.13127
ah	-9.13299
▁step	-9.13311
▁history	-9.13343
▁cl	-9.13352
he	-9.1359
▁wonderful	-9.13604
ned	-9.13722
▁learn	-9.13929
▁fit	-9.14018
ors	-9.14078
mp	-9.14138
ig	-9.14171
gg	-9.14254
em	-9.14506
▁sha	-9.14531
▁makes	-9.14846
▁presence	-9.1488
▁attempt	-9.14884
▁pull	-9.14905
▁cha	-9.15007
▁figure	-9.15175
▁hill	-9.15281
▁learned	-9.15324
▁giving	-9.15369
▁trust	-9.1557
▁carry	-9.15588
▁direction	-9.15672
▁morrow	-9.15772
▁perfect	-9.15777
▁appear	-9.15864
▁merely	-9.15876
ever	-9.15886
▁forty	-9.15968
▁stream	-9.16217
▁leaving	-9.16442
▁condition	-9.16557
mo	-9.16572
▁born	-9.16614
▁expected	-9.16633
ak	-9.1664
▁stranger	-9.16767
ence	-9.16767
▁lot	-9.16896
▁class	-9.16985
▁months	-9.17093
au	-9.17193
▁peter	-9.17324
▁london	-9.17346
▁bread	-9.17348
▁running	-9.1736
▁neck	-9.17362
▁escape	-9.17445
▁ladies	-9.17607
▁quick	-9.17665
▁beginning	-9.17809
ress	-9.17878
▁box	-9.17927
▁easily	-9.18029
▁race	-9.18073
mon	-9.18113
▁cook	-9.18266
ations	-9.18432
▁vi	-9.18475
▁twelve	-9.18487
▁winter	-9.18508
▁especially	-9.18513
▁mar	-9.18706
▁conversation	-9.18717
▁showed	-9.18734
ward	-9.18761
▁entirely	-9.1891
▁tin	-9.18943
▁journey	-9.18948
▁silver	-9.18948
son	-9.19002
▁lie	-9.19072
▁bank	-9.19149
▁result	-9.19375
▁talking	-9.19402
▁ta	-9.1952
▁jo	-9.19702
▁flowers	-9.1973
▁animal	-9.19856
▁shore	-9.19875
pp	-9.19937
▁occasion	-9.20001
▁grow	-9.20087
▁pocket	-9.20341
▁couldn	-9.20386
▁cry	-9.20387
▁finally	-9.20485
▁raised	-9.20501
▁pa	-9.20519
lin	-9.20588
▁ball	-9.20599
▁gi	-9.2061
▁mark	-9.20648
▁minute	-9.20755
▁lead	-9.20759
▁gu	-9.20795
▁shadow	-9.20816
▁al	-9.20856
▁ring	-9.2086
▁village	-9.21284
▁existence	-9.21289
▁moved	-9.21363
▁bow	-9.21411
va	-9.21483
▁individual	-9.21518
▁important	-9.21523
▁promise	-9.21636
▁pale	-9.21661
▁influence	-9.21755
▁killed	-9.21779
▁shut	-9.21992
▁wished	-9.21997
▁sei	-9.22486
▁lu	-9.22533
▁sharp	-9.22813
▁crowd	-9.22853
▁changed	-9.22906
▁break	-9.22944
▁conduct	-9.22948
▁period	-9.22948
▁youth	-9.23048
▁golden	-9.23082
▁ancient	-9.23189
▁space	-9.2343
▁blow	-9.23523
der	-9.23573
▁proper	-9.23592
▁seat	-9.23603
▁closed	-9.23607
▁turning	-9.23612
▁faint	-9.23672
▁noise	-9.24058
▁middle	-9.24156
ged	-9.24195
no	-9.24264
ring	-9.2437
▁surprise	-9.24532
▁season	-9.24684
▁allowed	-9.24715
▁silent	-9.24757
nt	-9.24858
da	-9.24873
▁married	-9.24888
▁lake	-9.24919
▁happiness	-9.25133
▁understood	-9.25133
▁afterwards	-9.25163
▁sad	-9.25245
▁nice	-9.25403
▁judge	-9.25436
▁star	-9.25527
▁enemy	-9.25625
▁west	-9.25797
▁blind	-9.25872
ally	-9.2589
▁taste	-9.25926
▁throw	-9.25976
▁instant	-9.26244
▁butter	-9.26276
▁meant	-9.26721
▁speech	-9.2673
▁tall	-9.26835
▁honour	-9.26865
▁terrible	-9.26865
▁written	-9.26865
▁simply	-9.26865
▁unless	-9.27081
▁su	-9.27172
▁decided	-9.27221
▁du	-9.27354
ade	-9.27466
▁persons	-9.27509
▁serve	-9.27514
▁trying	-9.27532
ow	-9.27659
▁rain	-9.27729
▁search	-9.27869
▁president	-9.27874
way	-9.27976
▁observed	-9.28028
ag	-9.28067
▁colonel	-9.28122
▁k	-9.28141
▁animals	-9.28141
ven	-9.2824
▁future	-9.28375
▁castle	-9.2848
▁perfectly	-9.28546
▁train	-9.28596
▁brave	-9.28611
by	-9.28617
▁touch	-9.28624
▁language	-9.28629
▁threw	-9.28629
ster	-9.28652
ities	-9.28855
▁circumstances	-9.28885
▁instance	-9.28885
▁comes	-9.28888
▁ears	-9.28902
▁spread	-9.28912
▁narrow	-9.29138
▁content	-9.29281
▁faith	-9.29364
▁lower	-9.29497
▁coat	-9.29577
▁broad	-9.29657
▁success	-9.29786
▁measure	-9.2981
▁comfort	-9.29854
▁cra	-9.29889
▁guess	-9.29912
▁sword	-9.29948
▁lives	-9.29978
▁wouldn	-9.30124
▁bill	-9.30229
▁discovered	-9.30325
▁grand	-9.30341
▁reali	-9.30376
▁personal	-9.30437
ba	-9.30585
▁remain	-9.30664
▁shook	-9.30683
▁stick	-9.30683
▁spite	-9.30719
▁creature	-9.30723
▁cur	-9.30745
▁edge	-9.30746
▁safe	-9.30811
▁rise	-9.3084
ten	-9.31023
▁value	-9.31203
den	-9.31263
▁lying	-9.31323
▁mere	-9.31354
▁repeated	-9.31369
▁reply	-9.31489
▁passing	-9.31559
▁mad	-9.31684
▁salt	-9.31752
▁ri	-9.31817
▁draw	-9.31906
▁broke	-9.32105
ier	-9.32123
▁legs	-9.32178
▁color	-9.3224
▁beneath	-9.32251
kin	-9.32308
▁eli	-9.3233
eth	-9.32388
▁suit	-9.32405
nce	-9.32415
▁move	-9.32689
▁bottom	-9.3278
▁royal	-9.3278
▁main	-9.32834
▁drink	-9.3285
▁hung	-9.33095
▁various	-9.33328
▁listen	-9.33347
▁shape	-9.33545
▁forget	-9.33558
▁gate	-9.33652
▁ideas	-9.33766
▁built	-9.33845
▁allow	-9.339
▁york	-9.34113
ner	-9.34244
▁equal	-9.34254
▁determined	-9.34532
▁catch	-9.34562
▁presently	-9.34605
▁social	-9.34621
▁birds	-9.34643
▁wrote	-9.34922
▁yellow	-9.34925
▁dropped	-9.34928
ron	-9.35008
▁degree	-9.35089
▁attack	-9.35125
▁summer	-9.35195
▁considered	-9.35571
vo	-9.35652
▁sick	-9.35704
▁difficult	-9.35734
▁grass	-9.35812
▁notice	-9.35945
▁tail	-9.36051
▁cup	-9.36439
▁darkness	-9.36492
▁greatest	-9.36517
▁united	-9.36519
▁france	-9.36563
▁mi	-9.36641
▁custom	-9.36699
clock	-9.36738
▁paid	-9.36863
▁dare	-9.36876
▁surely	-9.36997
▁recogni	-9.37098
▁walls	-9.37293
▁charge	-9.37324
▁fifteen	-9.37341
▁valley	-9.37387
▁labor	-9.37388
▁pu	-9.37463
▁start	-9.37556
▁drawing	-9.37599
▁fa	-9.37602
▁clean	-9.37666
▁weak	-9.3771
▁grace	-9.37933
▁surface	-9.37944
▁formed	-9.38017
▁drawn	-9.38107
▁exactly	-9.38123
▁isn	-9.38173
▁steps	-9.38194
▁hu	-9.38376
▁picture	-9.38493
▁marriage	-9.38503
▁heat	-9.38722
▁goes	-9.39102
▁laugh	-9.39145
▁kill	-9.39476
▁former	-9.39544
▁laws	-9.39601
▁somewhat	-9.39632
▁weather	-9.39632
cu	-9.39751
ell	-9.39811
▁difference	-9.39919
▁jane	-9.39944
▁dry	-9.39988
▁carefully	-9.40126
▁carriage	-9.40201
▁william	-9.40202
▁gun	-9.40376
▁advantage	-9.40486
▁dressed	-9.40577
▁difficulty	-9.40743
▁gra	-9.4096
▁ver	-9.41026
▁dick	-9.41098
▁marry	-9.411
▁plan	-9.41105
▁ni	-9.41277
▁receive	-9.41282
▁sin	-9.41327
▁situation	-9.41348
▁remembered	-9.41468
ov	-9.41519
▁leg	-9.41696
▁believed	-9.41749
▁fixed	-9.41773
▁tired	-9.41928
▁bag	-9.41952
▁beat	-9.42019
▁wear	-9.42021
▁store	-9.4222
▁port	-9.4241
▁special	-9.42512
▁prove	-9.42577
▁companion	-9.42683
▁meaning	-9.4279
▁material	-9.42802
▁note	-9.42907
▁lose	-9.43015
▁pleased	-9.43064
▁breakfast	-9.43095
▁holding	-9.4315
ld	-9.43175
tur	-9.43356
▁accept	-9.43393
▁habit	-9.43522
▁cloud	-9.43525
▁sorry	-9.43686
▁grown	-9.43905
▁altogether	-9.4398
▁property	-9.44006
▁leaves	-9.44049
▁happen	-9.44144
ably	-9.4418
con	-9.44198
▁gray	-9.44231
▁ourselves	-9.44277
▁private	-9.44277
▁ja	-9.44327
side	-9.4453
▁square	-9.44575
▁vast	-9.44576
▁places	-9.44692
▁honest	-9.44873
▁nose	-9.44912
▁madame	-9.45017
▁ge	-9.45061
▁skin	-9.45075
▁travel	-9.45111
▁watched	-9.45403
▁opposite	-9.45474
▁cool	-9.45516
▁likely	-9.45665
▁honor	-9.45728
▁enter	-9.4574
▁drop	-9.45766
▁substance	-9.45774
▁hurt	-9.4578
▁reading	-9.45842
▁news	-9.45871
nch	-9.45953
fi	-9.46009
▁finished	-9.4618
▁greatly	-9.46234
▁moral	-9.46241
▁na	-9.46261
▁declared	-9.4631
▁due	-9.46358
▁opportunity	-9.46379
▁offer	-9.46437
ler	-9.46522
▁fate	-9.4654
▁gentle	-9.46633
▁henry	-9.4669
▁shoulder	-9.4686
▁example	-9.46988
▁george	-9.46988
▁margaret	-9.46988
tive	-9.47004
▁waited	-9.4715
wa	-9.47196
▁loud	-9.47229
▁effort	-9.47234
▁group	-9.47294
▁burst	-9.47356
pi	-9.47497
▁stretch	-9.476
▁thin	-9.47714
▁fingers	-9.47813
▁motion	-9.47895
▁nobody	-9.47908
▁study	-9.47918
▁christ	-9.47929
▁expect	-9.47958
▁sufficient	-9.48151
▁east	-9.48211
▁meeting	-9.48222
▁noticed	-9.48344
▁soldiers	-9.48384
▁worse	-9.48526
▁leap	-9.48527
▁quarter	-9.48553
▁pieces	-9.48571
▁spent	-9.48592
▁comp	-9.48717
let	-9.48745
▁mountains	-9.48762
▁pure	-9.48928
her	-9.48965
▁pri	-9.48967
▁pray	-9.4903
▁fruit	-9.49148
▁el	-9.49154
ng	-9.49238
▁chamber	-9.49461
▁everybody	-9.49461
▁tongue	-9.49463
▁savage	-9.49464
lic	-9.49487
▁exist	-9.49549
▁complete	-9.49671
▁express	-9.49748
▁ab	-9.49822
▁share	-9.50016
val	-9.50055
▁system	-9.50089
▁writing	-9.50089
▁jump	-9.50089
▁hole	-9.50153
▁touched	-9.50234
▁par	-9.50329
▁cousin	-9.50404
▁christian	-9.50424
▁beast	-9.50445
▁vain	-9.50504
ile	-9.50518
▁building	-9.50564
per	-9.50596
ey	-9.5062
▁win	-9.50688
▁courage	-9.50721
▁ordinary	-9.50721
▁method	-9.50721
▁sake	-9.50735
▁pride	-9.5076
▁baby	-9.51055
▁generally	-9.51109
▁letters	-9.51188
▁seek	-9.51322
▁forgotten	-9.51362
▁fill	-9.51499
▁mis	-9.51506
▁se	-9.51612
▁claim	-9.51676
▁milk	-9.51676
▁kingdom	-9.51677
▁sail	-9.51994
▁control	-9.51997
▁empty	-9.51997
ible	-9.52178
▁loss	-9.52186
▁exercise	-9.52318
▁peculiar	-9.52318
▁storm	-9.52318
▁fond	-9.5232
▁inside	-9.52379
▁parts	-9.52443
▁whispered	-9.52538
▁sorrow	-9.52608
▁fool	-9.52625
▁row	-9.52692
▁rode	-9.52741
▁wine	-9.52893
▁passage	-9.52997
▁principle	-9.53093
▁ne	-9.53205
▁sa	-9.53212
▁kitchen	-9.53289
▁proud	-9.53626
▁seventeen	-9.53895
▁paris	-9.53932
▁angry	-9.53943
▁flow	-9.53944
▁possession	-9.53994
▁smiled	-9.53996
▁knows	-9.54012
▁similar	-9.5427
▁temper	-9.5427
ble	-9.54271
▁lines	-9.54296
▁prevent	-9.54374
▁corn	-9.54429
▁supposed	-9.54487
▁serious	-9.54553
▁regular	-9.54598
▁obliged	-9.54634
▁surprised	-9.54749
▁dust	-9.54825
▁bu	-9.54866
hood	-9.5492
▁bent	-9.54971
▁settled	-9.55105
▁fallen	-9.55132
▁higher	-9.55146
▁mor	-9.55202
ns	-9.55336
▁rank	-9.55395
▁bri	-9.55468
▁anxious	-9.55549
▁finding	-9.55565
▁flash	-9.55592
▁impression	-9.55592
▁smoke	-9.55592
▁sing	-9.55696
if	-9.55848
▁religion	-9.55925
▁opening	-9.56145
▁dollars	-9.56177
▁offered	-9.56241
▁america	-9.56311
▁delight	-9.5639
▁murder	-9.56407
▁servant	-9.56467
▁discover	-9.56479
▁shop	-9.56682
▁key	-9.56702
▁calm	-9.56723
ran	-9.56863
▁contrary	-9.56936
▁rule	-9.57054
▁depend	-9.57236
▁quietly	-9.57578
▁fancy	-9.57614
▁den	-9.5781
▁feelings	-9.57935
▁knowing	-9.57948
▁progress	-9.57949
▁struggle	-9.57949
▁species	-9.57955
▁prepared	-9.58083
▁forced	-9.58096
▁band	-9.58176
▁rep	-9.58181
▁buy	-9.58201
▁curious	-9.58272
▁heads	-9.58289
▁gentlemen	-9.58311
▁sixty	-9.58366
▁explain	-9.58438
▁walking	-9.58475
▁flower	-9.5852
ip	-9.58566
▁duke	-9.58652
▁authority	-9.5867
▁spoken	-9.58701
▁caused	-9.58815
▁bal	-9.58828
▁hills	-9.58855
▁evidence	-9.58976
▁welcome	-9.58976
▁poet	-9.59168
▁thrown	-9.5919
▁liberty	-9.59321
▁justice	-9.59324
▁trade	-9.59327
▁drive	-9.59352
▁seventy	-9.59374
▁proved	-9.59397
▁chi	-9.59407
▁support	-9.59478
▁political	-9.59667
▁horror	-9.60014
our	-9.60262
▁awful	-9.60367
▁rate	-9.60373
▁ice	-9.60404
▁ordered	-9.60603
▁evidently	-9.60631
▁imagine	-9.60706
▁rope	-9.6071
▁rough	-9.60726
▁health	-9.60823
▁gift	-9.61064
▁pair	-9.61092
▁ear	-9.61098
▁tender	-9.61098
▁tower	-9.61169
▁enjoy	-9.61186
▁bla	-9.61222
ning	-9.61231
▁fail	-9.6127
▁science	-9.61415
▁memory	-9.61416
▁remark	-9.61515
▁union	-9.61625
▁flat	-9.61739
▁asleep	-9.61769
▁temple	-9.61769
▁dreadful	-9.61793
▁unto	-9.61892
▁rocks	-9.61916
▁rush	-9.61968
▁record	-9.62123
▁slow	-9.62147
▁handsome	-9.62175
▁listened	-9.62231
▁month	-9.62548
ay	-9.62561
▁citi	-9.62804
▁tu	-9.62843
▁direct	-9.6295
▁farm	-9.63067
▁shoulders	-9.63171
▁fault	-9.63195
▁twice	-9.632
▁officers	-9.63218
▁bitter	-9.63236
▁supper	-9.63254
▁grey	-9.63403
ped	-9.63479
▁divine	-9.63581
▁rising	-9.63583
▁crown	-9.63699
▁laughing	-9.63759
▁meat	-9.63785
▁amount	-9.63916
▁gathered	-9.63947
▁station	-9.63952
▁alive	-9.63964
▁speed	-9.63978
▁houses	-9.63993
▁fat	-9.64027
▁min	-9.64122
ians	-9.64155
▁bra	-9.64163
▁despair	-9.64278
▁growing	-9.64317
▁fort	-9.64345
▁wealth	-9.64397
▁meal	-9.64465
▁emperor	-9.64641
▁mass	-9.64719
▁brain	-9.64725
▁produced	-9.64808
▁stones	-9.64815
▁promised	-9.64824
▁watching	-9.64981
▁loose	-9.65025
▁professor	-9.6503
▁directly	-9.65039
▁bodies	-9.6505
▁streets	-9.65065
▁finger	-9.6513
▁v	-9.65147
▁failed	-9.65189
▁worked	-9.6523
▁cost	-9.65368
▁unknown	-9.65373
▁luck	-9.65378
▁trail	-9.65405
▁breast	-9.65406
▁require	-9.65643
▁original	-9.6573
▁patient	-9.6574
▁treasure	-9.6574
▁suffer	-9.65982
▁report	-9.65989
▁constitution	-9.66109
▁design	-9.6611
▁indian	-9.66129
▁aid	-9.66169
▁dance	-9.66228
▁windows	-9.6623
▁german	-9.6624
▁har	-9.66259
▁questions	-9.66282
▁hearing	-9.66322
▁wound	-9.66341
▁height	-9.6637
▁pot	-9.66385
ga	-9.66399
▁terror	-9.6648
▁praise	-9.66487
▁cruel	-9.66541
▁cloth	-9.66871
▁soldier	-9.6703
▁hi	-9.67211
▁paul	-9.67262
▁carrying	-9.6732
▁movement	-9.67438
▁message	-9.676
▁named	-9.6786
▁dim	-9.67888
▁pack	-9.6795
▁excellent	-9.67975
▁freedom	-9.67975
▁coast	-9.67976
ite	-9.68028
▁lover	-9.68082
▁woods	-9.68113
▁grant	-9.68152
▁slave	-9.68206
▁double	-9.68211
wood	-9.6833
ugh	-9.6842
▁nearer	-9.68489
bu	-9.68552
▁doesn	-9.68682
io	-9.687
▁confidence	-9.68733
▁engaged	-9.68823
▁weight	-9.69015
▁tale	-9.69057
▁pity	-9.69099
▁crime	-9.69112
▁sunday	-9.69123
▁brothers	-9.69207
ement	-9.69216
▁lean	-9.69253
▁ka	-9.6928
▁admit	-9.69468
▁stairs	-9.69476
▁basket	-9.69493
▁satisfied	-9.69493
▁worship	-9.69493
▁hence	-9.6962
▁aware	-9.6965
▁weeks	-9.69673
▁aside	-9.69862
▁sides	-9.69964
▁sum	-9.69989
▁naturally	-9.70009
▁suffering	-9.70247
▁distant	-9.70262
▁terms	-9.70309
▁interesting	-9.70322
▁powerful	-9.70422
▁liked	-9.70445
▁gar	-9.70447
▁wa	-9.70466
lie	-9.70589
▁strain	-9.70647
▁yield	-9.70647
▁couple	-9.70647
▁belief	-9.70647
▁moving	-9.70648
▁foreign	-9.70649
▁busy	-9.70655
▁bore	-9.70668
ka	-9.70847
▁mile	-9.70882
▁eleven	-9.71035
▁working	-9.71041
▁lion	-9.71236
▁maid	-9.71315
▁afford	-9.71424
▁otherwise	-9.71445
▁affairs	-9.7145
▁sought	-9.71473
▁witness	-9.71481
▁stu	-9.71708
▁fur	-9.7173
▁argument	-9.71814
▁cottage	-9.71814
▁strike	-9.71814
▁minister	-9.71814
▁completely	-9.7189
▁press	-9.71942
▁cases	-9.7201
▁hath	-9.72048
▁contain	-9.72111
▁venture	-9.72221
▁firm	-9.72228
▁huge	-9.72235
▁song	-9.72249
▁pet	-9.72404
▁pipe	-9.72531
▁gain	-9.72578
▁familiar	-9.726
▁necessity	-9.726
▁possessed	-9.72664
ified	-9.72672
▁servants	-9.72751
rous	-9.72787
▁slaves	-9.72793
▁agreed	-9.72886
▁mill	-9.72889
▁machine	-9.72964
▁required	-9.73063
▁matters	-9.73149
▁keeping	-9.73156
▁instantly	-9.73197
▁hunting	-9.73204
▁falling	-9.73209
▁tra	-9.73362
▁ruin	-9.73386
▁grandfather	-9.73392
▁portion	-9.73481
▁smooth	-9.73791
▁century	-9.73791
▁roof	-9.73791
ju	-9.73816
▁stars	-9.73821
▁intended	-9.73875
▁shade	-9.74074
▁jack	-9.74174
▁education	-9.74191
▁shock	-9.74191
▁smiling	-9.74197
▁papa	-9.74204
▁stage	-9.74318
▁served	-9.74357
▁eighty	-9.74394
▁ways	-9.74414
▁major	-9.74546
▁ocean	-9.74592
▁intention	-9.74624
▁talked	-9.74689
ments	-9.74725
▁circle	-9.74851
▁officer	-9.74889
▁nurse	-9.74969
▁false	-9.74989
▁devil	-9.74993
▁merchant	-9.74996
▁emotion	-9.74996
▁native	-9.75007
▁ama	-9.75015
▁hans	-9.75032
pa	-9.75124
▁passion	-9.75144
▁frequently	-9.75237
▁mistake	-9.75248
eal	-9.75287
▁clearly	-9.75298
▁treat	-9.7532
▁demand	-9.75333
▁instinct	-9.754
▁seated	-9.75427
▁succeeded	-9.75587
▁maiden	-9.75598
▁gods	-9.7563
▁possess	-9.75676
▁particularly	-9.75715
▁ride	-9.75755
▁qua	-9.75765
▁splendid	-9.75807
▁bridge	-9.75813
▁events	-9.75967
▁ru	-9.76012
▁fly	-9.76115
▁needed	-9.76156
▁importance	-9.76222
▁affection	-9.76235
▁avoid	-9.76564
▁advice	-9.76625
▁excuse	-9.76625
▁shame	-9.76665
▁image	-9.76688
▁upper	-9.769
▁civili	-9.76997
▁orders	-9.77032
▁task	-9.77039
▁looks	-9.77071
▁adventure	-9.77102
▁lovely	-9.77208
▁remarked	-9.77237
▁countenance	-9.7745
▁possibly	-9.7745
▁daily	-9.77481
▁played	-9.7749
▁dangerous	-9.77519
▁singing	-9.77595
▁frightened	-9.7765
▁gen	-9.77663
▁author	-9.7781
▁delicate	-9.77865
▁infinite	-9.77865
▁mistress	-9.77914
▁van	-9.77917
▁page	-9.77967
▁forms	-9.78107
▁pointed	-9.78109
▁cart	-9.78278
▁bishop	-9.78281
▁instrument	-9.78281
▁proof	-9.78281
▁mentioned	-9.78286
▁skill	-9.78368
▁vo	-9.78442
we	-9.78609
▁calling	-9.78624
▁flesh	-9.787
▁check	-9.78722
▁slight	-9.78773
ham	-9.78945
▁address	-9.79102
▁correct	-9.7912
▁nevertheless	-9.7912
▁capital	-9.7912
▁nation	-9.79159
▁lamp	-9.79163
▁ob	-9.79166
▁harm	-9.79175
▁pour	-9.79229
▁park	-9.7927
▁equally	-9.7929
▁indians	-9.79389
▁ships	-9.79442
▁flew	-9.79542
▁silk	-9.79543
▁behold	-9.79546
▁gre	-9.79546
▁occurred	-9.79552
▁joined	-9.79567
▁pounds	-9.79614
▁fro	-9.79625
▁driven	-9.79732
▁practice	-9.79931
▁frame	-9.79986
▁sentence	-9.80013
▁softly	-9.801
▁te	-9.8012
ther	-9.80281
▁wicked	-9.80394
▁root	-9.80431
▁telling	-9.80437
▁demanded	-9.80464
▁join	-9.80669
▁sacrifice	-9.80751
▁gently	-9.80821
▁track	-9.80843
▁dogs	-9.80896
ches	-9.80947
▁prison	-9.81021
ki	-9.81027
▁hide	-9.81185
▁proportion	-9.81248
▁odd	-9.81262
▁type	-9.81266
▁clever	-9.81268
▁sc	-9.813
▁shown	-9.81345
▁pace	-9.81353
▁bay	-9.81414
▁dull	-9.81437
▁tro	-9.81455
▁test	-9.81457
▁conditions	-9.81458
▁explained	-9.81493
lung	-9.8155
▁disappeared	-9.81563
▁anybody	-9.81679
▁yesterday	-9.81679
▁appeal	-9.81679
▁frank	-9.81691
▁lack	-9.81772
▁produce	-9.81981
▁fourth	-9.81999
▁trip	-9.82028
▁robert	-9.82115
▁sheep	-9.82136
▁oak	-9.82209
▁leader	-9.82209
cing	-9.82232
▁bare	-9.82247
▁eggs	-9.82262
▁che	-9.82275
▁char	-9.82313
▁absolutely	-9.8236
ets	-9.82479
▁modern	-9.82547
▁forgive	-9.82549
▁dawn	-9.82561
▁leading	-9.82585
ries	-9.82602
▁virtue	-9.82784
▁tar	-9.82801
▁magic	-9.82903
pped	-9.82971
▁drove	-9.82983
▁fe	-9.82983
▁fierce	-9.82991
▁fighting	-9.83101
qua	-9.83113
▁apparently	-9.83185
▁mention	-9.83188
▁relation	-9.83227
and	-9.83245
▁protect	-9.83359
stone	-9.83375
ium	-9.83389
▁stock	-9.83401
▁destroy	-9.8342
▁choose	-9.83422
▁judgment	-9.83422
▁region	-9.83422
▁level	-9.83424
▁severe	-9.83455
▁consciousness	-9.83494
▁base	-9.83548
▁holy	-9.83552
▁approach	-9.83577
▁spi	-9.83614
▁regarded	-9.83667
▁conscious	-9.8379
q	-9.83825
▁thunder	-9.83862
▁stuff	-9.83888
▁haven	-9.84013
▁worthy	-9.84064
▁sailor	-9.84168
▁cal	-9.84221
▁sixteen	-9.84258
▁physical	-9.84305
▁wore	-9.84305
▁mount	-9.84311
▁remarkable	-9.84422
▁button	-9.84487
ric	-9.84508
▁members	-9.84573
▁sell	-9.84579
▁wasn	-9.84581
▁advanced	-9.84659
▁lies	-9.84683
▁pardon	-9.84749
▁imagination	-9.84753
▁distinct	-9.84754
▁burn	-9.84776
▁price	-9.84784
▁entire	-9.84821
▁advance	-9.84839
▁fields	-9.84959
ists	-9.85125
▁rubb	-9.85131
▁nineteen	-9.85149
▁curiosity	-9.85195
▁satisfaction	-9.85195
▁taught	-9.85196
▁worn	-9.85196
▁spend	-9.85196
▁excitement	-9.85203
▁swift	-9.85268
▁beg	-9.85311
▁inter	-9.85321
▁suggested	-9.85358
▁plate	-9.85428
▁paused	-9.85477
bi	-9.85554
▁mat	-9.85575
▁europe	-9.85599
▁choice	-9.85644
▁enemies	-9.85644
▁julia	-9.85644
▁edward	-9.85651
▁adam	-9.85681
▁hate	-9.85696
▁farther	-9.857
▁resolved	-9.85738
▁arch	-9.8589
▁consideration	-9.85931
ny	-9.8596
▁vessel	-9.85981
▁christmas	-9.86095
▁club	-9.86105
▁cheer	-9.86163
▁rapid	-9.8618
▁fully	-9.86227
▁organi	-9.86285
▁hang	-9.86304
▁limit	-9.86572
▁information	-9.86577
▁governor	-9.86577
▁doors	-9.86692
▁chest	-9.86739
▁burning	-9.86841
▁accident	-9.87001
▁anger	-9.8702
▁flight	-9.87036
▁spare	-9.87073
▁pi	-9.87247
▁waves	-9.87276
▁knees	-9.8729
▁flying	-9.87374
▁superior	-9.87412
▁observation	-9.87458
▁unfortunate	-9.87458
rt	-9.87471
▁keen	-9.87504
▁distress	-9.87554
▁vote	-9.87654
▁entrance	-9.87917
▁bath	-9.8793
▁term	-9.87955
▁card	-9.8828
light	-9.88293
▁conclusion	-9.88378
▁carpet	-9.88378
▁arose	-9.88381
▁farmer	-9.88403
▁earnest	-9.88488
▁spirits	-9.88537
ky	-9.88562
▁sigh	-9.8878
▁names	-9.88799
▁affair	-9.8881
▁moreover	-9.88841
▁cor	-9.88858
▁trace	-9.88926
▁col	-9.88947
▁delighted	-9.8913
▁ceased	-9.8915
gen	-9.89174
▁rapidly	-9.89226
ification	-9.89296
▁female	-9.89306
▁fox	-9.89325
▁glory	-9.89334
▁midst	-9.89437
▁highest	-9.89549
▁dish	-9.89602
▁larger	-9.89624
▁includ	-9.89773
▁wholly	-9.89796
▁extraordinary	-9.89797
▁reflection	-9.89818
▁faithful	-9.89833
▁capable	-9.89872
▁bold	-9.89888
▁interested	-9.89893
▁dan	-9.89927
▁bur	-9.89954
▁roll	-9.90055
ative	-9.90122
one	-9.90131
▁faces	-9.90176
▁process	-9.90178
▁intellect	-9.90242
▁council	-9.90242
▁monsieur	-9.90242
▁stories	-9.90242
▁request	-9.90242
▁smell	-9.90243
▁polly	-9.90244
▁hidden	-9.90249
▁throat	-9.90277
▁crossed	-9.90457
ub	-9.90526
▁shell	-9.90535
▁continue	-9.9054
▁constantly	-9.90571
▁stir	-9.90689
▁acquaintance	-9.90714
▁military	-9.90714
▁pink	-9.9077
▁supply	-9.90821
▁shining	-9.90888
▁roar	-9.90919
▁dread	-9.91155
▁sprang	-9.91188
▁tristram	-9.91188
▁famous	-9.91188
abeth	-9.91196
▁hunt	-9.91216
▁pressed	-9.91307
▁removed	-9.91352
▁wants	-9.91354
▁objects	-9.91378
ory	-9.91384
▁prisoner	-9.91433
▁wings	-9.91627
▁meanwhile	-9.91664
▁quot	-9.91664
ach	-9.91735
▁considerable	-9.91773
▁national	-9.91794
j	-9.91828
▁wounded	-9.91843
▁shoes	-9.91996
▁bearing	-9.92042
ang	-9.92051
▁alas	-9.9213
▁intelligence	-9.92143
▁universal	-9.92143
▁recall	-9.92143
▁wishes	-9.92155
▁occupied	-9.92169
▁foolish	-9.92177
ctually	-9.92188
▁excited	-9.92248
▁thoroughly	-9.92268
▁proceeded	-9.92326
▁companions	-9.92337
▁perceived	-9.92392
▁waste	-9.92501
▁works	-9.92579
▁plenty	-9.92623
▁religious	-9.92623
▁drift	-9.92624
▁becomes	-9.92691
ou	-9.92751
▁fer	-9.92799
▁pur	-9.92892
▁hoped	-9.92916
ied	-9.93035
▁closely	-9.93052
▁retreat	-9.93107
▁british	-9.93107
▁hotel	-9.93193
▁wi	-9.93343
▁qui	-9.93358
ea	-9.93431
▁helped	-9.93461
▁favour	-9.93539
▁favor	-9.9354
▁explanation	-9.93592
▁regret	-9.93592
▁grief	-9.93592
▁extent	-9.93593
▁sugar	-9.93597
▁pepper	-9.93598
▁log	-9.93626
▁eager	-9.93631
▁gradually	-9.9364
▁cu	-9.93649
▁sal	-9.93667
▁moments	-9.93672
▁evident	-9.93705
▁charm	-9.93712
▁presented	-9.93763
▁angel	-9.93791
▁refused	-9.93901
ign	-9.94002
▁accordingly	-9.94005
▁flour	-9.94056
▁approached	-9.94079
▁relief	-9.9408
▁worst	-9.9408
▁attain	-9.94081
▁bottle	-9.94086
▁boil	-9.94088
▁charles	-9.94097
▁jewel	-9.94135
▁wash	-9.94142
▁attend	-9.94159
▁elect	-9.94167
board	-9.94224
▁suffered	-9.94267
▁useful	-9.9427
▁rushed	-9.94315
▁agree	-9.94337
▁increased	-9.9442
▁expressed	-9.94473
▁neighbour	-9.94563
▁arrival	-9.9457
▁becoming	-9.9457
▁begun	-9.94588
▁anyone	-9.94715
▁truly	-9.94747
▁concerned	-9.94824
▁male	-9.95001
▁range	-9.9506
▁precious	-9.95063
▁jesus	-9.95063
▁colour	-9.95177
▁guide	-9.952
▁kiss	-9.95218
▁yard	-9.95219
▁nu	-9.95221
▁chain	-9.9525
▁sooner	-9.95447
▁powers	-9.95481
▁wit	-9.95501
▁mode	-9.95541
▁anti	-9.9556
▁vision	-9.95562
▁smith	-9.95572
▁principal	-9.96055
▁stiff	-9.96055
▁source	-9.96056
▁brow	-9.96062
▁joe	-9.96091
ude	-9.96134
▁shouted	-9.96156
oo	-9.96157
▁cow	-9.96268
▁build	-9.9633
▁secure	-9.96386
▁owe	-9.96422
▁wolf	-9.96555
▁brief	-9.96555
▁stepped	-9.96572
▁heap	-9.96597
▁branches	-9.96639
▁render	-9.96822
the	-9.96905
▁marked	-9.96933
▁brush	-9.97058
▁absence	-9.97058
▁teeth	-9.97069
▁dying	-9.97072
▁pit	-9.97074
▁elder	-9.97077
▁hurried	-9.97186
▁extreme	-9.97187
▁member	-9.97258
▁established	-9.97486
▁accepted	-9.97556
▁brilliant	-9.97563
▁labour	-9.97563
▁quarrel	-9.97563
▁await	-9.97564
▁successful	-9.97627
▁plant	-9.9765
▁active	-9.97663
▁pitch	-9.97668
▁saved	-9.97812
▁escaped	-9.97849
▁careful	-9.97887
▁lesson	-9.97917
▁thrust	-9.9807
▁local	-9.98071
▁stern	-9.98073
▁begged	-9.98094
▁friendship	-9.98153
▁whence	-9.98164
lan	-9.98237
▁writer	-9.98304
▁wheel	-9.98311
bby	-9.9848
▁grim	-9.98495
▁creatures	-9.985
▁newspaper	-9.98581
▁squire	-9.98581
▁throughout	-9.98581
▁thanks	-9.98601
▁crack	-9.98626
▁efforts	-9.9868
▁increase	-9.98737
▁teach	-9.98787
▁utter	-9.98847
▁wondered	-9.98852
▁flood	-9.99093
▁vague	-9.99093
▁miserable	-9.99094
▁vari	-9.99103
ville	-9.99111
▁cent	-9.99194
▁concerning	-9.99222
▁def	-9.99233
▁deck	-9.99331
▁cities	-9.99333
▁signal	-9.99399
▁billy	-9.99583
▁understanding	-9.99607
▁ghost	-9.99609
▁popular	-9.99609
▁seldom	-9.99609
▁suspicion	-9.99609
▁current	-9.99609
▁safety	-9.99651
▁reward	-9.99704
▁glo	-9.99718
▁ski	-9.9994
▁trap	-9.99957
▁principles	-9.99957
ese	-9.99979
▁lock	-10.0009
▁reckon	-10.0013
▁scream	-10.0013
▁ninety	-10.0018
▁unable	-10.002
▁victory	-10.0022
ery	-10.003
▁wave	-10.0037
▁wire	-10.0045
▁clo	-10.005
▁reader	-10.0057
▁birth	-10.0065
▁whil	-10.0065
▁somewhere	-10.0065
▁feather	-10.0065
▁buried	-10.0065
▁connection	-10.0067
ina	-10.0068
▁jim	-10.0068
▁sold	-10.0075
▁trot	-10.0076
▁match	-10.0078
ram	-10.0081
▁whisper	-10.0081
▁raise	-10.0082
▁hero	-10.0093
hol	-10.0099
▁tent	-10.0102
▁provided	-10.0103
▁metal	-10.0104
▁stro	-10.0115
▁experiment	-10.0117
▁dignity	-10.0117
▁slipped	-10.0118
▁painful	-10.0127
▁bull	-10.0129
▁u	-10.0133
▁weary	-10.0134
▁hit	-10.014
wn	-10.0145
▁asking	-10.0147
▁scar	-10.0148
▁aim	-10.0149
▁consequence	-10.0151
▁sentiment	-10.0153
▁centre	-10.0154
▁hut	-10.0154
▁nay	-10.016
▁everywhere	-10.017
▁prospect	-10.017
▁western	-10.017
▁wake	-10.0175
▁stable	-10.0176
▁desired	-10.0176
▁troops	-10.0178
▁host	-10.0178
▁yards	-10.0206
▁mysterious	-10.0223
▁delay	-10.0223
▁ease	-10.0224
▁feed	-10.0225
▁candle	-10.0225
▁trial	-10.023
▁ideal	-10.0231
▁facts	-10.0236
▁separate	-10.0246
▁waters	-10.0248
▁clouds	-10.0251
▁arranged	-10.0258
▁older	-10.0263
▁roman	-10.0267
▁joseph	-10.0276
▁problem	-10.0276
▁slept	-10.0276
▁motive	-10.0278
▁admitted	-10.0279
▁voices	-10.028
▁crying	-10.0281
▁sport	-10.0282
▁bought	-10.029
▁cease	-10.0294
▁desert	-10.0295
▁rang	-10.0297
▁ahead	-10.0308
▁tear	-10.0308
▁points	-10.031
▁rum	-10.0322
for	-10.0324
▁mamma	-10.0329
▁somehow	-10.0329
▁defend	-10.0329
▁arrangement	-10.0334
▁sounds	-10.0334
▁hungry	-10.0336
▁distinguished	-10.0345
▁solemn	-10.0345
▁constant	-10.0346
▁repeat	-10.0349
▁div	-10.0349
ford	-10.035
▁obtained	-10.0359
▁beard	-10.0364
▁cats	-10.0365
▁prefer	-10.038
▁stupid	-10.0383
▁james	-10.0383
ette	-10.0389
▁plainly	-10.0392
▁papers	-10.0395
▁sang	-10.0405
▁del	-10.042
▁david	-10.0437
▁immense	-10.0437
▁majesty	-10.0437
▁project	-10.0437
▁relative	-10.0437
▁crew	-10.0437
▁peasant	-10.0437
▁mood	-10.0437
▁queer	-10.0437
▁shelter	-10.0438
▁alice	-10.0439
▁giant	-10.0442
itude	-10.0445
▁market	-10.0445
▁dreams	-10.0446
uous	-10.0456
▁san	-10.0458
▁soil	-10.0479
bble	-10.0482
▁pound	-10.0487
▁priest	-10.0488
▁deeply	-10.0491
▁r	-10.0492
▁grasp	-10.0493
▁virginia	-10.0495
▁reign	-10.0496
▁nest	-10.0507
▁relations	-10.0514
ib	-10.0525
▁forces	-10.0532
▁remind	-10.0546
▁wisdom	-10.0546
▁inhabitants	-10.0546
▁steal	-10.0546
▁southern	-10.0546
aries	-10.0559
▁oil	-10.056
▁kindly	-10.0561
▁alarm	-10.0568
▁takes	-10.0574
▁assured	-10.0574
▁mist	-10.0591
▁arthur	-10.0601
▁knife	-10.0601
▁striking	-10.0601
▁trembling	-10.0601
▁spoil	-10.0601
▁household	-10.0601
▁cake	-10.0605
▁blame	-10.0611
▁comfortable	-10.0611
▁climb	-10.0623
▁fled	-10.0624
▁pushed	-10.0627
▁setting	-10.0629
▁planet	-10.0635
▁fellows	-10.0636
▁remains	-10.0648
▁police	-10.0653
▁cliff	-10.0656
▁numerous	-10.0656
▁playing	-10.0658
▁accustomed	-10.066
▁delightful	-10.0662
▁whi	-10.0664
▁hearts	-10.0671
▁inquired	-10.0671
▁beaten	-10.0672
▁mac	-10.0679
▁knock	-10.0679
▁pine	-10.068
▁parties	-10.0697
▁theory	-10.0704
▁rolled	-10.0705
▁triumph	-10.071
▁essential	-10.0712
▁visible	-10.0712
▁tri	-10.0712
gue	-10.0712
▁assist	-10.0715
▁sex	-10.0717
▁features	-10.0737
▁tip	-10.0748
▁pin	-10.0753
▁rear	-10.0754
phi	-10.0756
ius	-10.0763
▁prevail	-10.0768
▁congress	-10.0768
▁mental	-10.0774
▁refuse	-10.0788
▁interrupted	-10.0793
▁rooms	-10.08
▁hanging	-10.0802
▁uttered	-10.0808
▁fairly	-10.0811
▁observe	-10.082
▁returning	-10.0823
▁contempt	-10.0824
▁desperate	-10.0824
▁unhappy	-10.0824
▁fourteen	-10.0824
▁feast	-10.0824
▁saddle	-10.0824
▁trick	-10.0827
▁dirt	-10.0828
▁gives	-10.0832
wick	-10.0834
▁lamb	-10.0836
▁lest	-10.0838
▁expedition	-10.088
▁unusual	-10.088
▁consult	-10.088
▁intellectual	-10.088
▁forgot	-10.0881
▁permitted	-10.0883
▁informed	-10.0884
av	-10.0886
▁rabbit	-10.0886
▁apartment	-10.089
▁kate	-10.0892
▁pause	-10.0902
▁obtain	-10.0906
▁bowed	-10.0921
▁eagerly	-10.0924
▁rare	-10.0929
ties	-10.0935
▁magnificent	-10.0937
▁nervous	-10.0937
▁sensible	-10.0937
▁buck	-10.0937
▁risk	-10.0938
▁burden	-10.0938
▁kindness	-10.0939
▁cabin	-10.0942
▁sisters	-10.0947
▁event	-10.0949
▁rent	-10.0954
▁compar	-10.0954
▁ain	-10.0955
▁listening	-10.0979
gan	-10.0989
▁threat	-10.0994
▁sympathy	-10.0994
▁meadow	-10.0994
▁merry	-10.0995
▁genius	-10.0995
▁ashamed	-10.0995
▁com	-10.0998
▁baron	-10.1008
▁mag	-10.1016
▁dared	-10.1029
▁rat	-10.103
▁discovery	-10.1036
▁hurry	-10.1037
▁cave	-10.1051
▁stands	-10.1064
▁retired	-10.1069
▁notion	-10.1081
▁appears	-10.1085
▁utterly	-10.1094
▁parents	-10.1099
▁fi	-10.1106
▁absurd	-10.111
▁conscience	-10.111
▁fought	-10.111
▁manifest	-10.111
▁greek	-10.111
▁rome	-10.1115
▁concern	-10.1123
▁horn	-10.1123
▁cab	-10.1123
▁violent	-10.113
▁useless	-10.1134
▁title	-10.1135
▁una	-10.1135
▁consent	-10.1138
▁district	-10.1168
▁plum	-10.1168
▁somebody	-10.1168
▁style	-10.1168
▁harry	-10.1173
▁murmured	-10.1178
▁pie	-10.118
▁exact	-10.1189
▁hunter	-10.1194
▁peer	-10.1206
▁nations	-10.1208
▁actions	-10.1215
▁apart	-10.1217
▁coffee	-10.1226
▁innocent	-10.1226
▁mercy	-10.1226
▁singular	-10.1227
▁bride	-10.123
▁sank	-10.1231
ab	-10.1232
▁list	-10.124
▁enable	-10.1244
▁minds	-10.1261
▁fin	-10.1268
▁putt	-10.1282
▁pig	-10.1283
▁assistance	-10.1287
▁punishment	-10.1287
▁wing	-10.1289
▁partly	-10.1313
▁nut	-10.132
▁approaching	-10.1323
house	-10.1327
▁entertain	-10.1338
▁incident	-10.1344
▁steel	-10.1344
▁mortal	-10.1344
▁hollow	-10.1345
▁slid	-10.1345
▁preach	-10.1346
▁manage	-10.1348
▁fever	-10.1356
▁print	-10.1361
▁bond	-10.1366
▁flame	-10.1367
▁ended	-10.1378
▁managed	-10.1381
▁friendly	-10.1388
▁actual	-10.1391
▁shoot	-10.1391
▁stared	-10.1394
▁hori	-10.1401
▁enormous	-10.1404
▁profound	-10.1404
▁gleam	-10.1404
▁utmost	-10.1404
▁string	-10.1404
▁block	-10.1405
▁highly	-10.1417
▁proposed	-10.1422
field	-10.1424
▁connected	-10.1431
▁rid	-10.1437
▁fix	-10.1438
▁melancholy	-10.1464
▁qualities	-10.1464
▁poison	-10.1464
▁retain	-10.1464
▁helen	-10.1494
▁succeed	-10.1496
low	-10.15
▁push	-10.15
▁kissed	-10.1511
▁ble	-10.1513
▁college	-10.1524
▁credit	-10.1524
▁sancho	-10.1524
▁unconscious	-10.1524
▁widow	-10.1524
▁intense	-10.1524
▁northern	-10.1524
▁ugly	-10.1524
▁tide	-10.1524
▁ko	-10.1535
▁treated	-10.1536
▁chosen	-10.1536
▁divided	-10.1545
▁charming	-10.1554
▁bi	-10.1555
rate	-10.1559
▁tis	-10.1568
▁alter	-10.1574
▁exhibit	-10.1578
▁admiration	-10.1585
▁powder	-10.1585
▁domestic	-10.1585
▁loving	-10.1585
▁difficulties	-10.1592
▁employed	-10.1602
▁recover	-10.1618
▁endure	-10.162
▁halt	-10.1623
▁fatal	-10.1636
▁haste	-10.164
▁confusion	-10.1646
▁swallow	-10.1646
▁intimate	-10.1646
▁disposition	-10.1647
▁hint	-10.1648
some	-10.1674
▁cheerful	-10.1674
▁tie	-10.1675
▁rag	-10.1676
▁folk	-10.1682
▁humble	-10.1684
▁fo	-10.1686
▁dragg	-10.1696
▁mounted	-10.1706
▁destruction	-10.1707
▁empire	-10.1707
▁misfortune	-10.1707
▁rage	-10.1707
▁convey	-10.1707
▁electric	-10.1708
▁duties	-10.1708
▁contract	-10.1709
▁rude	-10.1718
▁confess	-10.1735
▁bark	-10.1741
▁knights	-10.1764
▁trans	-10.1766
▁parliament	-10.1769
▁province	-10.1769
▁echo	-10.1769
▁restrain	-10.1769
▁rifle	-10.1769
▁robber	-10.177
▁tribe	-10.177
▁extended	-10.1775
▁china	-10.178
▁surrounded	-10.1782
▁feared	-10.1783
▁gained	-10.1784
▁torn	-10.1785
▁degrees	-10.1792
▁practical	-10.1795
▁tre	-10.1807
row	-10.1811
▁showing	-10.1821
▁quality	-10.1831
▁sacred	-10.1831
▁voyage	-10.1831
▁washington	-10.1831
▁attitude	-10.1831
▁hook	-10.1831
▁origin	-10.1832
▁departed	-10.1835
▁revolution	-10.1838
▁guilty	-10.1841
▁appointed	-10.1849
▁objection	-10.1854
▁mistaken	-10.1854
▁bree	-10.1858
▁operation	-10.1862
▁eating	-10.1864
▁final	-10.1864
▁plants	-10.1868
▁load	-10.1875
ith	-10.188
▁described	-10.1881
▁strip	-10.1882
▁sur	-10.1883
▁slightly	-10.1887
▁benefit	-10.1893
▁patience	-10.1893
▁sultan	-10.1893
▁mankind	-10.1893
▁defeat	-10.1894
via	-10.1908
▁boots	-10.1911
pping	-10.1913
▁frequent	-10.1919
▁immediate	-10.1919
▁ph	-10.192
▁kinds	-10.1923
▁perform	-10.1929
▁climbed	-10.1931
▁curl	-10.1931
▁mal	-10.1932
atic	-10.1932
▁tied	-10.1933
▁gay	-10.1946
▁august	-10.1952
▁permit	-10.1954
▁leaf	-10.1956
▁craft	-10.1956
▁hastily	-10.1957
▁lighted	-10.1957
▁throne	-10.1963
▁mid	-10.1964
▁prayer	-10.1964
right	-10.1965
▁guns	-10.1969
▁sufficiently	-10.197
▁hum	-10.1971
▁bade	-10.1974
▁belong	-10.1981
lar	-10.1982
▁lucy	-10.1983
ability	-10.1989
more	-10.1989
time	-10.199
▁introduced	-10.1992
▁obey	-10.1996
▁armed	-10.1996
art	-10.2007
▁sweep	-10.2019
▁erect	-10.202
▁slavery	-10.2025
▁laughter	-10.2026
▁verse	-10.2034
▁proceed	-10.205
▁unc	-10.2058
▁pole	-10.2064
▁extremely	-10.2067
▁shake	-10.2072
ire	-10.2073
▁follows	-10.2077
▁sylvia	-10.2083
▁estate	-10.2083
▁heav	-10.2083
▁solid	-10.2085
▁learning	-10.2103
▁ambition	-10.2147
▁energy	-10.2147
▁eternal	-10.2147
▁fetch	-10.2147
▁ignorant	-10.2148
▁lawyer	-10.2148
▁misery	-10.2148
▁luc	-10.2151
▁et	-10.2157
▁everyone	-10.2158
▁composed	-10.2158
line	-10.2159
▁nodded	-10.2162
fall	-10.217
▁suggest	-10.2182
▁figures	-10.219
▁commanded	-10.2192
▁cheeks	-10.2205
▁discuss	-10.2205
▁horrible	-10.2212
▁quantity	-10.2212
▁irish	-10.2213
▁katy	-10.2215
▁civil	-10.2218
▁protection	-10.2221
ook	-10.2232
▁owner	-10.2238
▁wedding	-10.224
▁sighed	-10.227
▁resist	-10.2276
▁creep	-10.2277
▁description	-10.2277
▁swept	-10.2277
▁profit	-10.2277
▁destroyed	-10.2277
▁visited	-10.2281
▁tax	-10.2284
▁arise	-10.2286
▁bench	-10.2288
▁barr	-10.2292
▁absolute	-10.2304
▁nearest	-10.2307
ark	-10.2307
▁mule	-10.2319
▁descend	-10.2319
▁diamond	-10.2322
▁finish	-10.2322
▁rendered	-10.2326
▁sleeping	-10.2328
ose	-10.2333
▁purchase	-10.2342
▁june	-10.2342
▁wagon	-10.2345
▁awake	-10.2348
▁hop	-10.235
▁twist	-10.2353
iness	-10.2362
▁h	-10.2362
pose	-10.2376
▁fun	-10.2378
▁wondering	-10.2379
liness	-10.2381
▁sons	-10.2403
▁hospital	-10.2403
▁alike	-10.2404
▁quixote	-10.2408
▁disease	-10.2408
▁pictures	-10.2409
▁needs	-10.2415
▁rod	-10.2415
▁agent	-10.2416
atory	-10.2426
▁fearful	-10.2431
▁reality	-10.2434
▁breed	-10.2447
▁faced	-10.2449
▁troubled	-10.2452
▁sensation	-10.2457
▁wav	-10.2458
▁firmly	-10.2471
▁lonely	-10.2474
▁bosom	-10.2474
▁dancing	-10.2475
▁crush	-10.2476
▁cro	-10.2484
▁convinced	-10.2487
▁causes	-10.2501
▁date	-10.2503
▁properly	-10.2511
▁reflect	-10.2513
▁hunger	-10.2522
▁apple	-10.2526
▁amid	-10.2534
▁guest	-10.2537
▁patch	-10.2537
▁lin	-10.2539
▁acquainted	-10.2541
▁bloom	-10.2541
▁curtain	-10.2541
▁privilege	-10.2541
▁uniform	-10.2541
▁ascend	-10.2541
▁glorious	-10.2542
▁scrap	-10.2542
▁created	-10.2557
▁sub	-10.256
▁beach	-10.2561
ight	-10.2564
▁concluded	-10.2567
▁settle	-10.2568
▁directed	-10.2571
▁pretend	-10.2587
▁accomplished	-10.2587
▁deliver	-10.2587
▁locked	-10.2588
▁ages	-10.2592
▁hy	-10.2597
▁gri	-10.2599
▁accord	-10.2603
▁exchange	-10.2608
▁leisure	-10.2608
▁strict	-10.2608
▁fifth	-10.2608
▁crep	-10.2608
▁hid	-10.2608
▁departure	-10.2609
▁accompanied	-10.2611
▁resumed	-10.2616
▁bat	-10.262
▁dig	-10.2645
▁coal	-10.2655
▁witch	-10.2657
well	-10.2661
▁chase	-10.2663
▁effects	-10.2667
▁shadows	-10.2674
▁unexpected	-10.2675
▁violence	-10.2675
▁gratitude	-10.2675
▁duchess	-10.2675
▁scheme	-10.2675
▁generation	-10.2676
▁score	-10.2677
▁agreeable	-10.2682
▁bushes	-10.2688
tan	-10.2688
ston	-10.2693
▁preparation	-10.2696
▁hopes	-10.27
▁recovered	-10.2706
▁tight	-10.2707
▁wandering	-10.2711
▁lately	-10.2711
▁employ	-10.2719
▁wal	-10.2727
port	-10.2737
▁negro	-10.2743
▁official	-10.2743
▁interests	-10.2744
▁flag	-10.2745
▁traveller	-10.2745
▁nail	-10.2751
▁affected	-10.2762
▁afterward	-10.2769
▁exception	-10.2773
▁perceive	-10.2776
▁cru	-10.278
▁stronger	-10.2783
▁shows	-10.2786
▁teacher	-10.2794
▁distinguish	-10.2796
▁warning	-10.2801
▁fleet	-10.2806
▁astonishment	-10.2812
▁bernard	-10.2812
▁beheld	-10.2812
▁sauce	-10.2812
▁spear	-10.2812
▁monster	-10.2813
▁hitherto	-10.2813
▁section	-10.2814
▁dart	-10.2818
chi	-10.282
▁earl	-10.2834
▁souls	-10.284
tuck	-10.2851
cum	-10.2858
▁chris	-10.2862
▁conceal	-10.2862
▁egg	-10.2864
mer	-10.2878
▁pile	-10.2879
▁independent	-10.2881
▁multitude	-10.2881
▁endeavour	-10.2881
▁thread	-10.2881
▁shaking	-10.2881
▁compelled	-10.2882
▁tramp	-10.2883
▁merit	-10.2885
▁communication	-10.2886
▁quarters	-10.289
lv	-10.2894
▁reduced	-10.2896
▁bro	-10.2898
▁rub	-10.2901
▁granted	-10.2906
▁announced	-10.2914
ock	-10.2914
▁affect	-10.2925
▁describe	-10.2944
ash	-10.2949
▁expense	-10.295
▁mystery	-10.2951
▁series	-10.2952
▁signs	-10.2954
▁sam	-10.2976
▁rein	-10.2977
▁assure	-10.2992
ney	-10.2993
▁circumstance	-10.302
▁disgust	-10.302
▁lieutenant	-10.302
▁shone	-10.302
▁volume	-10.302
▁burned	-10.3021
▁sooth	-10.3023
▁growth	-10.3034
ug	-10.3047
▁kid	-10.3056
like	-10.3058
▁classes	-10.3062
▁hay	-10.3076
▁remaining	-10.3076
▁fairy	-10.3078
artagnan	-10.3091
▁anxiety	-10.3091
▁lincoln	-10.3091
▁neglect	-10.3091
▁regiment	-10.3091
▁resolution	-10.3091
▁scientific	-10.3091
▁stamp	-10.3091
▁beef	-10.3093
▁prisoners	-10.3094
▁attached	-10.3114
▁descended	-10.3115
▁humanity	-10.312
▁represent	-10.3124
▁straw	-10.313
▁plans	-10.3147
▁consist	-10.3147
▁deny	-10.3151
▁correspond	-10.3161
▁philosopher	-10.3162
▁arrow	-10.3162
▁lunch	-10.3164
▁mild	-10.3164
▁walter	-10.3165
▁stroke	-10.3166
▁likewise	-10.3166
▁banks	-10.3174
▁pill	-10.3178
▁job	-10.3181
▁steam	-10.3182
▁modest	-10.3184
ana	-10.3186
▁scattered	-10.3188
▁previous	-10.3195
▁younger	-10.3199
▁clock	-10.32
▁habits	-10.3201
▁goat	-10.3202
▁protest	-10.3214
▁bob	-10.3219
▁lit	-10.3226
▁polite	-10.3226
▁recommend	-10.3233
▁supreme	-10.3233
▁slain	-10.3233
▁whirl	-10.3233
▁breaking	-10.3235
▁wept	-10.3236
▁smaller	-10.3237
▁hadn	-10.3252
▁sheet	-10.326
▁careless	-10.3262
iest	-10.3263
work	-10.3265
▁bones	-10.3284
▁handed	-10.3293
▁grandmother	-10.3305
▁opposition	-10.3305
▁steep	-10.3305
▁valuable	-10.3305
▁error	-10.3305
▁stout	-10.3305
▁fulfil	-10.3305
▁morgan	-10.3306
▁monk	-10.3307
▁earn	-10.3311
▁addressed	-10.3312
▁cheek	-10.3312
▁results	-10.3316
▁devoted	-10.3317
▁colored	-10.333
▁deserted	-10.3352
▁total	-10.3352
▁maintain	-10.3362
▁intend	-10.3364
▁thousands	-10.3364
▁occur	-10.3376
▁indulg	-10.3376
▁impulse	-10.3377
▁sovereign	-10.3377
▁shaggy	-10.3377
▁spiritual	-10.3377
▁wilson	-10.3378
▁mixed	-10.3379
▁development	-10.3381
▁consequently	-10.3384
▁noon	-10.3385
▁majority	-10.3386
▁neighbor	-10.3386
▁mari	-10.3386
▁article	-10.3387
▁comb	-10.3388
▁continually	-10.3393
▁contained	-10.3395
▁weakness	-10.3396
▁fold	-10.3401
▁apt	-10.3404
▁teaching	-10.3408
▁details	-10.3411
▁tomb	-10.3413
▁sorts	-10.3427
▁collect	-10.3429
▁shout	-10.3436
▁factor	-10.3441
stead	-10.3446
▁examined	-10.3447
▁astonished	-10.345
▁continent	-10.345
▁nonsense	-10.345
▁victim	-10.345
▁generous	-10.345
▁swear	-10.345
▁scorn	-10.345
▁remote	-10.3451
▁philip	-10.3451
▁italian	-10.3451
▁spell	-10.3455
▁seriously	-10.3461
▁ned	-10.3473
▁sole	-10.3483
▁phil	-10.3494
▁lace	-10.3495
▁center	-10.3496
▁senses	-10.35
▁attended	-10.3509
jo	-10.3521
▁anywhere	-10.3524
▁inclination	-10.3524
▁border	-10.3524
▁gesture	-10.3524
▁elsie	-10.3524
▁torture	-10.3524
▁suggestion	-10.3531
▁provisions	-10.3532
dding	-10.3538
▁prop	-10.3538
▁pea	-10.3543
▁movements	-10.3564
▁madam	-10.3568
▁germany	-10.3573
▁tend	-10.3585
▁bush	-10.3589
▁arab	-10.3591
▁atmosphere	-10.3598
▁definite	-10.3598
▁conviction	-10.3601
▁dwell	-10.3602
▁neat	-10.3604
▁abandoned	-10.3605
▁barn	-10.361
▁invited	-10.3613
▁guests	-10.3614
▁doubtless	-10.3623
▁million	-10.3626
▁borne	-10.3634
rian	-10.3641
put	-10.3653
▁belt	-10.3658
▁tad	-10.3659
▁murmur	-10.3659
▁chiefly	-10.3664
▁novel	-10.3671
▁furniture	-10.3673
▁population	-10.3673
▁entreat	-10.3673
▁coach	-10.3673
▁blush	-10.3674
▁lodge	-10.3674
▁failure	-10.3675
▁election	-10.3683
▁ter	-10.3686
▁emerg	-10.3691
▁occasionally	-10.3696
▁manners	-10.3702
▁palm	-10.3703
▁commander	-10.3721
▁wretched	-10.3725
▁rested	-10.3729
▁staring	-10.3744
▁decision	-10.3748
▁midnight	-10.3748
▁muttered	-10.3748
▁steadily	-10.3748
▁thomas	-10.3748
▁trunk	-10.3748
▁phrase	-10.3748
▁probable	-10.3748
▁variety	-10.3748
▁haunt	-10.3748
▁forehead	-10.3748
▁roast	-10.3748
▁thirst	-10.3753
▁glow	-10.3759
▁spur	-10.3761
▁pursued	-10.3775
▁complain	-10.3776
▁sore	-10.3779
▁vanished	-10.3782
up	-10.3783
fold	-10.3785
▁chin	-10.3799
▁din	-10.3799
▁fan	-10.3805
▁sounded	-10.3813
▁leaning	-10.3816
▁abroad	-10.3824
▁aspect	-10.3824
▁contribut	-10.3824
▁division	-10.3824
▁inclined	-10.3824
▁medicine	-10.3824
▁cream	-10.3824
▁veil	-10.3824
▁ce	-10.3824
▁community	-10.3826
▁instruction	-10.3828
▁foe	-10.383
▁discussion	-10.3831
tted	-10.3834
▁jest	-10.3838
▁italy	-10.3843
▁shoe	-10.3847
▁gates	-10.3867
▁maybe	-10.3869
▁chose	-10.3885
▁tap	-10.3887
▁display	-10.3888
▁drunk	-10.3892
▁blessing	-10.3894
oc	-10.3897
▁counsel	-10.39
▁pursuit	-10.39
▁richmond	-10.39
▁ornament	-10.39
▁anchor	-10.3901
▁countries	-10.3903
▁engagement	-10.3903
▁slightest	-10.3907
▁concealed	-10.3921
▁chill	-10.3928
▁rugg	-10.3933
▁ere	-10.3935
▁whip	-10.3939
▁rust	-10.3954
▁institution	-10.3977
▁leather	-10.3977
▁philosophy	-10.3977
▁platform	-10.3977
▁aloud	-10.3977
▁esteem	-10.3977
▁darling	-10.3977
▁committed	-10.3979
▁grateful	-10.3979
▁talent	-10.3979
▁carrie	-10.3981
▁vice	-10.3984
▁distinction	-10.3988
▁fence	-10.399
▁slice	-10.3992
▁seeking	-10.4
▁statement	-10.4046
▁applied	-10.4054
▁channel	-10.4054
▁driving	-10.4054
▁representative	-10.4055
▁bowl	-10.4058
▁pearl	-10.4058
▁ep	-10.4069
eb	-10.4071
▁shooting	-10.4071
▁represented	-10.4073
▁delivered	-10.4079
▁subjects	-10.408
▁der	-10.4088
▁ruth	-10.4088
▁lap	-10.4097
▁folks	-10.4099
▁prey	-10.41
▁boiled	-10.4117
▁badly	-10.4118
▁stoop	-10.4132
▁thirteen	-10.4132
▁piano	-10.4133
▁dash	-10.4134
▁copper	-10.4134
▁joke	-10.414
▁standard	-10.4144
▁hesitated	-10.415
▁bless	-10.4154
▁eaten	-10.4172
▁wip	-10.4173
▁seal	-10.4176
▁dressing	-10.4177
▁wandered	-10.4182
▁fu	-10.4183
▁gloom	-10.4189
▁hastened	-10.4191
▁indifferent	-10.4211
▁fancied	-10.4211
▁nerve	-10.4211
▁oath	-10.4213
urg	-10.4214
▁strongly	-10.4218
▁readily	-10.422
lia	-10.4242
▁belonged	-10.4243
▁lane	-10.4243
▁helpless	-10.4245
▁pla	-10.4245
▁deserve	-10.4255
▁murderer	-10.4256
bury	-10.4257
▁expectation	-10.4261
▁crowded	-10.4265
▁sending	-10.4269
▁lee	-10.427
head	-10.4279
▁extend	-10.4282
ato	-10.4284
▁attribute	-10.4291
▁reform	-10.4291
▁steady	-10.4291
▁vigorous	-10.4292
▁characteristic	-10.4292
▁yo	-10.4294
▁execution	-10.4297
▁poured	-10.4298
▁priests	-10.4305
▁riding	-10.4308
▁glacier	-10.4308
▁mission	-10.4315
▁assumed	-10.4322
mate	-10.4353
▁fed	-10.4356
▁branch	-10.4359
▁furnished	-10.4359
▁oppress	-10.4364
▁developed	-10.4367
▁beloved	-10.4371
▁function	-10.4371
▁poverty	-10.4371
▁rejoice	-10.4371
▁shudder	-10.4371
▁organ	-10.4376
▁occasions	-10.4377
▁poem	-10.4377
▁proceeding	-10.4382
▁jar	-10.4399
▁hale	-10.4403
▁duration	-10.4415
▁scale	-10.4415
▁bid	-10.4434
▁product	-10.4435
burg	-10.4438
lac	-10.4442
▁abandon	-10.4444
▁attempted	-10.4449
▁autumn	-10.4451
▁enthusiasm	-10.4451
▁library	-10.4451
▁spectacle	-10.4451
▁worry	-10.4451
▁surviv	-10.4451
▁counter	-10.4451
▁absent	-10.4452
▁plot	-10.4452
▁wives	-10.4452
▁harris	-10.4452
▁diana	-10.4453
▁gather	-10.4458
▁poetry	-10.4459
▁swell	-10.446
▁painted	-10.4464
▁chap	-10.4476
▁sale	-10.4479
ack	-10.4482
▁communicat	-10.4493
▁detail	-10.4495
▁wearing	-10.4495
▁apparent	-10.4495
▁knocked	-10.4499
▁directions	-10.4501
▁ty	-10.4519
▁beasts	-10.4525
▁audience	-10.4533
▁interview	-10.4533
▁satisfy	-10.4533
▁spanish	-10.4533
▁islands	-10.4533
▁monkey	-10.4533
▁furious	-10.4535
▁insisted	-10.4539
▁emily	-10.4539
▁flatter	-10.454
▁thine	-10.4546
▁hopeless	-10.4566
▁safely	-10.4569
▁insist	-10.4571
▁coin	-10.4592
▁handle	-10.4593
▁swiftly	-10.4601
▁inform	-10.4604
▁differ	-10.461
▁industry	-10.4614
▁scholar	-10.4614
▁overcome	-10.4615
▁staff	-10.4615
▁copy	-10.4615
▁resign	-10.4615
▁dining	-10.4615
▁linger	-10.4615
▁pierc	-10.4615
▁meantime	-10.4617
▁fitted	-10.4625
▁curse	-10.4637
▁rosa	-10.4641
▁backward	-10.4647
▁belongs	-10.4653
▁pal	-10.4656
▁rider	-10.4667
▁robe	-10.4679
▁depart	-10.4686
▁patt	-10.4695
▁centuries	-10.4697
▁chimney	-10.4697
▁comprehend	-10.4697
▁doctrine	-10.4697
▁invitation	-10.4697
▁shirt	-10.4697
▁fastened	-10.4698
▁kick	-10.4699
▁improvement	-10.4702
▁hatred	-10.4704
▁rail	-10.4711
▁perish	-10.4713
▁someone	-10.4727
▁contented	-10.4734
▁net	-10.4752
▁beam	-10.4753
▁tempt	-10.4767
▁yell	-10.4771
▁enchant	-10.4772
▁association	-10.478
▁families	-10.478
▁passenger	-10.478
▁shakespeare	-10.478
▁smoking	-10.478
▁rachel	-10.478
▁tobacco	-10.478
▁committee	-10.478
▁central	-10.4781
▁revenge	-10.4781
▁swing	-10.4781
▁intent	-10.4785
▁sincere	-10.4798
▁vessels	-10.4801
ett	-10.481
▁rules	-10.4813
▁sharply	-10.4828
▁decide	-10.4829
▁conquer	-10.4843
▁angels	-10.4846
▁nan	-10.4846
▁separated	-10.4851
▁mud	-10.4864
▁glimpse	-10.4865
▁handkerchief	-10.4865
▁intelligent	-10.4865
▁phoenix	-10.4865
▁senator	-10.4865
▁territory	-10.4865
▁clerk	-10.4865
▁twilight	-10.4865
▁activity	-10.4865
▁treatment	-10.487
▁rice	-10.4871
▁hiding	-10.4872
▁ham	-10.4879
lit	-10.49
▁happens	-10.4906
▁driver	-10.491
▁louis	-10.4913
▁profession	-10.4934
▁deposit	-10.4936
▁divers	-10.4938
verse	-10.4939
▁plea	-10.4943
▁select	-10.4947
▁spark	-10.4949
▁awkward	-10.4949
▁conception	-10.4949
▁shriek	-10.4949
▁avail	-10.495
▁prepar	-10.495
▁slip	-10.495
▁neighbourhood	-10.495
▁economic	-10.4951
▁apply	-10.4952
▁lemon	-10.4954
▁declare	-10.4957
▁surrounding	-10.4965
▁englishman	-10.4966
▁gown	-10.4967
▁stayed	-10.4969
▁sway	-10.4974
▁pretended	-10.4976
▁formerly	-10.4978
▁acquired	-10.4984
▁arrive	-10.4999
▁brand	-10.5005
gging	-10.5026
▁idle	-10.5027
▁convenient	-10.5035
▁depriv	-10.5035
▁tremendous	-10.5035
▁monarch	-10.5035
▁boast	-10.5035
▁susan	-10.5035
▁stat	-10.5039
▁amusement	-10.504
▁earlier	-10.5042
▁angle	-10.5049
▁cell	-10.5051
tract	-10.5052
▁slope	-10.5058
lock	-10.5061
ware	-10.5062
▁admire	-10.5085
▁shouldn	-10.5095
▁execut	-10.5112
▁suspected	-10.5116
▁disturb	-10.5118
▁services	-10.512
▁exceed	-10.5121
▁disgrace	-10.5121
▁mirror	-10.5121
▁resemble	-10.5121
▁scrooge	-10.5121
▁shield	-10.5121
▁thither	-10.5121
▁drank	-10.5121
▁repair	-10.5121
▁sprinkle	-10.5121
▁vex	-10.5121
▁exceedingly	-10.5121
▁rescue	-10.5121
▁countess	-10.5123
▁jackson	-10.5124
▁doll	-10.5124
▁bitterly	-10.5125
▁mix	-10.5127
▁purple	-10.5129
▁humor	-10.5131
▁carol	-10.5135
▁oven	-10.5139
▁cock	-10.5141
▁eyed	-10.5145
cha	-10.5153
▁heels	-10.5162
▁hostil	-10.5165
▁obvious	-10.517
▁lightly	-10.5183
▁comrade	-10.5187
▁coloured	-10.5189
▁addition	-10.5196
▁neighbors	-10.5197
▁upward	-10.5198
▁bake	-10.5198
▁washed	-10.5204
▁vol	-10.5206
▁rever	-10.5207
▁concentrat	-10.5208
▁genuine	-10.5208
▁physician	-10.5208
▁serpent	-10.5208
▁wreck	-10.5208
▁eastern	-10.5208
▁decorat	-10.5208
▁behave	-10.5208
▁ignorance	-10.5209
▁heavily	-10.5209
▁mail	-10.5244
▁rolling	-10.5256
▁dearest	-10.526
▁non	-10.5261
▁crossing	-10.5268
▁weigh	-10.5272
oon	-10.5282
▁approve	-10.5296
▁reproach	-10.5296
▁snatch	-10.5296
▁swung	-10.5296
▁clasp	-10.5296
▁anthea	-10.5296
▁cheap	-10.5296
▁dislike	-10.5299
▁kin	-10.5299
▁graceful	-10.5306
▁basin	-10.5307
▁bible	-10.5315
▁closer	-10.5318
▁ki	-10.5322
▁ann	-10.5327
vy	-10.5347
▁dun	-10.5355
▁ke	-10.536
▁drinking	-10.5361
▁needle	-10.5363
▁millions	-10.5365
ology	-10.5384
▁anticipat	-10.5384
▁miracle	-10.5384
▁notwithstanding	-10.5384
▁scratch	-10.5384
▁thrill	-10.5384
▁tradition	-10.5384
▁uncertain	-10.5384
▁mixture	-10.5384
▁prophet	-10.5384
▁grove	-10.5384
▁insult	-10.5385
▁vital	-10.5385
▁martin	-10.5385
▁moderate	-10.5385
▁imagined	-10.5386
▁chop	-10.5386
▁honey	-10.5387
▁marble	-10.5387
▁flock	-10.5388
▁capacity	-10.5389
▁hated	-10.539
▁forever	-10.5396
▁fired	-10.5405
▁speaker	-10.5422
raising	-10.5423
▁quit	-10.5427
▁anyway	-10.5431
▁exhausted	-10.5438
▁inches	-10.5442
▁steamer	-10.5448
▁sailed	-10.5451
▁map	-10.5471
ograph	-10.5473
▁edison	-10.5473
▁league	-10.5473
▁messenger	-10.5473
▁occupation	-10.5473
▁chicken	-10.5473
▁cunning	-10.5473
▁disposed	-10.5473
▁undertake	-10.5473
▁transport	-10.5474
▁disappointment	-10.5474
▁dispute	-10.5475
▁mouse	-10.5477
▁stirred	-10.5477
▁levin	-10.5478
▁ban	-10.5487
▁deb	-10.5492
▁weep	-10.5495
▁monte	-10.5499
▁link	-10.5502
▁reflected	-10.5502
▁consequences	-10.5505
▁performed	-10.5509
▁persuaded	-10.5516
▁beating	-10.5522
▁assume	-10.5528
▁articles	-10.5552
▁inner	-10.5554
ban	-10.556
▁constitute	-10.5563
▁contact	-10.5563
▁glitter	-10.5563
▁michael	-10.5563
▁sunshine	-10.5563
▁feeble	-10.5563
▁africa	-10.5563
▁eagle	-10.5563
▁oyster	-10.5564
▁naked	-10.5564
▁cattle	-10.5565
▁equ	-10.5566
▁tit	-10.5567
▁wax	-10.5569
▁richard	-10.5576
▁doom	-10.5577
▁precisely	-10.5578
▁rob	-10.5584
▁ox	-10.5604
▁jaw	-10.5606
▁trained	-10.5606
day	-10.5615
▁issue	-10.5619
▁cared	-10.563
▁existed	-10.5637
most	-10.5647
▁danced	-10.5651
▁april	-10.5654
▁groan	-10.5654
▁solitary	-10.5654
▁liberal	-10.5654
▁farewell	-10.5654
▁jimmy	-10.5654
▁stain	-10.5654
▁bun	-10.5656
▁emma	-10.5657
▁compliment	-10.5659
▁cries	-10.5659
▁ability	-10.5662
▁seeming	-10.5663
▁coward	-10.5667
▁disappointed	-10.5677
▁succession	-10.5677
▁perfection	-10.5681
nny	-10.5681
room	-10.5683
▁curve	-10.5687
▁entering	-10.5692
▁sunk	-10.5701
▁enjoyed	-10.5701
▁deeper	-10.5703
pla	-10.571
▁shortly	-10.572
fu	-10.573
▁athenians	-10.5733
▁images	-10.5733
▁cultivat	-10.574
▁develop	-10.5746
▁fragment	-10.5746
▁reputation	-10.5746
▁federal	-10.5746
▁income	-10.5746
▁hawk	-10.5747
▁collar	-10.5747
▁proposition	-10.5747
▁frightful	-10.5749
▁encounter	-10.575
▁balance	-10.5751
▁jews	-10.5751
▁examination	-10.5751
▁shy	-10.5754
▁startled	-10.5756
▁disturbed	-10.5757
▁russian	-10.5758
▁belonging	-10.576
▁urged	-10.5763
▁visitor	-10.5772
▁fame	-10.5776
▁mingled	-10.5778
▁bind	-10.5779
▁lament	-10.5783
▁india	-10.5785
▁rattl	-10.5786
▁operations	-10.5794
▁super	-10.5794
▁supported	-10.5797
▁reasonable	-10.5802
▁fury	-10.5808
▁outline	-10.5811
▁starting	-10.5814
▁examine	-10.583
▁buildings	-10.5834
▁exquisite	-10.5839
▁railroad	-10.5839
▁stomach	-10.5839
▁sustain	-10.5839
▁japan	-10.5839
▁wrath	-10.5839
▁fawn	-10.584
▁rival	-10.5841
▁drain	-10.5844
▁scent	-10.5846
▁brook	-10.5848
mc	-10.5849
▁career	-10.5858
▁demon	-10.5859
hy	-10.5862
▁cutting	-10.5862
▁masses	-10.5873
▁virtues	-10.5881
▁fry	-10.5883
▁weeping	-10.5914
▁preserve	-10.5914
▁adopted	-10.5915
▁goodness	-10.5916
▁acting	-10.5916
▁passions	-10.593
▁campaign	-10.5932
▁enterprise	-10.5932
▁practise	-10.5932
▁reject	-10.5932
▁stall	-10.5932
▁knot	-10.5932
▁whistle	-10.5933
▁element	-10.5933
▁favourite	-10.5933
▁sober	-10.5935
▁anna	-10.5936
▁andrew	-10.5937
▁suspect	-10.5938
▁crash	-10.5938
▁peak	-10.5943
▁comment	-10.5943
▁frost	-10.5959
▁grain	-10.596
▁gang	-10.5973
▁boiling	-10.5978
▁ya	-10.5985
▁hind	-10.6002
▁flames	-10.6002
▁porter	-10.6005
▁songs	-10.6019
far	-10.6019
▁recollect	-10.602
▁artist	-10.6023
▁dwelling	-10.6024
▁ceremony	-10.6027
▁cyril	-10.6027
▁disorder	-10.6027
▁politics	-10.6027
▁scotland	-10.6027
▁slender	-10.6027
▁unpleasant	-10.6027
▁smart	-10.6027
▁wilderness	-10.6027
▁threatened	-10.6027
▁procure	-10.6027
▁suppress	-10.6027
▁favorite	-10.6028
▁acted	-10.603
▁romance	-10.6031
▁brick	-10.6034
▁unlike	-10.6034
▁lofty	-10.6036
▁limbs	-10.6037
▁peaceful	-10.6042
ua	-10.6049
▁brig	-10.6052
took	-10.6055
▁debt	-10.6077
▁axe	-10.608
▁provide	-10.6086
▁prayers	-10.6088
▁stole	-10.6106
▁twin	-10.6114
▁consists	-10.6119
▁avenue	-10.6122
▁fatigue	-10.6122
▁possibility	-10.6122
▁prairie	-10.6122
▁column	-10.6122
▁pierre	-10.6122
▁woe	-10.6122
▁ragged	-10.6123
▁depth	-10.6127
▁daring	-10.6129
▁blessed	-10.6134
▁procession	-10.6135
▁selfish	-10.6135
▁mock	-10.6136
istic	-10.6136
▁legal	-10.6142
▁sch	-10.6152
▁absorbed	-10.6157
▁pirates	-10.6158
▁engine	-10.6162
▁wheels	-10.6172
▁prompt	-10.618
▁ripe	-10.6185
cast	-10.619
▁jealous	-10.6193
▁lily	-10.6194
▁blank	-10.6206
▁gracious	-10.6218
▁mutual	-10.6218
▁flutter	-10.6218
▁shepherd	-10.6218
▁student	-10.6218
▁withdraw	-10.6218
▁ashore	-10.6218
▁railway	-10.6219
▁pressure	-10.6221
▁salute	-10.6222
▁thereby	-10.6234
▁plunged	-10.6238
▁gloomy	-10.6248
▁restless	-10.6263
▁foundation	-10.6273
ridge	-10.6275
▁fortunate	-10.6277
▁today	-10.6288
▁mon	-10.6293
▁warriors	-10.6294
acious	-10.6303
▁wil	-10.6304
▁experienced	-10.6304
▁clothing	-10.631
bar	-10.6312
▁accompany	-10.6315
▁fountain	-10.6315
▁shift	-10.6315
▁exposed	-10.6315
▁pupil	-10.6315
▁agnes	-10.6315
▁cotton	-10.6315
▁wrapped	-10.6316
▁crawl	-10.6316
▁silly	-10.6316
▁orange	-10.6316
▁skirt	-10.6316
▁meditat	-10.6318
▁passionate	-10.6319
▁dragon	-10.632
▁burnt	-10.6323
▁bullet	-10.6333
▁tenderness	-10.6335
▁stated	-10.6338
▁daylight	-10.6338
▁related	-10.634
▁romans	-10.6344
▁gall	-10.6359
▁ridge	-10.6363
▁weapons	-10.6379
▁preserved	-10.638
▁grin	-10.6398
▁pointing	-10.6406
▁perpetual	-10.6413
▁editor	-10.6413
▁endeavor	-10.6413
▁maxim	-10.6413
▁surrender	-10.6413
▁cardinal	-10.6413
▁danglars	-10.6413
▁screen	-10.6413
▁peep	-10.6414
▁damn	-10.6414
▁reference	-10.6414
▁warn	-10.6414
▁gallop	-10.6414
▁contrast	-10.6417
▁route	-10.6418
▁waist	-10.6419
▁collection	-10.6422
▁visitors	-10.6426
▁blanket	-10.6426
▁heartily	-10.6436
▁linen	-10.6436
▁lust	-10.6443
▁prepare	-10.6443
▁shine	-10.6464
▁condemned	-10.6473
▁pursue	-10.6477
▁county	-10.6477
▁prevented	-10.648
lus	-10.6482
▁opposed	-10.6488
▁rays	-10.649
▁sew	-10.65
▁indicat	-10.6504
▁refer	-10.651
▁brute	-10.6512
▁holiday	-10.6512
▁increasing	-10.6512
▁pistol	-10.6512
▁prejudice	-10.6512
▁receiving	-10.6512
▁permanent	-10.6512
▁summit	-10.6512
▁essence	-10.6512
▁changing	-10.6512
▁solitude	-10.6512
▁marvel	-10.6513
▁desk	-10.6514
▁persist	-10.6528
▁lightning	-10.6528
▁frog	-10.6533
▁apples	-10.6535
▁sensations	-10.6537
▁diamonds	-10.6543
▁dismiss	-10.6544
▁shaped	-10.6549
ttle	-10.6558
ko	-10.6559
▁deeds	-10.6563
▁spin	-10.6575
▁dried	-10.6591
▁pat	-10.6592
▁gathering	-10.6602
▁depths	-10.6607
▁ascertain	-10.6612
▁corrupt	-10.6612
▁refresh	-10.6612
▁shiver	-10.6612
▁socrates	-10.6612
▁struggling	-10.6612
▁upstairs	-10.6612
▁vivid	-10.6612
▁renew	-10.6612
▁despise	-10.6612
▁rational	-10.6612
▁robin	-10.6612
▁hammer	-10.6613
▁frown	-10.6613
▁pillow	-10.6613
▁boston	-10.6615
▁torment	-10.6618
▁puff	-10.6621
▁bolt	-10.6621
▁assert	-10.6621
▁repose	-10.6621
▁secretary	-10.6623
▁sca	-10.6624
▁ashes	-10.6624
▁pope	-10.6626
▁enjoyment	-10.6627
▁ken	-10.6631
▁partner	-10.6634
▁attacked	-10.6637
▁hail	-10.6667
ifying	-10.6686
hen	-10.6704
▁instruct	-10.6707
▁import	-10.671
▁infant	-10.6711
▁awoke	-10.6713
▁cetera	-10.6713
▁distribut	-10.6713
▁elbow	-10.6713
▁prohibit	-10.6713
▁vengeance	-10.6713
▁portrait	-10.6713
▁amelia	-10.6713
▁otto	-10.6713
▁idiot	-10.6713
▁rebel	-10.6714
▁pudding	-10.6714
▁owing	-10.6715
▁timid	-10.6715
▁resistance	-10.6716
▁canoe	-10.6723
▁settlement	-10.6725
▁anxiously	-10.6726
▁democratic	-10.6728
▁comrades	-10.6738
▁charged	-10.6745
▁riches	-10.6745
▁commission	-10.6748
▁yu	-10.6754
▁louise	-10.6756
▁offering	-10.6757
▁cord	-10.676
gar	-10.6763
▁recent	-10.6777
▁contemplat	-10.6809
▁unit	-10.6809
▁external	-10.6815
▁sensitive	-10.6815
▁universe	-10.6815
▁afflict	-10.6815
▁brood	-10.6815
▁trifle	-10.6815
▁turkey	-10.6816
▁vein	-10.6816
▁assistant	-10.6819
▁department	-10.682
▁ladder	-10.6821
▁ruler	-10.6821
▁dusk	-10.6822
▁furnish	-10.683
▁doubtful	-10.6848
hand	-10.6866
▁ray	-10.6868
▁engineer	-10.6875
▁remove	-10.6883
▁egypt	-10.6908
▁convert	-10.6909
▁musical	-10.6916
▁extensive	-10.6918
▁scarecrow	-10.6918
▁vegetable	-10.6918
▁slew	-10.6918
▁creation	-10.6918
▁gallery	-10.6919
▁jones	-10.6919
▁administration	-10.6919
▁humour	-10.6919
▁scarlet	-10.692
▁harsh	-10.6924
▁establishment	-10.6925
▁machinery	-10.6927
bbing	-10.6927
▁establish	-10.6927
▁duck	-10.6928
▁hedge	-10.6937
▁pra	-10.6942
▁trembled	-10.6944
▁pulling	-10.6948
▁perch	-10.6958
▁sixth	-10.6969
▁silently	-10.6974
▁practically	-10.6982
▁tru	-10.6987
▁distinctly	-10.7006
▁touching	-10.7008
▁bend	-10.701
▁interpret	-10.7013
▁shan	-10.7019
▁isabel	-10.7019
▁confined	-10.7022
▁conflict	-10.7022
▁creek	-10.7022
▁dwarf	-10.7022
▁cherish	-10.7022
▁muscle	-10.7022
▁devour	-10.7022
▁crystal	-10.7022
▁resort	-10.7022
▁contest	-10.7023
▁hither	-10.7024
▁gallant	-10.7025
▁appointment	-10.7026
▁damp	-10.703
▁bron	-10.7039
▁temptation	-10.704
▁blade	-10.7053
▁advised	-10.7057
gate	-10.7059
▁guardian	-10.7063
▁issued	-10.7064
▁published	-10.7066
▁saving	-10.707
▁risen	-10.7085
▁awakened	-10.7088
▁dense	-10.7096
▁revealed	-10.7099
▁thro	-10.7103
▁team	-10.7106
▁betrayed	-10.7108
▁cure	-10.712
▁intervals	-10.7124
▁moor	-10.7125
▁detect	-10.7125
mmed	-10.7127
▁confused	-10.7128
▁device	-10.7128
▁devotion	-10.7128
▁survey	-10.7128
▁funeral	-10.7128
ological	-10.7128
▁motor	-10.7128
▁magnet	-10.7129
▁faded	-10.7129
▁determination	-10.7131
▁foul	-10.7131
▁theatre	-10.7132
▁pony	-10.7132
▁freely	-10.7146
▁lash	-10.7146
▁minor	-10.7146
▁dine	-10.7148
▁relieved	-10.7149
▁weapon	-10.7164
pper	-10.719
▁continu	-10.72
▁trapp	-10.7205
▁earnestly	-10.7214
▁inhabit	-10.7234
▁obscure	-10.7234
▁assurance	-10.7234
▁florence	-10.7234
▁invisible	-10.7234
▁overwhelm	-10.7234
▁sleeve	-10.7234
▁snake	-10.7234
▁knee	-10.7234
▁jean	-10.7234
▁folly	-10.7234
▁incense	-10.7234
▁lend	-10.7235
▁prosperity	-10.7236
▁performance	-10.7237
shire	-10.7237
▁jason	-10.7238
▁fog	-10.7241
▁dew	-10.7243
▁effective	-10.725
▁suitable	-10.7253
▁conceived	-10.7266
▁sink	-10.7284
▁woo	-10.7305
▁complex	-10.7335
▁shouting	-10.7341
▁ultimate	-10.7342
▁application	-10.7342
▁catholic	-10.7342
▁criminal	-10.7342
▁rigid	-10.7342
▁saturday	-10.7342
▁september	-10.7342
▁combination	-10.7342
▁stopping	-10.7342
▁porch	-10.7342
▁jude	-10.7344
▁captive	-10.7346
▁hideous	-10.7349
▁repent	-10.7351
▁abruptly	-10.7352
▁motionless	-10.7354
▁growl	-10.7359
▁betray	-10.7362
▁adopt	-10.7362
▁abuse	-10.7363
▁certainty	-10.7367
▁protested	-10.7367
▁prime	-10.7369
▁obeyed	-10.7384
▁hull	-10.7385
▁loaded	-10.7386
▁bone	-10.7396
ji	-10.7406
▁advise	-10.7415
▁thoughtful	-10.7421
▁interior	-10.7424
▁mate	-10.744
▁interfere	-10.7449
ino	-10.745
▁appetite	-10.745
▁brethren	-10.745
▁manufacture	-10.745
▁refuge	-10.745
▁simplicity	-10.745
▁spaniard	-10.745
▁trumpet	-10.745
▁eldest	-10.745
▁coarse	-10.745
▁mould	-10.745
▁legislature	-10.7451
▁elements	-10.7451
▁thorn	-10.7451
▁replac	-10.7451
▁sunset	-10.7451
▁vale	-10.7452
▁defence	-10.7452
▁invention	-10.7454
▁dad	-10.7458
▁pool	-10.7462
▁compare	-10.7472
▁folded	-10.7474
▁animat	-10.7487
▁floating	-10.7487
▁lyn	-10.7491
▁limited	-10.7554
▁commit	-10.7558
▁cavalry	-10.756
▁disguise	-10.756
▁happily	-10.756
▁innocence	-10.756
▁constance	-10.756
▁wherefore	-10.756
▁average	-10.756
▁cheese	-10.7562
▁cloak	-10.7562
▁foam	-10.7564
▁blew	-10.7568
▁stolen	-10.7578
▁equality	-10.7579
▁indicated	-10.7582
▁commenced	-10.7585
▁armies	-10.7586
lick	-10.7589
dical	-10.7592
▁drag	-10.7592
▁expecting	-10.76
▁chu	-10.7601
▁fortunately	-10.7603
van	-10.7605
▁breathe	-10.7625
▁purse	-10.763
▁blown	-10.763
▁gladly	-10.7634
▁wherein	-10.7646
▁reli	-10.7647
▁dug	-10.7647
▁quart	-10.7649
▁dri	-10.7664
duced	-10.7664
▁outward	-10.7666
▁affirm	-10.7671
▁dwelt	-10.7671
▁inferior	-10.7671
▁journal	-10.7671
▁philadelphia	-10.7671
▁sergeant	-10.7671
▁tablespoonful	-10.7671
▁studied	-10.7671
▁worm	-10.7671
▁porthos	-10.7671
▁chopped	-10.7672
▁consume	-10.7672
▁disagreeable	-10.7672
▁hurl	-10.7673
▁security	-10.7674
▁bedroom	-10.7675
▁affectionate	-10.7676
▁cellar	-10.7677
▁calmly	-10.7684
▁vow	-10.7686
▁heroes	-10.7705
▁promptly	-10.7715
▁formal	-10.773
▁sadly	-10.7731
▁forbid	-10.7732
▁attract	-10.7751
▁lar	-10.7757
▁dome	-10.7768
▁cigar	-10.7783
▁swim	-10.7784
▁indifference	-10.7784
▁mischief	-10.7784
▁perception	-10.7784
▁psmith	-10.7784
▁clutch	-10.7784
▁hercules	-10.7784
▁regulat	-10.7784
▁stake	-10.7784
▁brisk	-10.7784
▁latin	-10.7784
▁carved	-10.7784
▁funny	-10.7785
▁kitty	-10.7786
▁envy	-10.7786
▁davy	-10.7786
▁stirring	-10.7786
▁preferred	-10.7787
▁agony	-10.7787
▁childhood	-10.7794
▁jail	-10.7798
▁completed	-10.7799
▁avoided	-10.7801
▁jealousy	-10.7812
▁eve	-10.7818
▁thoughtfully	-10.7823
▁bodi	-10.7825
▁gran	-10.783
▁keeper	-10.7837
▁bred	-10.7843
▁killing	-10.7848
▁joint	-10.7857
▁lip	-10.7861
▁paw	-10.7872
▁fright	-10.7888
▁blu	-10.7894
▁imperfect	-10.7897
▁catherine	-10.7897
▁cristo	-10.7897
▁harbour	-10.7897
▁horrid	-10.7897
▁indignation	-10.7897
▁proposal	-10.7897
▁slaughter	-10.7897
▁eminent	-10.7897
▁bundle	-10.7898
▁permission	-10.7898
▁moonlight	-10.79
▁laura	-10.7901
▁invest	-10.7903
▁translat	-10.7905
▁recollection	-10.7905
▁flee	-10.7907
▁charity	-10.7909
▁vanity	-10.791
▁injured	-10.7912
▁indicate	-10.7915
▁punish	-10.7921
▁mare	-10.7922
▁deceived	-10.7923
▁hol	-10.7926
▁oppos	-10.7927
▁dishes	-10.7931
▁respectable	-10.7934
▁existing	-10.7934
▁admired	-10.7945
▁harp	-10.7949
bidden	-10.7955
▁feature	-10.7961
▁alarmed	-10.7967
▁bunch	-10.7979
▁desir	-10.8006
▁submit	-10.801
▁indignant	-10.8012
▁immortal	-10.8012
▁inquiry	-10.8012
▁velvet	-10.8012
▁yonder	-10.8012
▁supplied	-10.8012
▁stove	-10.8012
▁decent	-10.8012
▁text	-10.8012
▁supplies	-10.8012
▁neighborhood	-10.8013
▁employment	-10.802
▁cash	-10.8025
▁maintained	-10.8037
▁invad	-10.8039
▁hurrying	-10.8043
▁shower	-10.8045
▁mechanical	-10.8049
▁pronounced	-10.8051
▁seventh	-10.8051
worth	-10.8064
▁moss	-10.8071
▁gap	-10.8074
▁garments	-10.8078
numer	-10.8084
▁retire	-10.8093
▁lively	-10.8095
ik	-10.811
▁training	-10.8113
▁convention	-10.8114
▁annoy	-10.8127
▁artificial	-10.8128
▁ridiculous	-10.8128
▁estralla	-10.8128
▁rejoined	-10.8128
▁thief	-10.8128
▁uneasy	-10.8128
▁reckless	-10.8128
▁solomon	-10.8129
▁siege	-10.8129
▁deaf	-10.8129
▁dutch	-10.8129
▁injury	-10.8129
▁dumb	-10.8129
▁argue	-10.8129
▁tune	-10.813
▁whither	-10.813
▁denied	-10.8131
▁romantic	-10.8131
▁vent	-10.8147
▁thankful	-10.8149
▁brass	-10.8154
▁deer	-10.8159
▁reported	-10.8174
▁endless	-10.8202
▁resources	-10.8216
▁persuade	-10.8219
▁wan	-10.822
pha	-10.8226
▁gravely	-10.8233
▁bite	-10.8244
▁irregular	-10.8246
▁appreciate	-10.8246
▁apprehension	-10.8246
▁comparison	-10.8246
▁cushion	-10.8246
▁delicious	-10.8246
▁felicity	-10.8246
▁juice	-10.8246
▁patriot	-10.8246
▁reconcil	-10.8246
▁structure	-10.8246
▁suffice	-10.8246
▁transform	-10.8246
▁derived	-10.8246
▁jacob	-10.8246
▁spain	-10.8246
▁francs	-10.8246
gency	-10.8247
▁july	-10.8247
▁detective	-10.8249
▁drum	-10.8249
▁selected	-10.825
▁penny	-10.8251
▁oliver	-10.8251
▁hush	-10.8253
▁johnson	-10.8258
▁tam	-10.8258
▁jacket	-10.8258
▁emphasis	-10.8271
▁loudly	-10.8273
▁wilt	-10.8276
▁responded	-10.8287
▁opera	-10.8296
▁norman	-10.8311
dded	-10.8316
▁whit	-10.8317
▁conceive	-10.8329
▁propose	-10.8333
master	-10.8336
ita	-10.834
▁lid	-10.834
▁passes	-10.8343
▁prayed	-10.8345
▁elsewhere	-10.8365
▁liquid	-10.8365
▁lodging	-10.8365
▁specimen	-10.8365
▁telephone	-10.8365
▁tumble	-10.8365
▁undoubtedly	-10.8365
▁attentive	-10.8365
▁policy	-10.8365
▁stagger	-10.8365
▁couch	-10.8365
▁whereupon	-10.8365
▁ireland	-10.8366
▁extract	-10.8368
▁santa	-10.8369
▁semi	-10.8376
necessarily	-10.8383
▁displayed	-10.8384
▁painting	-10.8386
▁associated	-10.8392
▁ruined	-10.8392
▁disappear	-10.8396
▁fred	-10.8398
▁carr	-10.8411
▁cling	-10.842
▁gardener	-10.843
▁complaint	-10.844
▁positive	-10.8448
▁bending	-10.8449
▁bon	-10.8453
▁youngest	-10.8472
▁wool	-10.8484
▁assault	-10.8486
▁confederate	-10.8486
▁intercourse	-10.8486
▁precaution	-10.8486
▁residence	-10.8486
▁crook	-10.8486
▁launch	-10.8486
▁unjust	-10.8486
▁scott	-10.8486
▁caesar	-10.8486
▁dismay	-10.8486
▁glid	-10.8486
▁loyal	-10.8486
▁promot	-10.8486
▁cannon	-10.8487
▁melted	-10.8488
▁firing	-10.8488
arian	-10.8489
▁mask	-10.8489
▁pump	-10.849
▁attendant	-10.8491
▁durham	-10.8493
▁assembly	-10.8502
▁bre	-10.8502
▁magician	-10.8503
▁largest	-10.8504
▁subsid	-10.8512
▁mona	-10.8514
▁reveal	-10.8519
fell	-10.8525
▁floated	-10.8535
▁soup	-10.8544
▁miller	-10.8557
▁hasten	-10.8558
▁strengthen	-10.8562
▁amuse	-10.8566
sail	-10.8573
▁punished	-10.858
▁churches	-10.8595
▁model	-10.8599
▁based	-10.8601
▁conspicuous	-10.8608
▁blossom	-10.8608
▁california	-10.8608
▁monument	-10.8608
▁ribbon	-10.8608
▁supposing	-10.8608
▁ceiling	-10.8608
▁claw	-10.8608
▁hesitation	-10.8608
▁impressed	-10.8608
▁amiable	-10.8608
▁combined	-10.8608
▁composition	-10.8608
▁drama	-10.8608
▁steer	-10.8608
▁altar	-10.8608
▁reviv	-10.8609
▁fertil	-10.861
▁clay	-10.8611
▁assign	-10.8613
▁rosy	-10.8613
▁flourish	-10.8613
▁fogg	-10.8619
▁inspired	-10.8621
▁rocky	-10.865
▁judged	-10.8663
▁twi	-10.8673
▁boot	-10.8705
▁planted	-10.871
▁mont	-10.8713
▁yer	-10.8728
▁crumbs	-10.8731
▁despite	-10.8731
▁dorothy	-10.8731
▁fortnight	-10.8731
▁hamilton	-10.8731
▁magistrate	-10.8731
▁proprietor	-10.8731
▁satisfactory	-10.8731
▁substitut	-10.8731
▁surprising	-10.8731
▁borrow	-10.8731
▁britain	-10.8731
▁throng	-10.8732
▁timber	-10.8732
▁split	-10.8733
▁cask	-10.8736
▁percy	-10.8744
▁dame	-10.8744
▁formation	-10.8749
▁sack	-10.8751
▁recently	-10.8777
▁measured	-10.8778
▁cape	-10.8779
▁tenth	-10.8805
▁wag	-10.8809
▁divide	-10.8821
▁undo	-10.8832
▁butler	-10.8834
▁embrace	-10.8851
▁republic	-10.8851
▁believing	-10.8856
▁crimson	-10.8856
▁easier	-10.8856
▁kennedy	-10.8856
▁literature	-10.8856
▁november	-10.8856
▁obedience	-10.8856
▁obstacle	-10.8856
▁shrewd	-10.8856
▁suffrage	-10.8856
▁literary	-10.8856
▁abstract	-10.8856
▁ellen	-10.8856
▁jerk	-10.8857
▁ginger	-10.8857
▁drake	-10.8858
▁referred	-10.8858
▁globe	-10.886
▁educated	-10.8863
▁curiously	-10.8869
▁overhead	-10.8877
▁collected	-10.8882
▁eighth	-10.8883
▁wretch	-10.8894
▁solicit	-10.89
▁kit	-10.891
▁obviously	-10.8911
▁illness	-10.8916
▁pint	-10.8931
▁fund	-10.8946
▁attracted	-10.8956
▁vine	-10.8961
▁mole	-10.8966
▁introduce	-10.8969
▁encountered	-10.8977
▁confident	-10.8982
script	-10.8983
▁landscape	-10.8983
▁stricken	-10.8983
▁boffin	-10.8983
▁caution	-10.8983
▁albert	-10.8983
▁robbed	-10.8983
▁roused	-10.8984
▁republican	-10.8987
▁compassion	-10.8989
▁agreement	-10.8991
▁simon	-10.8991
▁bury	-10.8998
▁mansion	-10.9002
▁doorway	-10.9005
▁breathless	-10.9005
▁battery	-10.9006
▁accomplish	-10.9009
▁captured	-10.9014
▁peril	-10.9016
▁followers	-10.9021
▁crow	-10.9037
▁cub	-10.9045
▁flushed	-10.9046
▁rarely	-10.9067
▁maker	-10.9074
▁arrange	-10.909
▁fist	-10.9094
▁cove	-10.91
▁combat	-10.9104
▁prosecut	-10.9111
▁bewildered	-10.9111
▁friday	-10.9111
▁independence	-10.9111
▁occupy	-10.9111
▁stalk	-10.9111
▁telegraph	-10.9111
▁tumult	-10.9111
▁senate	-10.9111
▁naught	-10.9111
▁glen	-10.9111
▁sofa	-10.9112
▁hugh	-10.9112
▁picturesque	-10.9114
▁recognition	-10.9116
▁investigation	-10.9117
▁platt	-10.9117
▁travelling	-10.9122
▁confession	-10.9124
▁joyous	-10.913
▁pont	-10.9132
▁vary	-10.9135
▁parish	-10.9141
▁bud	-10.9146
▁mob	-10.9165
▁confessed	-10.9167
▁tim	-10.9168
▁pinch	-10.9168
▁tools	-10.9173
▁consented	-10.9178
▁boxes	-10.9188
▁cheerfully	-10.919
▁tha	-10.9205
▁reserve	-10.9205
▁troop	-10.9224
▁willow	-10.9227
▁glowing	-10.9236
▁stew	-10.9238
▁unwilling	-10.9241
▁circuit	-10.9241
▁discourse	-10.9241
▁entitled	-10.9241
▁envelope	-10.9241
▁luxury	-10.9241
▁shrink	-10.9241
▁tomorrow	-10.9241
▁violet	-10.9241
▁vulgar	-10.9241
▁tiger	-10.9241
▁bapti	-10.9241
▁drug	-10.9241
▁reef	-10.9241
▁edith	-10.9241
▁narrative	-10.9242
▁authorities	-10.9244
▁tread	-10.9244
▁interpretation	-10.9252
▁politeness	-10.9254
▁tan	-10.9254
▁dashed	-10.9257
▁cautiously	-10.9261
▁justified	-10.9267
▁restored	-10.9272
▁bin	-10.9278
▁blast	-10.9281
▁hal	-10.9324
▁wealthy	-10.933
▁belle	-10.9331
▁bloody	-10.9351
▁stare	-10.9356
▁asserted	-10.9356
▁turk	-10.9372
▁dal	-10.9372
▁swarm	-10.9372
▁carpenter	-10.9372
▁conjecture	-10.9372
▁discipline	-10.9372
▁estimate	-10.9372
▁eustace	-10.9372
▁explore	-10.9372
▁faculties	-10.9372
▁footsteps	-10.9372
▁henriette	-10.9372
▁nicholas	-10.9372
▁reception	-10.9372
▁scotch	-10.9372
▁stray	-10.9372
▁array	-10.9372
▁remedy	-10.9372
▁woke	-10.9372
▁gulf	-10.9372
▁illumin	-10.9372
▁swimming	-10.9372
▁waking	-10.9372
▁abode	-10.9373
▁jolly	-10.9373
▁candidate	-10.9374
▁holland	-10.9374
▁infantry	-10.9376
▁remainder	-10.9378
▁aroused	-10.9378
▁patron	-10.938
▁cruelty	-10.938
▁tenderly	-10.9382
▁suck	-10.9384
▁travelled	-10.9385
▁excel	-10.9385
▁european	-10.9386
▁wages	-10.9387
▁warmth	-10.9404
▁consisted	-10.9404
run	-10.9438
▁nap	-10.9438
▁acknowledged	-10.9444
▁copi	-10.9456
ular	-10.9457
▁confirmed	-10.9458
cap	-10.9465
town	-10.947
▁batter	-10.9484
▁profess	-10.949
▁provision	-10.9492
▁limb	-10.9493
▁accurate	-10.9506
▁alexander	-10.9506
▁anguish	-10.9506
▁charlotte	-10.9506
▁defect	-10.9506
▁downstairs	-10.9506
▁elegant	-10.9506
▁errand	-10.9506
▁nautilus	-10.9506
▁penetrate	-10.9506
▁resemblance	-10.9506
▁resolute	-10.9506
▁retorted	-10.9506
▁revolt	-10.9506
▁coffin	-10.9506
▁darcy	-10.9506
▁anyhow	-10.9506
▁sphere	-10.9506
▁knit	-10.9506
▁monday	-10.9506
▁subtle	-10.9506
▁banner	-10.9507
▁barrier	-10.9508
▁facing	-10.9509
▁johnny	-10.9512
▁sunlight	-10.9513
▁swamp	-10.9514
▁warned	-10.9514
▁determine	-10.9517
▁upset	-10.9519
▁maria	-10.9523
▁fitting	-10.9524
▁maga	-10.9533
▁willingly	-10.954
▁celebrated	-10.9544
▁arrest	-10.9552
▁bestowed	-10.9584
▁unh	-10.959
▁offended	-10.9593
▁arrested	-10.9594
▁solemnly	-10.96
▁inquire	-10.9605
long	-10.9631
▁commercial	-10.9641
▁suspend	-10.9641
▁disdain	-10.9641
▁garrison	-10.9641
▁mexican	-10.9641
▁symbol	-10.9641
▁crest	-10.9641
▁glu	-10.9642
▁normal	-10.9642
▁nancy	-10.9643
▁justify	-10.9644
▁converse	-10.9646
▁uncomfortable	-10.9646
▁terry	-10.9647
▁complexion	-10.9649
▁barrel	-10.9651
▁babe	-10.9655
▁ponder	-10.9661
▁rap	-10.9668
path	-10.9678
▁offence	-10.968
▁upright	-10.9685
▁confirm	-10.9689
▁offend	-10.9693
▁boss	-10.9703
▁invented	-10.9707
▁acknowledge	-10.9712
▁wrap	-10.9717
▁sinking	-10.9734
▁relate	-10.9742
▁mono	-10.9743
▁grip	-10.9744
▁jew	-10.9755
▁plac	-10.9767
▁imagina	-10.9777
▁abundant	-10.9778
▁accent	-10.9778
▁douglas	-10.9778
▁embroider	-10.9778
▁gigantic	-10.9778
▁pluck	-10.9778
▁priscilla	-10.9778
▁shrill	-10.9778
▁staircase	-10.9778
▁wrought	-10.9778
▁yourselves	-10.9778
▁diminish	-10.9778
▁situated	-10.9778
▁torrent	-10.9778
▁crouch	-10.9778
▁defense	-10.9778
▁gossip	-10.9778
▁greeting	-10.9778
▁subdue	-10.9778
▁legend	-10.9778
▁subsist	-10.9778
▁presume	-10.9778
▁baking	-10.9778
▁nowhere	-10.9778
▁keith	-10.9778
▁roger	-10.9778
▁tangle	-10.9778
▁recit	-10.978
▁pleasing	-10.9781
▁triumphant	-10.9783
▁pomp	-10.9789
▁dependent	-10.9791
▁chatter	-10.9794
▁encouraged	-10.9803
▁coral	-10.9803
▁secured	-10.9805
▁shaken	-10.9811
▁critical	-10.9829
▁rib	-10.9829
▁spy	-10.9854
▁drowned	-10.986
▁crop	-10.9861
▁tube	-10.9867
▁tossed	-10.9876
▁wander	-10.9897
worthy	-10.99
▁clergy	-10.9913
▁francis	-10.9914
▁advancing	-10.9917
▁illustration	-10.9917
▁lantern	-10.9917
▁solution	-10.9917
▁tebrick	-10.9917
▁tendency	-10.9917
▁umbrella	-10.9917
▁wheat	-10.9917
▁preceding	-10.9917
▁niece	-10.9917
▁shilling	-10.9917
▁jasper	-10.9917
▁costume	-10.9917
▁amusing	-10.9918
▁herbert	-10.9919
▁outrage	-10.992
▁exertion	-10.9923
▁ker	-10.9923
▁chant	-10.9925
▁sunny	-10.9927
▁production	-10.9929
▁loom	-10.993
▁wail	-10.993
▁highway	-10.9935
▁idol	-10.9948
▁coil	-10.996
▁brac	-10.9969
▁thicket	-10.9971
▁sap	-10.9971
▁assembled	-10.9985
▁commissioner	-11.0009
▁victor	-11.0012
▁healthy	-11.0015
▁tremble	-11.0022
▁primi	-11.0023
▁produc	-11.0031
▁grate	-11.0051
▁convict	-11.0051
▁investigat	-11.0051
▁commun	-11.0052
▁uncommon	-11.0057
▁accumulat	-11.0057
▁culture	-11.0057
▁faculty	-11.0057
▁fundamental	-11.0057
▁inquiries	-11.0057
▁liquor	-11.0057
▁occurrence	-11.0057
▁pilgrim	-11.0057
▁plunder	-11.0057
▁potatoes	-11.0057
▁squirrel	-11.0057
▁reaction	-11.0057
▁commend	-11.0057
▁adjust	-11.0058
▁clara	-11.0058
▁incapable	-11.0058
▁greeted	-11.0058
▁butterfly	-11.0058
▁decay	-11.0058
▁dropping	-11.0058
▁medium	-11.0058
▁beggar	-11.0059
▁squee	-11.006
▁planned	-11.0064
▁occasional	-11.0068
▁rash	-11.0072
▁toast	-11.0094
bility	-11.0101
▁summon	-11.0115
▁file	-11.014
▁summoned	-11.0146
▁plane	-11.0156
about	-11.016
▁thorough	-11.0163
leigh	-11.0173
position	-11.0176
▁barbar	-11.0188
▁contradict	-11.0194
▁spoon	-11.02
▁exclusive	-11.02
▁monstrous	-11.02
▁concert	-11.02
▁december	-11.02
▁lecture	-11.02
▁probability	-11.02
▁proclaim	-11.02
▁responsible	-11.02
▁sulphur	-11.02
▁symptom	-11.02
▁temperature	-11.02
▁twentieth	-11.02
▁inflict	-11.02
▁overlook	-11.02
▁detach	-11.02
▁bomb	-11.0201
▁slumber	-11.0201
▁basis	-11.0201
▁soap	-11.0202
▁calamit	-11.0202
▁descent	-11.0202
▁bridle	-11.0202
▁steward	-11.0203
▁stump	-11.0204
▁stair	-11.0207
▁interval	-11.0209
▁condemn	-11.0257
▁deserved	-11.0265
▁mourning	-11.0266
▁previously	-11.0276
▁polished	-11.0278
▁nigh	-11.0298
▁capture	-11.031
▁speedi	-11.0323
▁barely	-11.0327
▁compass	-11.0339
▁ignor	-11.0342
▁exert	-11.0343
▁agitation	-11.0345
▁challenge	-11.0345
▁obligation	-11.0345
▁responsibility	-11.0345
▁serving	-11.0345
▁stool	-11.0345
▁mitya	-11.0345
▁harmony	-11.0345
▁gretel	-11.0345
▁cavern	-11.0345
▁pilot	-11.0345
▁dunbar	-11.0346
▁flies	-11.0346
▁clapp	-11.0346
▁canyon	-11.0346
▁kitten	-11.0347
▁bubbl	-11.0348
▁sarah	-11.0349
▁clergyman	-11.0349
▁glare	-11.0349
▁interven	-11.0349
▁limp	-11.0353
▁fran	-11.0354
▁ample	-11.0354
▁harmless	-11.0357
▁prick	-11.0358
▁deliberately	-11.0369
▁haul	-11.037
▁watchful	-11.0371
mming	-11.0384
▁sickness	-11.0384
▁awaken	-11.0388
▁exhaust	-11.0404
rick	-11.0407
▁gasp	-11.0412
▁governed	-11.0427
▁sage	-11.0431
▁gasped	-11.0434
▁stan	-11.0434
▁violently	-11.044
▁engage	-11.045
▁create	-11.0457
▁discern	-11.0463
▁guilt	-11.0468
▁formula	-11.0469
ago	-11.0474
▁precede	-11.0478
▁induce	-11.0487
▁sting	-11.0491
▁bargain	-11.0492
▁corpse	-11.0492
▁definition	-11.0492
▁january	-11.0492
▁nephew	-11.0492
▁phenomena	-11.0492
▁valjean	-11.0492
▁hymn	-11.0492
▁bulk	-11.0492
▁debate	-11.0492
▁bigger	-11.0493
▁strap	-11.0493
▁criticism	-11.0493
▁underground	-11.0495
▁falsehood	-11.0495
▁realm	-11.0495
▁background	-11.0496
▁inevitable	-11.0497
▁impart	-11.0498
▁harmoni	-11.0499
▁marshal	-11.05
hip	-11.0501
▁inventor	-11.0512
▁christianity	-11.0514
liable	-11.0515
▁reverse	-11.0521
▁raw	-11.0525
onian	-11.0531
▁drown	-11.0553
▁quitt	-11.0553
▁grind	-11.057
▁hurriedly	-11.0603
▁boldly	-11.0612
▁russia	-11.0623
▁undu	-11.0635
▁chorus	-11.0642
▁discourage	-11.0642
▁jerusalem	-11.0642
▁montgomery	-11.0642
▁rascal	-11.0642
▁significance	-11.0642
▁spectator	-11.0642
▁stumble	-11.0642
▁underneath	-11.0642
▁welfare	-11.0642
▁relax	-11.0642
▁marilla	-11.0642
▁unseen	-11.0642
▁defined	-11.0642
▁dispers	-11.0642
▁providence	-11.0644
▁excessive	-11.0644
▁banish	-11.0646
▁raven	-11.0649
▁cough	-11.065
▁lime	-11.0652
▁lent	-11.0652
▁mast	-11.0652
▁entertainment	-11.0658
▁accused	-11.0659
▁irre	-11.0659
▁crust	-11.0665
▁dra	-11.0669
▁professional	-11.0675
▁revolver	-11.0687
▁constructed	-11.0697
▁workmen	-11.0709
▁undertaking	-11.0719
▁bestow	-11.0724
▁tightly	-11.0725
▁oat	-11.0734
▁tray	-11.0735
▁dresses	-11.0742
▁fier	-11.0743
▁prior	-11.0747
▁conclude	-11.0779
▁extra	-11.0793
▁whisk	-11.0793
▁marguerite	-11.0793
▁opportunities	-11.0793
▁phenomenon	-11.0793
▁temporary	-11.0793
▁threshold	-11.0793
▁thyself	-11.0793
▁vincent	-11.0793
▁disclos	-11.0793
▁flank	-11.0793
▁samuel	-11.0793
▁sublime	-11.0793
▁choke	-11.0793
▁bonnet	-11.0793
▁ounce	-11.0793
▁sweat	-11.0793
▁pacific	-11.0793
▁introduction	-11.0794
▁julie	-11.0794
▁chinese	-11.0794
▁graham	-11.0796
▁attractive	-11.0796
▁peterkin	-11.0799
▁plato	-11.0799
▁declaration	-11.08
▁brandon	-11.0803
▁examin	-11.0805
▁forgetting	-11.081
▁moth	-11.0811
▁acquire	-11.0815
▁swore	-11.0816
▁goose	-11.0819
▁frenchman	-11.0819
▁declined	-11.0823
▁trim	-11.083
▁madness	-11.0836
▁positively	-11.0841
▁aye	-11.0853
▁quivering	-11.0854
▁sara	-11.0863
▁embraced	-11.0869
▁guided	-11.0904
▁restore	-11.0915
fish	-11.0917
▁miner	-11.0921
plex	-11.0932
▁dale	-11.0945
▁confer	-11.0946
▁appropriate	-11.0947
▁gabriel	-11.0947
▁julius	-11.0947
▁mademoiselle	-11.0947
▁observing	-11.0947
▁paradise	-11.0947
▁thieves	-11.0947
▁unnatural	-11.0947
▁wolves	-11.0947
▁confront	-11.0947
▁literally	-11.0947
▁memories	-11.0947
▁regain	-11.0947
▁tyrant	-11.0947
▁watson	-11.0947
▁imperial	-11.0947
▁proverb	-11.0947
▁damage	-11.0947
▁donkey	-11.0947
▁slay	-11.0947
▁pledge	-11.0947
▁pleaded	-11.0947
▁plague	-11.0948
▁reverence	-11.0949
▁yoke	-11.095
▁smot	-11.095
▁clung	-11.0955
▁acid	-11.0959
▁successive	-11.0961
▁favorable	-11.0962
▁egyptian	-11.0962
▁milan	-11.0966
▁lordship	-11.097
▁joyful	-11.0972
▁horsemen	-11.0981
▁hinder	-11.0988
▁brandy	-11.0992
▁parent	-11.0995
▁armor	-11.1006
▁baked	-11.1011
▁downward	-11.1025
▁speeches	-11.1031
▁piled	-11.1037
▁era	-11.1043
▁glasses	-11.1047
▁stag	-11.1055
foot	-11.1063
▁commence	-11.1067
▁deceive	-11.1067
▁persecut	-11.1103
▁sympathi	-11.1103
▁angrily	-11.1103
▁brutal	-11.1103
▁chicago	-11.1103
▁commerce	-11.1103
▁destined	-11.1103
▁elaborate	-11.1103
▁energetic	-11.1103
▁eternity	-11.1103
▁impatience	-11.1103
▁marvellous	-11.1103
▁photograph	-11.1103
▁repetition	-11.1103
▁significant	-11.1103
▁sketch	-11.1103
▁subsequent	-11.1103
▁terrified	-11.1103
▁confound	-11.1103
▁gospel	-11.1103
▁plough	-11.1103
▁ralph	-11.1103
▁tragedy	-11.1103
▁conquest	-11.1103
▁manuscript	-11.1103
▁temperament	-11.1103
▁conceit	-11.1103
▁sledge	-11.1103
▁scold	-11.1103
▁sullen	-11.1103
▁ponies	-11.1103
▁twas	-11.1103
▁ardent	-11.1103
▁claus	-11.1103
▁granite	-11.1104
▁separation	-11.1105
▁cordial	-11.1105
▁digging	-11.1106
▁mournful	-11.1106
▁continuous	-11.1108
▁clad	-11.1114
▁mice	-11.1114
▁colonies	-11.1115
▁bump	-11.1115
▁moist	-11.1117
▁personage	-11.1127
▁warrior	-11.1137
▁released	-11.1137
▁lowest	-11.1147
▁govern	-11.1159
▁alleg	-11.1163
▁dye	-11.1204
scribed	-11.1215
▁meek	-11.1215
mouth	-11.1222
▁hesitate	-11.1226
▁presid	-11.1244
▁excess	-11.126
▁inherit	-11.1261
▁admiral	-11.1262
▁alyosha	-11.1262
▁attorney	-11.1262
▁climate	-11.1262
▁contrived	-11.1262
▁delicacy	-11.1262
▁elephant	-11.1262
▁excursion	-11.1262
▁october	-11.1262
▁parallel	-11.1262
▁reluctant	-11.1262
▁response	-11.1262
▁skull	-11.1262
▁strait	-11.1262
▁thumb	-11.1262
▁despatch	-11.1262
▁refrain	-11.1262
▁loaf	-11.1262
▁spray	-11.1262
▁swan	-11.1263
▁candid	-11.1264
▁canvas	-11.1265
▁resentment	-11.1265
▁groom	-11.1265
▁construction	-11.1266
▁invariably	-11.1268
▁festiv	-11.1268
▁unworthy	-11.1269
▁daint	-11.1269
▁shal	-11.1276
▁stem	-11.1278
▁grieved	-11.1281
▁statue	-11.1283
▁morality	-11.1286
▁impatiently	-11.1298
▁reserved	-11.1306
▁dollar	-11.131
▁sav	-11.1324
▁mudd	-11.1327
▁pang	-11.1341
▁mourn	-11.1347
▁excite	-11.1385
▁baker	-11.1387
▁associate	-11.1387
▁compel	-11.1398
▁administer	-11.1423
▁review	-11.1423
▁cathedral	-11.1423
▁ceremonies	-11.1423
▁dominion	-11.1423
▁february	-11.1423
▁horseback	-11.1423
▁moscow	-11.1423
▁opponent	-11.1423
▁parlour	-11.1423
▁phronsie	-11.1423
▁remembrance	-11.1423
▁suspicious	-11.1423
▁teaspoon	-11.1423
▁tempest	-11.1423
▁divorce	-11.1423
▁perfume	-11.1423
▁ravine	-11.1423
▁cluster	-11.1423
▁sexual	-11.1423
▁gaunt	-11.1423
▁aramis	-11.1423
▁omit	-11.1424
▁alliance	-11.1424
▁thereupon	-11.1424
▁snapped	-11.1424
ific	-11.1424
▁pavement	-11.1424
▁industrial	-11.1426
▁villain	-11.1428
▁ticket	-11.143
▁repuls	-11.1435
▁studio	-11.1436
▁lance	-11.1437
▁historical	-11.1443
▁additional	-11.1445
▁pun	-11.1479
▁polish	-11.1498
▁archer	-11.1503
▁improve	-11.1542
▁bug	-11.1546
▁release	-11.1551
▁rug	-11.157
▁imitat	-11.1581
▁quest	-11.1581
dale	-11.1581
▁congratulat	-11.1587
▁embark	-11.1587
▁analysis	-11.1587
▁disciple	-11.1587
▁fantastic	-11.1587
▁monastery	-11.1587
▁napoleon	-11.1587
▁scrambl	-11.1587
▁shimerda	-11.1587
▁surpass	-11.1587
▁terribly	-11.1587
▁exciting	-11.1587
▁identity	-11.1587
▁chariot	-11.1587
▁fiction	-11.1587
▁hoof	-11.1587
▁flora	-11.1587
▁strew	-11.1587
▁goddess	-11.1587
▁nourish	-11.1587
▁relay	-11.1587
▁raft	-11.1588
▁supp	-11.1589
▁butcher	-11.1596
▁mound	-11.1598
▁oxen	-11.1602
▁ku	-11.1603
▁endow	-11.1615
▁auto	-11.1637
▁bang	-11.1664
▁enthusiastic	-11.1669
▁ledge	-11.1674
▁operate	-11.1685
born	-11.1692
▁pia	-11.1692
▁chuck	-11.1704
▁impatient	-11.1716
▁pond	-11.173
▁incessant	-11.1754
▁amendment	-11.1754
▁destiny	-11.1754
▁earthquake	-11.1754
▁exclamation	-11.1754
▁exploit	-11.1754
▁frederick	-11.1754
▁rebecca	-11.1754
▁substantial	-11.1754
▁terrace	-11.1754
▁vacant	-11.1754
tumbling	-11.1754
▁casual	-11.1754
▁gravity	-11.1754
▁provoke	-11.1754
▁bliss	-11.1754
▁ninth	-11.1754
▁karl	-11.1754
borough	-11.1754
▁pattern	-11.1754
▁loath	-11.1754
▁quaint	-11.1754
▁fowl	-11.1754
▁acute	-11.1754
▁balloon	-11.1756
▁odor	-11.1757
▁incur	-11.1759
▁desirable	-11.176
▁management	-11.1761
▁marsh	-11.1761
▁pall	-11.1761
▁coachman	-11.1761
▁assertion	-11.1765
▁ridd	-11.1769
▁admirable	-11.1771
▁lame	-11.1795
▁amused	-11.1805
▁chuckle	-11.1807
▁smi	-11.1815
berry	-11.1825
▁cage	-11.1832
print	-11.188
▁resolve	-11.1888
verted	-11.1914
▁architect	-11.1923
▁berwin	-11.1923
▁elevation	-11.1923
▁embarrassment	-11.1923
▁injustice	-11.1923
▁lanyard	-11.1923
▁mississippi	-11.1923
▁rejoicing	-11.1923
▁worried	-11.1923
▁apostle	-11.1923
▁champion	-11.1923
▁desolate	-11.1923
▁skilful	-11.1923
▁wrinkle	-11.1923
▁expert	-11.1923
▁overtake	-11.1923
▁phase	-11.1923
▁habitual	-11.1924
▁exult	-11.1924
▁senor	-11.1924
▁shelf	-11.1924
▁bidding	-11.1925
▁encouragement	-11.1926
▁comfortably	-11.1929
▁hired	-11.1931
▁attraction	-11.1933
▁attire	-11.1935
▁scant	-11.1935
▁irresistible	-11.1936
▁afore	-11.1938
▁rack	-11.1945
▁vest	-11.1945
▁victoria	-11.1947
▁nobility	-11.1957
▁improved	-11.1961
▁panic	-11.1967
▁dipp	-11.1971
▁tries	-11.1973
▁plantation	-11.1975
▁kneel	-11.1989
▁observer	-11.2
▁bough	-11.2055
▁relieve	-11.206
▁invite	-11.206
▁pav	-11.2079
▁ambassador	-11.2096
▁apparatus	-11.2096
▁buffalo	-11.2096
▁draught	-11.2096
▁evolution	-11.2096
▁exclude	-11.2096
▁knelt	-11.2096
▁launcelot	-11.2096
▁matthew	-11.2096
▁propriety	-11.2096
▁prudent	-11.2096
▁virtuous	-11.2096
▁insect	-11.2096
▁scripture	-11.2096
▁trousers	-11.2096
▁babies	-11.2096
▁gross	-11.2096
▁dissolv	-11.2096
▁ingenious	-11.2096
▁martyr	-11.2096
▁calculation	-11.2096
▁parsley	-11.2096
▁pencil	-11.2096
▁volcan	-11.2096
▁liking	-11.2096
▁courtesy	-11.2096
▁daniel	-11.2096
▁particle	-11.2097
▁humming	-11.2097
▁dismal	-11.2097
▁frantic	-11.2097
▁click	-11.2099
▁booth	-11.2101
▁sparkling	-11.2101
▁chapel	-11.2103
▁mike	-11.2104
▁apologi	-11.2107
▁ojo	-11.2108
▁maud	-11.2108
▁ego	-11.2118
▁eagerness	-11.2122
▁painter	-11.2126
▁personality	-11.2127
▁dolly	-11.2153
rung	-11.2193
away	-11.2194
keeper	-11.2224
▁plunge	-11.2236
▁adventurer	-11.2244
water	-11.2248
▁torch	-11.2269
▁arriving	-11.2271
▁chauvelin	-11.2271
▁mexico	-11.2271
▁neutral	-11.2271
▁university	-11.2271
▁unnecessary	-11.2271
▁waistcoat	-11.2271
▁conform	-11.2271
▁enforce	-11.2271
▁dexter	-11.2271
▁intolerable	-11.2271
▁contend	-11.2271
▁recess	-11.2271
▁annual	-11.2271
▁sermon	-11.2271
▁leslie	-11.2271
▁warrant	-11.2271
▁sedley	-11.2272
▁blou	-11.2272
▁snor	-11.2274
▁logical	-11.2276
▁westward	-11.2279
▁alien	-11.2281
▁bucket	-11.2283
▁barbarian	-11.2289
▁navy	-11.2292
▁cupful	-11.2292
▁honorable	-11.2298
▁earlie	-11.23
▁harness	-11.2305
▁crab	-11.2315
▁deepest	-11.2325
▁strongest	-11.2326
escent	-11.235
▁eric	-11.2358
▁flush	-11.2361
horn	-11.2368
▁clan	-11.2406
▁continual	-11.2426
▁admiring	-11.245
▁obstinate	-11.245
▁achievement	-11.245
▁assumption	-11.245
▁behalf	-11.245
▁boolooroo	-11.245
▁calhoun	-11.245
▁disregard	-11.245
▁droop	-11.245
▁furnace	-11.245
▁intelligible	-11.245
▁jungle	-11.245
▁landlord	-11.245
▁prudence	-11.245
▁remorse	-11.245
▁tuesday	-11.245
▁venerable	-11.245
▁calculated	-11.245
▁comparatively	-11.245
▁screw	-11.245
▁decease	-11.245
▁harbor	-11.245
▁colony	-11.245
▁detain	-11.245
▁wrist	-11.245
▁wrest	-11.245
▁kettle	-11.245
▁gould	-11.245
▁bunny	-11.2452
▁clark	-11.2453
▁lungs	-11.2455
▁huron	-11.2455
▁imitation	-11.2457
▁greas	-11.2459
▁cabinet	-11.2462
▁curate	-11.2464
▁lever	-11.2466
▁favourable	-11.2467
▁drunken	-11.2469
▁exhibition	-11.2469
▁trader	-11.247
▁mantle	-11.2475
▁passive	-11.2476
▁involved	-11.2483
▁hatch	-11.2496
▁flap	-11.2516
▁adj	-11.2517
▁assembl	-11.2518
▁garment	-11.2542
▁marine	-11.2542
▁announc	-11.2542
▁helm	-11.2548
▁frighten	-11.2562
▁quiver	-11.2564
▁invent	-11.2576
▁decline	-11.2596
▁convince	-11.2596
▁spec	-11.2599
▁var	-11.2619
▁swam	-11.262
▁virgin	-11.2621
▁ambitious	-11.2632
▁awhile	-11.2632
▁elevate	-11.2632
▁prominent	-11.2632
▁pyramid	-11.2632
▁testimony	-11.2632
▁sniff	-11.2632
▁smash	-11.2632
▁jury	-11.2632
▁ethel	-11.2632
▁flint	-11.2632
▁utili	-11.2632
▁shaft	-11.2632
▁sheriff	-11.2632
▁governess	-11.2632
▁saloon	-11.2633
▁sandford	-11.2635
▁speck	-11.2636
▁helmet	-11.2636
▁nemo	-11.2638
▁parson	-11.2639
▁baba	-11.2641
▁secur	-11.2653
▁peel	-11.2671
▁shallow	-11.2685
▁nun	-11.272
▁artistic	-11.2747
▁rend	-11.2778
ologist	-11.2807
discreet	-11.2817
▁beseech	-11.2817
▁stimulat	-11.2817
▁tranquil	-11.2817
▁behaviour	-11.2817
▁corridor	-11.2817
▁damsel	-11.2817
▁disadvantage	-11.2817
▁perceiving	-11.2817
▁restaurant	-11.2817
▁stubborn	-11.2817
▁venetian	-11.2817
▁bertram	-11.2817
▁edition	-11.2817
▁salvation	-11.2817
▁vault	-11.2817
▁paddl	-11.2817
▁internal	-11.2817
▁orchard	-11.2817
▁dantes	-11.2817
▁larry	-11.2822
▁protestant	-11.2822
▁jake	-11.2825
▁allowance	-11.2829
▁revelation	-11.283
▁coloni	-11.283
▁wink	-11.2846
▁fifteenth	-11.2848
▁sobs	-11.2866
▁representation	-11.287
▁access	-11.2923
figu	-11.2947
▁eh	-11.2951
▁confide	-11.3004
voluntarily	-11.3005
▁abundance	-11.3005
▁adjoin	-11.3005
▁automatic	-11.3005
▁consolation	-11.3005
▁glancing	-11.3005
▁inference	-11.3005
▁overpower	-11.3005
▁strata	-11.3005
▁superstition	-11.3005
▁sympathetic	-11.3005
▁tyranny	-11.3005
▁alfred	-11.3005
▁enlighten	-11.3005
▁interposed	-11.3005
▁pursuing	-11.3005
▁rebellion	-11.3005
▁saxon	-11.3005
▁intensity	-11.3005
▁vicar	-11.3005
▁jerry	-11.3005
▁austria	-11.3006
▁alternate	-11.3006
▁film	-11.3006
▁vase	-11.3006
▁allison	-11.3006
▁indulgence	-11.3008
▁athens	-11.301
▁moses	-11.301
▁betty	-11.301
▁speculation	-11.3012
▁formidabl	-11.3012
▁patent	-11.3012
▁inspector	-11.3013
▁alert	-11.3014
▁babo	-11.302
calcul	-11.3025
▁superiority	-11.3025
▁stepan	-11.3045
▁cork	-11.3082
▁chatt	-11.3084
mission	-11.3092
▁interrupt	-11.3103
▁connect	-11.3103
piece	-11.3158
▁involve	-11.3162
▁glori	-11.3164
▁slop	-11.3175
▁inspect	-11.3189
▁convent	-11.3192
▁inevitab	-11.3192
▁accommodat	-11.3198
▁arabella	-11.3198
▁astronom	-11.3198
▁complicated	-11.3198
▁escort	-11.3198
▁hereafter	-11.3198
▁jupiter	-11.3198
▁museum	-11.3198
▁osborne	-11.3198
▁perplexity	-11.3198
▁register	-11.3198
▁revenue	-11.3198
▁territori	-11.3198
▁villefort	-11.3198
▁facilit	-11.3198
▁dictate	-11.3198
▁puritan	-11.3198
▁senior	-11.3198
▁bennet	-11.3198
▁greece	-11.3198
▁stifl	-11.3198
▁enlarge	-11.3198
▁margin	-11.3198
▁teddy	-11.3198
▁wicker	-11.3198
▁gratify	-11.3198
▁detest	-11.3199
▁owl	-11.3199
▁gorgeous	-11.32
▁sift	-11.32
▁correspondence	-11.3201
▁forsake	-11.3201
▁persistent	-11.3204
dolph	-11.3204
▁drear	-11.3204
▁considerably	-11.3205
▁litter	-11.3206
▁contradiction	-11.3206
▁adhere	-11.3208
▁armour	-11.3208
▁northward	-11.3208
▁mineral	-11.3209
▁nursery	-11.3213
▁ohio	-11.3219
▁pasture	-11.322
▁seventeenth	-11.3226
▁exile	-11.3229
▁sentimental	-11.3261
▁popp	-11.3308
▁vanish	-11.3316
▁shin	-11.3319
▁cheat	-11.3336
▁doubl	-11.3338
giving	-11.3354
▁encourage	-11.3354
▁reduce	-11.3358
▁speculat	-11.3387
▁advent	-11.3393
▁bachelor	-11.3394
▁distrust	-11.3394
▁economy	-11.3394
▁georgia	-11.3394
▁illustrate	-11.3394
▁illustrious	-11.3394
▁indescribabl	-11.3394
▁indispensable	-11.3394
▁majestic	-11.3394
▁promising	-11.3394
▁splendor	-11.3394
▁superintend	-11.3394
▁surgeon	-11.3394
▁winchester	-11.3394
▁creak	-11.3394
▁philosophical	-11.3394
▁raymond	-11.3394
▁corinth	-11.3394
▁atlantic	-11.3394
▁vigil	-11.3394
▁session	-11.3394
▁courtyard	-11.3394
▁grunt	-11.3394
▁sincerity	-11.3394
▁document	-11.3394
ouquet	-11.3394
▁canada	-11.3394
▁merlin	-11.3394
▁shrugged	-11.3394
▁otter	-11.3394
▁unfit	-11.3395
▁apron	-11.3395
▁beaver	-11.3395
▁conference	-11.3395
▁galley	-11.3396
▁hamlet	-11.3396
▁blunt	-11.3396
▁abide	-11.3397
▁cupboard	-11.3397
▁whipped	-11.3398
▁submitted	-11.3398
▁missionary	-11.3398
▁repress	-11.34
▁salad	-11.34
▁tank	-11.3401
▁lump	-11.3403
▁fuel	-11.3404
▁happier	-11.3405
▁ferry	-11.3407
▁startling	-11.3412
▁andrea	-11.3413
▁specific	-11.3415
▁youthful	-11.3422
▁respective	-11.3427
▁fringe	-11.3428
▁toilet	-11.3569
▁agitated	-11.3594
▁arkadyevitch	-11.3594
▁columbia	-11.3594
▁discretion	-11.3594
▁excellency	-11.3594
▁extravagant	-11.3594
▁feminine	-11.3594
▁galahad	-11.3594
▁impressive	-11.3594
▁kentucky	-11.3594
▁marquis	-11.3594
▁mukoki	-11.3594
▁refusing	-11.3594
▁reginald	-11.3594
▁vancouver	-11.3594
▁perplexed	-11.3594
▁strive	-11.3594
▁censor	-11.3594
▁disaster	-11.3594
▁harold	-11.3594
▁javert	-11.3594
▁dripping	-11.3594
▁loung	-11.3595
▁sneer	-11.3595
▁yawn	-11.3595
▁urgent	-11.3595
▁fried	-11.3595
▁version	-11.3595
▁slim	-11.3595
▁victorious	-11.3596
▁naples	-11.3596
▁bleeding	-11.3596
▁vibration	-11.3598
▁attachment	-11.3599
▁oars	-11.3599
▁executive	-11.3599
▁trout	-11.3601
▁headlong	-11.3604
▁southward	-11.3605
▁frock	-11.3605
▁jug	-11.3608
▁potent	-11.3613
▁riddle	-11.3654
▁hive	-11.3684
▁urge	-11.3693
terior	-11.372
▁pirate	-11.3722
bird	-11.3758
▁compose	-11.3772
▁revolutionar	-11.3775
▁revel	-11.379
▁simultaneous	-11.3798
▁adorned	-11.3798
▁apprehend	-11.3798
▁assassin	-11.3798
▁caravan	-11.3798
▁compromise	-11.3798
▁creator	-11.3798
▁edinburgh	-11.3798
▁eyebrows	-11.3798
▁fireplace	-11.3798
▁fugitive	-11.3798
▁hannah	-11.3798
▁henceforth	-11.3798
▁hypnoti	-11.3798
▁immaterial	-11.3798
▁quantities	-11.3798
▁scandal	-11.3798
▁streak	-11.3798
▁supernatural	-11.3798
▁wednesday	-11.3798
▁constituen	-11.3798
▁defarge	-11.3798
▁lumber	-11.3798
▁rainbow	-11.3798
▁splash	-11.3798
▁stacy	-11.3798
▁moraine	-11.3798
▁lurk	-11.3798
▁mirth	-11.3798
▁scout	-11.3798
▁martha	-11.3798
▁fiend	-11.3798
▁parrot	-11.3798
▁courteous	-11.3798
▁virgilius	-11.3798
▁sicily	-11.3798
▁mutton	-11.3798
▁birch	-11.3798
▁beckon	-11.3798
▁console	-11.3799
▁creed	-11.3799
▁disturbance	-11.3802
▁spoonful	-11.3803
▁rustling	-11.3805
▁brake	-11.3807
▁stockings	-11.3808
▁broil	-11.3809
▁policeman	-11.381
▁heroic	-11.3812
▁hospitality	-11.3812
▁sorrowful	-11.3819
▁nineteenth	-11.382
▁sixteenth	-11.382
▁fuss	-11.3823
▁plank	-11.3828
▁jet	-11.3839
▁critic	-11.3862
▁divert	-11.3901
wich	-11.392
▁transferr	-11.3948
▁devote	-11.3971
▁happie	-11.3995
▁fren	-11.4003
▁obstruct	-11.4006
▁almighty	-11.4006
▁chiltern	-11.4006
▁chocolate	-11.4006
▁crisp	-11.4006
▁deliberation	-11.4006
▁depression	-11.4006
▁efficient	-11.4006
▁episode	-11.4006
▁extremity	-11.4006
▁foliage	-11.4006
▁hesitating	-11.4006
▁intimacy	-11.4006
▁natasha	-11.4006
▁negative	-11.4006
▁refusal	-11.4006
▁tribute	-11.4006
▁trivial	-11.4006
▁dismount	-11.4006
▁gipsy	-11.4006
▁sanction	-11.4006
▁volunteer	-11.4006
▁withdrew	-11.4006
▁petition	-11.4006
▁prostrate	-11.4006
▁relating	-11.4006
▁shawl	-11.4006
▁wondrous	-11.4006
▁tackle	-11.4006
▁pussy	-11.4006
▁causing	-11.4007
▁forbear	-11.4007
abilities	-11.4007
▁torres	-11.4007
▁restrict	-11.4008
▁darn	-11.4008
▁radical	-11.4009
▁usurp	-11.401
▁barbarous	-11.4011
▁truck	-11.4011
▁spectr	-11.4012
▁polar	-11.4014
▁readiness	-11.4014
▁salary	-11.4014
▁grub	-11.4014
▁pike	-11.4015
▁brew	-11.4015
▁package	-11.4016
▁theories	-11.4017
▁tact	-11.4018
▁contemplation	-11.402
▁massive	-11.402
▁wholesome	-11.402
▁sumter	-11.4022
▁mature	-11.4025
▁accomplishment	-11.4028
▁gaily	-11.4033
▁conventional	-11.404
▁menace	-11.4106
▁customar	-11.411
▁humbl	-11.4112
▁publish	-11.413
▁alternative	-11.4219
▁archbishop	-11.4219
▁biscuit	-11.4219
▁decisive	-11.4219
▁demonstrate	-11.4219
▁environment	-11.4219
▁explosion	-11.4219
▁fyodor	-11.4219
▁generosity	-11.4219
▁hebrew	-11.4219
▁pavlovitch	-11.4219
▁precipice	-11.4219
▁rufford	-11.4219
▁shrub	-11.4219
▁uneasiness	-11.4219
▁blink	-11.4219
▁discontent	-11.4219
▁dispatch	-11.4219
▁fancies	-11.4219
▁sunrise	-11.4219
▁serene	-11.4219
▁traitor	-11.4219
▁dispens	-11.4219
▁jeff	-11.4219
▁coroner	-11.4219
▁slack	-11.4219
▁dagger	-11.4219
▁sentinel	-11.4219
▁sophia	-11.4219
▁elinor	-11.4219
▁slipping	-11.4219
▁hoarse	-11.4219
▁drows	-11.4219
▁carlyle	-11.4219
▁twinkle	-11.4219
▁hostess	-11.4221
▁abyss	-11.4221
▁impuden	-11.4221
▁bluff	-11.4223
▁breton	-11.4224
▁spider	-11.4225
▁clover	-11.4225
▁aristocratic	-11.4233
▁expressive	-11.4235
▁oppression	-11.4236
▁token	-11.4249
▁stripp	-11.4257
▁float	-11.4274
▁conqueror	-11.4274
▁judgement	-11.4287
▁alteration	-11.4293
accessible	-11.4313
▁stress	-11.434
▁revolv	-11.4371
▁rigg	-11.4374
guard	-11.4396
▁resent	-11.4436
▁unreason	-11.4436
▁aladdin	-11.4436
▁automobile	-11.4436
▁chateau	-11.4436
▁clumsy	-11.4436
▁crisis	-11.4436
▁cyrus	-11.4436
▁democracy	-11.4436
▁destructive	-11.4436
▁eloquence	-11.4436
▁embarrassed	-11.4436
▁expedient	-11.4436
▁jersey	-11.4436
▁massachusetts	-11.4436
▁mohammed	-11.4436
▁nostrils	-11.4436
▁politician	-11.4436
▁provincial	-11.4436
▁renown	-11.4436
▁requisite	-11.4436
▁scientist	-11.4436
▁scruple	-11.4436
▁shattered	-11.4436
▁shirley	-11.4436
▁technical	-11.4436
▁traddles	-11.4436
▁fraser	-11.4436
▁pitiful	-11.4436
▁sobbed	-11.4436
▁expand	-11.4436
▁hudson	-11.4436
▁prolonged	-11.4436
▁adapt	-11.4436
▁parcel	-11.4436
▁parlor	-11.4436
▁pershing	-11.4437
▁martian	-11.4437
▁cigarette	-11.4437
▁tragic	-11.4437
▁birthday	-11.4437
▁carolina	-11.4438
▁cradle	-11.4438
▁dramatic	-11.4439
▁francisco	-11.444
▁repentance	-11.444
▁preservation	-11.444
▁placid	-11.444
▁scrub	-11.4441
▁perilous	-11.4441
▁ballad	-11.4442
▁novelty	-11.4443
▁marvelous	-11.4443
▁relationship	-11.4443
▁feat	-11.4443
▁whiskers	-11.4445
▁jem	-11.4449
▁morton	-11.4455
▁cargo	-11.4455
▁busi	-11.4477
▁compli	-11.4521
spice	-11.4565
▁abraham	-11.4659
▁ammunition	-11.4659
▁aristobulus	-11.4659
▁astonishing	-11.4659
▁disposal	-11.4659
▁eccentric	-11.4659
▁eclipse	-11.4659
▁enquire	-11.4659
▁flaming	-11.4659
▁kenneth	-11.4659
▁mushroom	-11.4659
▁peddler	-11.4659
▁stammer	-11.4659
▁strand	-11.4659
▁thursday	-11.4659
▁transparent	-11.4659
▁valentine	-11.4659
▁vehicle	-11.4659
▁wiggily	-11.4659
▁overflow	-11.4659
▁flicker	-11.4659
▁lavish	-11.4659
▁illusion	-11.4659
▁harvest	-11.4659
▁enlist	-11.4659
▁malice	-11.4659
▁invalid	-11.4659
▁decree	-11.4659
▁efficiency	-11.4659
▁admission	-11.4659
▁israel	-11.4659
▁darkened	-11.466
▁spacious	-11.4662
▁pagan	-11.4662
▁foster	-11.4662
▁preference	-11.4663
▁sturd	-11.4665
▁legislation	-11.4665
▁isabella	-11.4666
▁edna	-11.4666
▁eastward	-11.4666
▁utterance	-11.4666
▁housekeeper	-11.4667
▁punch	-11.4671
▁augustus	-11.4675
▁herald	-11.4675
▁palli	-11.475
twix	-11.4752
▁superb	-11.4776
▁thir	-11.4833
conceivable	-11.4844
thought	-11.4846
think	-11.4847
▁precise	-11.4848
▁necessari	-11.4851
▁approval	-11.4886
▁blunder	-11.4886
▁borlsover	-11.4886
▁catastrophe	-11.4886
▁chipmunk	-11.4886
▁circular	-11.4886
▁commonplace	-11.4886
▁destitute	-11.4886
▁enclosure	-11.4886
▁fascinate	-11.4886
▁florentines	-11.4886
▁forthwith	-11.4886
▁haughty	-11.4886
▁henrietta	-11.4886
▁indefinite	-11.4886
▁iroquois	-11.4886
▁kennicott	-11.4886
▁magnitude	-11.4886
▁perceptible	-11.4886
▁pinocchio	-11.4886
▁radiant	-11.4886
▁recruit	-11.4886
▁scoundrel	-11.4886
▁societies	-11.4886
▁tunnel	-11.4886
▁twelfth	-11.4886
▁vavasor	-11.4886
▁forlorn	-11.4886
▁ridicule	-11.4886
▁raoul	-11.4886
▁offensive	-11.4886
▁banquet	-11.4886
▁draft	-11.4886
▁reverend	-11.4886
▁mysteries	-11.4886
▁random	-11.4886
▁antonia	-11.4886
▁prettie	-11.4886
▁fulton	-11.4886
▁vinegar	-11.4886
▁smet	-11.4887
▁eventual	-11.4887
▁allusion	-11.4887
▁rippl	-11.4887
▁confidential	-11.4888
▁ditch	-11.4889
▁winning	-11.4892
▁aught	-11.4892
▁troublesome	-11.4892
▁advertisement	-11.4893
▁practic	-11.4896
▁knightley	-11.4898
▁boom	-11.4903
▁signifie	-11.4905
▁socialist	-11.4913
▁theater	-11.4948
▁sect	-11.4956
▁arrang	-11.4982
▁genera	-11.5065
▁emphasi	-11.507
▁deliberate	-11.5081
folk	-11.5083
▁legislat	-11.5111
▁nav	-11.5115
▁extinct	-11.5118
▁ambrosch	-11.5118
▁antagonist	-11.5118
▁comprehension	-11.5118
▁demonstration	-11.5118
▁diameter	-11.5118
▁everlasting	-11.5118
▁extension	-11.5118
▁flavour	-11.5118
▁guarantee	-11.5118
▁hurstwood	-11.5118
▁hypothesis	-11.5118
▁judging	-11.5118
▁legitimate	-11.5118
▁oblivio	-11.5118
▁offspring	-11.5118
▁pennsylvania	-11.5118
▁phantom	-11.5118
▁striving	-11.5118
▁treachery	-11.5118
▁trifling	-11.5118
▁turtle	-11.5118
▁vegetation	-11.5118
▁yosemite	-11.5118
▁chestnut	-11.5118
▁contemporar	-11.5118
▁defiance	-11.5118
▁disconcert	-11.5118
▁routine	-11.5118
▁switch	-11.5118
▁whistling	-11.5118
▁vicious	-11.5118
▁redmain	-11.5118
▁luncheon	-11.5118
▁width	-11.5118
▁shun	-11.5119
▁wallace	-11.5119
▁jelly	-11.5119
▁rector	-11.5119
▁courtiers	-11.5119
▁pulse	-11.5119
▁stepping	-11.5119
▁condens	-11.5119
▁pork	-11.5119
▁cedar	-11.5119
▁oxford	-11.512
▁industrious	-11.512
▁disappearance	-11.5122
▁scour	-11.5123
▁interruption	-11.5126
▁cultivation	-11.5135
▁construct	-11.5261
▁provid	-11.5267
▁absorb	-11.5268
▁scatter	-11.5268
▁swor	-11.5282
wise	-11.5292
▁loft	-11.5332
▁narrat	-11.5354
▁adequate	-11.5356
▁apparel	-11.5356
▁berengaria	-11.5356
▁conniston	-11.5356
▁dignified	-11.5356
▁escaping	-11.5356
▁fidelity	-11.5356
▁inconvenience	-11.5356
▁inspiration	-11.5356
▁jonathan	-11.5356
▁possibilities	-11.5356
▁removing	-11.5356
▁sydney	-11.5356
▁syllable	-11.5356
▁telescope	-11.5356
▁transaction	-11.5356
▁treacherous	-11.5356
▁yankee	-11.5356
▁compound	-11.5357
▁constrain	-11.5357
▁fiddle	-11.5357
▁musket	-11.5357
▁tidings	-11.5357
▁duncan	-11.5357
▁dundee	-11.5357
▁horace	-11.5357
▁snarl	-11.5357
▁dinsmore	-11.5357
▁canadian	-11.5357
▁cooper	-11.5357
▁tavern	-11.5357
▁pigeon	-11.5357
▁unkind	-11.5357
▁valor	-11.5357
▁whereof	-11.5357
▁conservative	-11.5357
▁submission	-11.5357
▁enact	-11.5357
competent	-11.5358
▁terminate	-11.5358
▁analog	-11.5358
▁orbit	-11.5358
▁interference	-11.5358
▁sprung	-11.5359
▁heathen	-11.5359
hill	-11.5359
▁stuart	-11.5359
▁inheritance	-11.5359
▁prosperous	-11.5359
▁gorge	-11.536
▁plus	-11.5362
▁ecclesiastical	-11.5364
▁blake	-11.5365
▁packet	-11.5391
▁slap	-11.5393
▁critici	-11.5431
▁mystic	-11.5474
▁exclaim	-11.5512
▁lark	-11.5543
▁cautious	-11.5563
▁stab	-11.5578
▁vigor	-11.5598
▁unanimous	-11.56
▁abolish	-11.56
▁applause	-11.56
▁buddhis	-11.56
▁contrivance	-11.56
▁cricket	-11.56
▁eloquent	-11.56
▁grotesque	-11.56
▁loneliness	-11.56
▁luminous	-11.56
▁phineas	-11.56
▁reappear	-11.56
▁remonstrance	-11.56
▁renounc	-11.56
▁scaffold	-11.56
▁secrecy	-11.56
▁sherwin	-11.56
▁smerdyakov	-11.56
▁terrific	-11.56
▁thereafter	-11.56
▁unaccountabl	-11.56
▁unmistakabl	-11.56
▁vanquish	-11.56
▁vicinity	-11.56
▁bryce	-11.56
▁conseil	-11.56
▁gnaw	-11.56
▁gratification	-11.56
▁pioneer	-11.56
▁overthrow	-11.56
▁guinea	-11.5601
▁partition	-11.5601
▁descendants	-11.5601
▁uproar	-11.5601
▁violate	-11.5601
▁starved	-11.5601
▁naviga	-11.5601
▁molly	-11.5601
▁genji	-11.5602
▁patsy	-11.5602
▁snap	-11.5603
▁wharton	-11.5603
▁annoyance	-11.5604
▁lucian	-11.5605
▁batteries	-11.5606
▁drape	-11.5611
▁declar	-11.5624
▁enchantment	-11.5624
escence	-11.5626
▁crude	-11.5668
spiring	-11.5815
▁tick	-11.5841
▁whar	-11.5848
▁accusation	-11.585
▁consumption	-11.585
▁discomfort	-11.585
▁enclosed	-11.585
▁errant	-11.585
▁eruption	-11.585
▁felix	-11.585
▁glimmer	-11.585
▁identical	-11.585
▁ingenuity	-11.585
▁mammy	-11.585
▁memorable	-11.585
▁multiplied	-11.585
▁outstretch	-11.585
▁phillips	-11.585
▁presbyterian	-11.585
▁prodigious	-11.585
▁psychic	-11.585
▁reassure	-11.585
▁vladimir	-11.585
▁bramble	-11.585
▁companies	-11.585
▁psycholog	-11.585
▁aubert	-11.585
▁celesti	-11.585
▁delusion	-11.585
▁elmwood	-11.585
▁cherry	-11.585
▁empress	-11.585
▁invasion	-11.585
▁nightingale	-11.585
▁severity	-11.585
▁aversion	-11.585
▁bardell	-11.585
▁studies	-11.585
dominant	-11.5851
▁sterling	-11.5851
▁imposing	-11.5851
▁isolated	-11.5851
▁odious	-11.5851
▁blakeney	-11.5851
▁adult	-11.5851
▁bustle	-11.5851
▁foremost	-11.5851
▁thereof	-11.5851
▁conjur	-11.5851
▁smother	-11.5852
▁tonight	-11.5852
▁relics	-11.5852
▁effectual	-11.5852
▁moisture	-11.5852
▁sulk	-11.5853
▁bessie	-11.5853
▁weariness	-11.5854
▁forego	-11.5854
▁randal	-11.5859
▁mingl	-11.5871
assuming	-11.5912
rusi	-11.5998
▁respond	-11.6018
combe	-11.6063
woman	-11.6067
burn	-11.6076
▁circulat	-11.6107
▁condescend	-11.6107
▁deficien	-11.6107
▁inquiring	-11.6107
▁luxurious	-11.6107
▁advocate	-11.6107
▁buccaneer	-11.6107
▁composure	-11.6107
▁congregation	-11.6107
▁fascinating	-11.6107
▁financial	-11.6107
▁folliot	-11.6107
▁gilbert	-11.6107
▁harrington	-11.6107
▁imprisoned	-11.6107
▁indebted	-11.6107
▁infancy	-11.6107
▁institute	-11.6107
▁monotonous	-11.6107
▁necessities	-11.6107
▁othello	-11.6107
▁preliminar	-11.6107
▁remnant	-11.6107
▁splendour	-11.6107
▁strife	-11.6107
▁taylor	-11.6107
▁thrice	-11.6107
▁ungrateful	-11.6107
▁wreath	-11.6107
▁insensible	-11.6107
▁lydia	-11.6107
▁prowess	-11.6107
▁sawdust	-11.6107
▁tissue	-11.6107
▁bruis	-11.6107
▁imperative	-11.6107
▁violin	-11.6107
▁epoch	-11.6107
▁lagoon	-11.6107
▁trinity	-11.6107
▁abhor	-11.6107
▁carleton	-11.6107
▁displac	-11.6107
▁frail	-11.6107
▁fishermen	-11.6107
▁historian	-11.6107
▁carroll	-11.6107
▁dounia	-11.6107
▁terrier	-11.6107
▁devise	-11.6107
▁southwest	-11.6107
▁ordain	-11.6107
▁garret	-11.6107
▁tuft	-11.6107
▁nibbl	-11.6109
▁rambl	-11.6109
▁nominat	-11.6109
▁ankle	-11.6111
▁clash	-11.6111
▁hatchet	-11.6113
iquit	-11.6114
▁clement	-11.6114
▁wove	-11.6118
hurst	-11.6126
▁partake	-11.6129
▁insert	-11.6143
▁conspir	-11.6144
ivity	-11.6147
▁circl	-11.62
▁pronounc	-11.6281
midst	-11.6327
▁lapse	-11.6356
▁remarkabl	-11.6361
▁prosper	-11.6363
asmuch	-11.637
surmount	-11.637
▁achieved	-11.637
▁activities	-11.637
▁behavior	-11.637
▁bicycle	-11.637
▁colleague	-11.637
▁damosel	-11.637
▁diploma	-11.637
▁displease	-11.637
▁dmitri	-11.637
▁dulcinea	-11.637
▁ecstasy	-11.637
▁infect	-11.637
▁kangaroo	-11.637
▁nowadays	-11.637
▁removal	-11.637
▁tremulous	-11.637
▁vampire	-11.637
▁venice	-11.637
▁walcott	-11.637
▁channing	-11.637
▁decreas	-11.637
▁envious	-11.637
▁entrust	-11.637
▁testament	-11.637
▁denounc	-11.637
▁warfare	-11.637
▁ghastl	-11.637
▁coax	-11.637
▁quench	-11.637
▁sinister	-11.637
▁graduat	-11.637
▁compact	-11.637
▁snug	-11.637
▁ketch	-11.637
▁rosemary	-11.637
▁shark	-11.637
▁filth	-11.637
▁bingley	-11.637
▁odour	-11.637
▁operator	-11.637
▁stack	-11.637
▁sulei	-11.637
▁outfit	-11.6371
▁expir	-11.6371
▁morris	-11.6372
▁donald	-11.6372
▁hardened	-11.6373
▁noisy	-11.6373
▁feign	-11.6373
▁argo	-11.6374
▁reap	-11.6375
▁radiat	-11.6377
▁transfer	-11.6444
▁attach	-11.6556
▁injure	-11.6606
credulous	-11.664
▁academy	-11.664
▁alexandrovna	-11.664
▁appalling	-11.664
▁audible	-11.664
▁baltimore	-11.664
▁convenience	-11.664
▁encouraging	-11.664
▁equipped	-11.664
▁fraud	-11.664
▁girdle	-11.664
▁grudge	-11.664
▁junior	-11.664
▁lennox	-11.664
▁lloyd	-11.664
▁lonesome	-11.664
▁millionaire	-11.664
▁mischievous	-11.664
▁obedient	-11.664
▁refinement	-11.664
▁rhythm	-11.664
▁saviour	-11.664
▁theodora	-11.664
▁unquestion	-11.664
▁cabbage	-11.664
▁chemical	-11.664
▁merrily	-11.664
▁research	-11.664
▁futile	-11.664
▁beauties	-11.664
▁clump	-11.664
▁reproduce	-11.664
▁vrain	-11.664
▁daoud	-11.664
▁defiant	-11.664
▁judy	-11.664
▁distracted	-11.664
▁license	-11.664
▁deform	-11.664
▁pretence	-11.664
▁location	-11.664
▁mortar	-11.664
▁target	-11.664
▁noakes	-11.6641
▁settling	-11.6641
▁beryl	-11.6642
▁muffl	-11.6642
tropical	-11.6642
▁rites	-11.6642
▁spinning	-11.6642
▁tartar	-11.6643
▁babylonian	-11.6644
▁liberat	-11.6644
▁tilt	-11.6646
▁anew	-11.6648
▁fret	-11.665
▁subscrib	-11.6659
▁punctual	-11.6676
inkling	-11.6701
▁resume	-11.6882
▁contra	-11.6905
▁vibrat	-11.6912
▁babylon	-11.6914
▁artillery	-11.6918
▁asylum	-11.6918
▁confederation	-11.6918
▁consternation	-11.6918
▁cornelius	-11.6918
▁destination	-11.6918
▁discord	-11.6918
▁elapsed	-11.6918
▁emerald	-11.6918
▁expensive	-11.6918
▁indistinct	-11.6918
▁inexpressibl	-11.6918
▁insurrection	-11.6918
▁militia	-11.6918
▁moustache	-11.6918
▁proclamation	-11.6918
▁shuffl	-11.6918
▁skeleton	-11.6918
▁snuff	-11.6918
▁sombre	-11.6918
▁stevens	-11.6918
▁supposition	-11.6918
▁syracusan	-11.6918
▁texas	-11.6918
▁unequal	-11.6918
▁clatter	-11.6918
▁epistle	-11.6918
▁almah	-11.6918
▁fathom	-11.6918
▁missouri	-11.6918
▁primary	-11.6918
hrank	-11.6918
▁homage	-11.6918
adok	-11.6918
▁scope	-11.6918
▁smack	-11.6918
▁crocker	-11.6918
▁garral	-11.6918
▁martial	-11.6918
▁chalk	-11.6918
▁suburb	-11.6918
▁crumbl	-11.6918
▁chunk	-11.6918
▁glee	-11.6918
▁insane	-11.6919
▁communities	-11.692
▁taunt	-11.692
▁weird	-11.6921
▁hermit	-11.6922
▁bristl	-11.6931
▁husk	-11.6944
▁ethic	-11.6956
▁glaci	-11.7141
▁levi	-11.7152
▁bibl	-11.7157
▁villa	-11.7196
▁glisten	-11.7204
▁annihilat	-11.7204
▁antipater	-11.7204
▁aristotle	-11.7204
▁auspicious	-11.7204
▁beauchamp	-11.7204
▁bewilderment	-11.7204
▁boulder	-11.7204
▁butterflies	-11.7204
▁concession	-11.7204
▁corporeal	-11.7204
▁distorted	-11.7204
▁elegance	-11.7204
▁exploration	-11.7204
▁fragrant	-11.7204
▁grumble	-11.7204
▁hyrcanus	-11.7204
▁languid	-11.7204
▁mediterranean	-11.7204
▁miraculous	-11.7204
▁muscular	-11.7204
▁obscurity	-11.7204
▁pencroft	-11.7204
▁perseverance	-11.7204
▁precept	-11.7204
▁resembling	-11.7204
▁scissors	-11.7204
▁signature	-11.7204
▁steadfast	-11.7204
▁verdict	-11.7204
▁bohemia	-11.7204
▁bruce	-11.7204
▁chronicle	-11.7204
▁feebly	-11.7204
▁guidance	-11.7204
▁planchet	-11.7204
▁porridge	-11.7204
▁spargo	-11.7204
▁unselfish	-11.7204
▁aloft	-11.7204
▁baggage	-11.7204
▁dishonest	-11.7204
▁oldcastle	-11.7204
▁fervent	-11.7204
▁submerge	-11.7204
▁vixen	-11.7204
▁mercur	-11.7204
▁moderation	-11.7204
▁gamble	-11.7204
▁evelyn	-11.7204
▁melody	-11.7204
▁collins	-11.7204
▁implement	-11.7204
▁myriad	-11.7204
▁starving	-11.7204
▁tedious	-11.7204
▁outlaw	-11.7204
▁veranda	-11.7204
▁ravag	-11.7204
▁paraly	-11.7204
▁hearken	-11.7204
▁navigation	-11.7205
▁scald	-11.7206
ductive	-11.725
▁strawberr	-11.7332
▁historic	-11.7461
▁grieve	-11.7462
▁conserv	-11.7498
▁impulsive	-11.7498
▁abstain	-11.7498
▁afresh	-11.7498
▁alexandr	-11.7498
▁beauregard	-11.7498
▁coadjutor	-11.7498
▁cripple	-11.7498
▁deirdre	-11.7498
▁disinterested	-11.7498
▁displeasure	-11.7498
▁engrav	-11.7498
▁flannel	-11.7498
▁flask	-11.7498
▁flavor	-11.7498
▁imperceptibl	-11.7498
▁improper	-11.7498
▁magnificence	-11.7498
▁micawber	-11.7498
▁mortimer	-11.7498
▁ordinarily	-11.7498
▁oriental	-11.7498
▁precipitat	-11.7498
▁radiance	-11.7498
▁resurrection	-11.7498
▁rokesmith	-11.7498
▁sculpture	-11.7498
▁superficial	-11.7498
▁tiresome	-11.7498
▁veneering	-11.7498
▁nelson	-11.7498
▁nutmeg	-11.7498
▁russell	-11.7498
▁eminence	-11.7498
▁inviting	-11.7498
▁sarka	-11.7498
▁snob	-11.7498
▁abbot	-11.7498
▁emptie	-11.7498
▁valid	-11.7498
▁yacht	-11.7498
▁despot	-11.7498
▁rapture	-11.7498
▁evans	-11.7498
▁enrich	-11.7498
▁sample	-11.7498
▁cleav	-11.7498
▁apology	-11.7498
▁emphatically	-11.7499
▁announcement	-11.7499
▁brink	-11.7499
▁breach	-11.7499
▁slant	-11.7499
▁artifice	-11.7501
▁determin	-11.7569
▁introduc	-11.7658
tresses	-11.767
▁appoint	-11.7702
flame	-11.7761
▁authentic	-11.7801
▁obliterat	-11.7801
▁abominabl	-11.7801
▁agricola	-11.7801
▁agricultural	-11.7801
▁choosing	-11.7801
▁degraded	-11.7801
▁engaging	-11.7801
▁exhort	-11.7801
▁fabric	-11.7801
▁felicia	-11.7801
▁hannibal	-11.7801
▁intrigue	-11.7801
▁intrinsic	-11.7801
▁knives	-11.7801
▁luggage	-11.7801
▁magdalen	-11.7801
▁orthodox	-11.7801
▁parasol	-11.7801
▁persuasion	-11.7801
▁prophecy	-11.7801
▁queried	-11.7801
▁saunter	-11.7801
▁telegram	-11.7801
▁thong	-11.7801
▁tranquillity	-11.7801
▁twinkling	-11.7801
▁unbroken	-11.7801
▁vapour	-11.7801
▁buddha	-11.7801
▁flirt	-11.7801
▁haggard	-11.7801
▁impending	-11.7801
▁malicious	-11.7801
▁maloney	-11.7801
▁montfort	-11.7801
▁rostov	-11.7801
▁cogni	-11.7801
▁monotony	-11.7801
▁recipe	-11.7801
▁cecily	-11.7801
▁essay	-11.7801
▁orleans	-11.7801
▁morbid	-11.7801
▁deceit	-11.7801
▁almond	-11.7801
▁dedicate	-11.7801
▁jewkes	-11.7801
▁spake	-11.7801
▁gresham	-11.7801
▁posterity	-11.7801
▁holmes	-11.7801
▁patern	-11.7801
▁sierra	-11.7801
▁twitch	-11.7801
▁gutter	-11.7801
▁shelves	-11.7801
▁loiter	-11.7801
▁negotiation	-11.7802
▁cloves	-11.7802
▁meddle	-11.7802
▁trimmed	-11.7802
▁avow	-11.7803
▁jeer	-11.7803
▁infallibl	-11.7811
▁clue	-11.7811
▁denote	-11.7814
phone	-11.7841
▁sacrific	-11.7849
▁celebrat	-11.7921
▁preserv	-11.7959
▁accuse	-11.8078
▁inspire	-11.8078
▁acknowledg	-11.8095
▁olive	-11.8101
▁emphatic	-11.8112
▁impetuous	-11.8113
▁abolition	-11.8113
▁accuracy	-11.8113
▁advertising	-11.8113
▁benevolent	-11.8113
▁calliope	-11.8113
▁caterpillar	-11.8113
▁convincing	-11.8113
▁convulsion	-11.8113
▁devout	-11.8113
▁equipment	-11.8113
▁fascination	-11.8113
▁horribly	-11.8113
▁insufficient	-11.8113
▁international	-11.8113
▁langmore	-11.8113
▁mathematical	-11.8113
▁mechanism	-11.8113
▁milburgh	-11.8113
▁monseigneur	-11.8113
▁oglethorpe	-11.8113
▁penetrating	-11.8113
▁reinforcement	-11.8113
▁relinquish	-11.8113
▁rinaldo	-11.8113
▁schooner	-11.8113
▁seclude	-11.8113
▁sergey	-11.8113
▁sparrow	-11.8113
▁sweetheart	-11.8113
▁talbot	-11.8113
▁unhappiness	-11.8113
▁voluntary	-11.8113
▁abortion	-11.8113
▁aspiration	-11.8113
▁entangl	-11.8113
▁infirm	-11.8113
▁martineau	-11.8113
▁resound	-11.8113
▁traffic	-11.8113
▁transcend	-11.8113
▁uplift	-11.8113
▁landlady	-11.8113
▁flake	-11.8113
▁overheard	-11.8113
▁abbey	-11.8113
▁overcoat	-11.8113
▁lorry	-11.8113
▁usanga	-11.8113
▁corral	-11.8113
▁northwest	-11.8114
▁orphan	-11.8114
▁chancellor	-11.8114
▁turf	-11.8114
▁indoors	-11.8114
▁intrude	-11.8114
▁morsel	-11.8114
▁josie	-11.8114
▁enduring	-11.8115
▁nook	-11.8115
▁straightened	-11.8115
▁baffl	-11.8115
▁ancestr	-11.8115
▁signify	-11.8239
▁retrac	-11.8255
rink	-11.8367
sought	-11.8396
▁oblige	-11.84
▁conscientious	-11.8436
▁exterminat	-11.8436
▁sprawl	-11.8436
▁valiant	-11.8436
▁antiquity	-11.8436
▁appreciation	-11.8436
▁aristocracy	-11.8436
▁armstrong	-11.8436
▁australia	-11.8436
▁cataract	-11.8436
▁explosive	-11.8436
▁fragrance	-11.8436
▁humiliation	-11.8436
▁irritation	-11.8436
▁orchestra	-11.8436
▁pavilion	-11.8436
▁pluto	-11.8436
▁predecessor	-11.8436
▁rhyme	-11.8436
▁scrutini	-11.8436
▁stepmother	-11.8436
▁submarine	-11.8436
▁subordinate	-11.8436
▁swiss	-11.8436
▁transmitted	-11.8436
▁tributar	-11.8436
▁typical	-11.8436
▁uneasily	-11.8436
▁unlucky	-11.8436
▁vapor	-11.8436
▁whirlwind	-11.8436
▁choir	-11.8436
▁deference	-11.8436
▁humility	-11.8436
▁vigour	-11.8436
▁divinity	-11.8436
▁dixon	-11.8436
▁galleries	-11.8436
▁insolent	-11.8436
▁penalty	-11.8436
▁ruddy	-11.8436
▁spencer	-11.8436
▁biddle	-11.8436
▁minnie	-11.8436
▁slippers	-11.8436
▁massacre	-11.8436
▁benito	-11.8436
▁avaric	-11.8436
▁pervad	-11.8436
▁shuttle	-11.8437
▁muslin	-11.8437
▁carbon	-11.8437
▁stony	-11.8437
mulat	-11.8443
▁compensat	-11.8459
▁mimi	-11.8476
▁athenian	-11.8483
▁germ	-11.849
▁vermi	-11.851
▁orator	-11.8722
▁especial	-11.8732
▁scrupulous	-11.8769
▁agriculture	-11.8769
▁apparition	-11.8769
▁arbitrary	-11.8769
▁auction	-11.8769
▁bathsheba	-11.8769
▁choking	-11.8769
▁controversy	-11.8769
▁darrell	-11.8769
▁dialogue	-11.8769
▁energies	-11.8769
▁evinc	-11.8769
▁exposure	-11.8769
▁ferocious	-11.8769
▁geronimo	-11.8769
▁grognon	-11.8769
▁headquarters	-11.8769
▁homesick	-11.8769
▁humphrey	-11.8769
▁identified	-11.8769
▁imagining	-11.8769
▁insignificant	-11.8769
▁involuntary	-11.8769
▁jenks	-11.8769
▁monoplane	-11.8769
▁noirtier	-11.8769
▁ordinance	-11.8769
▁pecuniar	-11.8769
▁populace	-11.8769
▁pretext	-11.8769
▁recreation	-11.8769
▁reluctance	-11.8769
▁sacrament	-11.8769
▁simpson	-11.8769
▁strenuous	-11.8769
▁suicide	-11.8769
▁temporarily	-11.8769
▁theatrical	-11.8769
▁thurston	-11.8769
▁transgress	-11.8769
▁acquiesc	-11.8769
▁bounty	-11.8769
▁courier	-11.8769
▁darwin	-11.8769
▁embodi	-11.8769
▁engross	-11.8769
▁pollyanna	-11.8769
▁twain	-11.8769
▁rebuke	-11.8769
▁saucepan	-11.8769
▁endurance	-11.8769
▁sneak	-11.8769
▁squaw	-11.8769
▁unchang	-11.8769
▁lewis	-11.8769
▁sidney	-11.8769
▁gopher	-11.8769
▁horde	-11.8769
▁counsellor	-11.8769
▁daisy	-11.877
▁whale	-11.877
▁gothic	-11.877
▁dinars	-11.877
▁huntsman	-11.877
▁unreal	-11.877
▁isolation	-11.877
▁sorcer	-11.877
▁scann	-11.877
▁pouch	-11.8771
▁nimbl	-11.8772
▁tiptoe	-11.8776
mpelled	-11.8786
rural	-11.8797
▁describ	-11.8882
spread	-11.9074
cloth	-11.9074
▁admirabl	-11.9078
▁slum	-11.9113
▁encroach	-11.9114
▁straggl	-11.9114
▁applaud	-11.9114
▁bolshevik	-11.9114
▁bridegroom	-11.9114
▁bruno	-11.9114
▁competition	-11.9114
▁constellation	-11.9114
▁depict	-11.9114
▁dervish	-11.9114
▁disobey	-11.9114
▁distortion	-11.9114
▁eleanor	-11.9114
▁eugenie	-11.9114
▁hammock	-11.9114
▁hospitabl	-11.9114
▁imprisonment	-11.9114
▁incomparabl	-11.9114
▁inequality	-11.9114
▁injurious	-11.9114
▁jenkins	-11.9114
▁nevada	-11.9114
▁ostensibl	-11.9114
▁pimpernel	-11.9114
▁seclusion	-11.9114
▁sediment	-11.9114
▁serenity	-11.9114
▁sidewalk	-11.9114
▁soviet	-11.9114
▁supplement	-11.9114
▁vicksburg	-11.9114
▁rhine	-11.9114
▁slippery	-11.9114
▁sunbeam	-11.9114
▁swoon	-11.9114
▁transition	-11.9114
▁treason	-11.9114
▁capitol	-11.9114
▁maturity	-11.9114
▁retiring	-11.9114
▁scorch	-11.9114
▁freight	-11.9114
▁profane	-11.9114
▁wistful	-11.9114
▁duenna	-11.9114
▁unique	-11.9114
▁cycl	-11.9114
▁churchyard	-11.9114
▁focus	-11.9114
▁karen	-11.9114
▁migrat	-11.9115
▁berries	-11.9115
▁ivory	-11.9115
▁bulg	-11.9116
▁prowl	-11.9118
▁dangl	-11.9118
▁slate	-11.9123
throp	-11.9128
▁therewith	-11.918
ector	-11.9221
▁ebb	-11.9258
▁disappoint	-11.9379
world	-11.9431
▁advertise	-11.946
▁economi	-11.9462
▁dissolut	-11.9471
▁misunderstand	-11.9471
▁benevolence	-11.9471
▁candlestick	-11.9471
▁cavalier	-11.9471
▁circus	-11.9471
▁cordelia	-11.9471
▁deception	-11.9471
▁desdemona	-11.9471
▁desponden	-11.9471
▁elastic	-11.9471
▁expenditure	-11.9471
▁extinguished	-11.9471
▁fleming	-11.9471
▁grushenka	-11.9471
▁impossibility	-11.9471
▁inquisitive	-11.9471
▁jordan	-11.9471
▁joscelyn	-11.9471
▁malignant	-11.9471
▁manawyddan	-11.9471
▁marjorie	-11.9471
▁mathematics	-11.9471
▁maximilian	-11.9471
▁merciful	-11.9471
▁outburst	-11.9471
▁petticoat	-11.9471
▁scrutiny	-11.9471
▁suffocat	-11.9471
▁superfluous	-11.9471
▁syrup	-11.9471
▁tendencies	-11.9471
▁treasury	-11.9471
▁turgenev	-11.9471
▁vagabond	-11.9471
▁winterbourne	-11.9471
▁bookcase	-11.9471
▁cornwall	-11.9471
▁insolence	-11.9471
▁qualification	-11.9471
▁rehears	-11.9471
▁censure	-11.9471
▁lilith	-11.9471
▁phelan	-11.9471
▁splinter	-11.9471
esthetic	-11.9471
▁arkell	-11.9471
▁delegate	-11.9471
▁pitiless	-11.9471
▁salutation	-11.9471
▁squeak	-11.9471
▁devastat	-11.9471
▁gratified	-11.9471
▁quarry	-11.9471
▁barrister	-11.9471
▁snark	-11.9471
▁imperious	-11.9471
▁adieu	-11.9471
▁astray	-11.9471
▁outcome	-11.9471
▁petersburg	-11.9471
▁partisan	-11.9471
▁scowl	-11.9471
▁inscription	-11.9472
▁snub	-11.9472
▁fray	-11.9472
▁flitt	-11.9472
▁stow	-11.9472
▁mumm	-11.9472
▁snare	-11.9472
▁prevalen	-11.9476
▁shahr	-11.9497
▁snip	-11.9532
▁troubl	-11.965
▁slav	-11.9772
ground	-11.9786
▁numb	-11.9795
▁gradual	-11.9804
pplies	-11.9841
▁approximat	-11.9842
▁battalion	-11.9842
▁chevalier	-11.9842
▁comprehensive	-11.9842
▁conclusive	-11.9842
▁desperation	-11.9842
▁diligence	-11.9842
▁diligent	-11.9842
▁dishonour	-11.9842
▁drakestail	-11.9842
▁exclusion	-11.9842
▁ferdinand	-11.9842
▁florida	-11.9842
▁fluid	-11.9842
▁frithiof	-11.9842
▁grandpapa	-11.9842
▁grievance	-11.9842
▁inexperience	-11.9842
▁intuition	-11.9842
▁malcolm	-11.9842
▁maxineff	-11.9842
▁morgiana	-11.9842
▁obstinacy	-11.9842
▁raskolnikov	-11.9842
▁redoubled	-11.9842
▁remedies	-11.9842
▁selwyn	-11.9842
▁servitude	-11.9842
▁unsuccessful	-11.9842
▁cassio	-11.9842
▁miriam	-11.9842
▁preface	-11.9842
▁receipt	-11.9842
▁recount	-11.9842
▁sojourn	-11.9842
▁spruce	-11.9842
▁burglar	-11.9842
▁fernand	-11.9842
▁jarvis	-11.9842
▁trigger	-11.9842
▁diminuti	-11.9842
▁jesse	-11.9842
▁violation	-11.9842
▁animosit	-11.9842
▁campbell	-11.9842
▁starvation	-11.9842
▁surmise	-11.9842
▁forgetfulness	-11.9842
▁geneva	-11.9842
▁malady	-11.9842
▁bureau	-11.9842
▁modified	-11.9842
▁eliminat	-11.9842
▁grouse	-11.9842
▁reptile	-11.9842
▁dominate	-11.9842
▁rodya	-11.9842
▁redeem	-11.9842
▁venus	-11.9842
▁gondy	-11.9842
▁shred	-11.9842
▁augment	-11.9842
prehensi	-11.9843
▁aurora	-11.9843
▁overturn	-11.9843
▁apache	-11.9844
▁synonym	-11.9852
sophy	-11.9865
▁resource	-11.994
▁mechanic	-12.0103
▁democrat	-12.0169
disturbed	-12.0186
▁abrupt	-12.0189
▁radio	-12.022
▁aeroplane	-12.0226
▁appellation	-12.0226
▁caliph	-12.0226
▁cambridge	-12.0226
▁connachar	-12.0226
▁consecrat	-12.0226
▁cypher	-12.0226
▁denomination	-12.0226
▁ejaculated	-12.0226
▁encamped	-12.0226
▁exempt	-12.0226
▁extravagance	-12.0226
▁frivolous	-12.0226
▁gesticulat	-12.0226
▁grievous	-12.0226
▁grocer	-12.0226
▁hysterical	-12.0226
▁immeasurabl	-12.0226
▁immoral	-12.0226
▁impracticable	-12.0226
▁incoherent	-12.0226
▁inconsistent	-12.0226
▁infernal	-12.0226
▁marlanx	-12.0226
▁memorial	-12.0226
▁montague	-12.0226
▁pamphlet	-12.0226
▁paragraph	-12.0226
▁rynason	-12.0226
▁shiro	-12.0226
▁spontaneous	-12.0226
▁trophy	-12.0226
▁turmoil	-12.0226
▁unlimited	-12.0226
▁unmarried	-12.0226
▁untouched	-12.0226
▁witchcraft	-12.0226
▁sceptic	-12.0226
▁thwart	-12.0226
▁brenda	-12.0226
▁evolv	-12.0226
▁vacation	-12.0226
truding	-12.0226
▁greeley	-12.0226
▁verloc	-12.0226
▁rudder	-12.0226
articulate	-12.0226
▁chemist	-12.0226
▁patricia	-12.0226
▁rouble	-12.0226
▁stitch	-12.0226
▁injuries	-12.0226
▁snail	-12.0226
▁ceasing	-12.0226
▁revis	-12.0226
▁eames	-12.0226
▁bacch	-12.0226
▁bicker	-12.0226
▁grandeur	-12.0226
▁restoration	-12.0226
mbush	-12.0227
▁dispel	-12.0228
▁melodi	-12.0228
▁bawl	-12.0229
▁dimple	-12.023
located	-12.0239
▁surround	-12.0464
▁persistenc	-12.0551
▁disagree	-12.0621
▁vehement	-12.0626
▁agamemnon	-12.0626
▁anecdote	-12.0626
▁anniversary	-12.0626
▁anthony	-12.0626
▁armchair	-12.0626
▁cemetery	-12.0626
▁cheesacre	-12.0626
▁cleveland	-12.0626
▁confederacy	-12.0626
▁connexion	-12.0626
▁crevice	-12.0626
▁degenerate	-12.0626
▁demosthenes	-12.0626
▁equivalent	-12.0626
▁expanse	-12.0626
▁forefathers	-12.0626
▁ghis	-12.0626
▁gunpowder	-12.0626
▁horrified	-12.0626
▁illinois	-12.0626
▁impertinence	-12.0626
▁junction	-12.0626
▁louisbourg	-12.0626
▁masculine	-12.0626
▁nebraska	-12.0626
▁olympus	-12.0626
▁ominous	-12.0626
▁peacock	-12.0626
▁plentiful	-12.0626
▁raddle	-12.0626
▁sarcastic	-12.0626
▁schlichten	-12.0626
▁sensibility	-12.0626
▁subterrane	-12.0626
▁swollen	-12.0626
▁symphony	-12.0626
▁thomson	-12.0626
▁thrash	-12.0626
▁tribunal	-12.0626
▁unfair	-12.0626
▁vassal	-12.0626
▁wylder	-12.0626
▁chord	-12.0626
▁gordon	-12.0626
▁recurr	-12.0626
▁accost	-12.0626
▁balcony	-12.0626
▁newcomer	-12.0626
▁silvia	-12.0626
▁simmer	-12.0626
▁visual	-12.0626
▁tulip	-12.0626
▁vienna	-12.0626
▁waldron	-12.0626
▁football	-12.0626
▁unheard	-12.0626
▁fibre	-12.0626
▁consort	-12.0626
▁arduous	-12.0626
▁snapping	-12.0626
▁tremor	-12.0626
▁necklace	-12.0626
▁yarn	-12.0626
▁huddle	-12.0626
▁merrick	-12.0626
▁wilkins	-12.0626
▁fumbl	-12.0626
▁wield	-12.0626
▁statute	-12.0626
▁repast	-12.0626
▁churn	-12.0627
▁whirr	-12.0627
▁spangl	-12.0627
▁rhod	-12.0627
▁trudg	-12.0628
▁propiti	-12.0631
▁hockin	-12.0654
▁grabb	-12.0714
oggle	-12.0837
▁embrac	-12.085
brook	-12.1003
grown	-12.1003
▁consequent	-12.1005
▁ecclesiastic	-12.1029
▁approving	-12.1043
victual	-12.1043
▁abject	-12.1043
▁accompaniment	-12.1043
▁apprehensive	-12.1043
▁approbation	-12.1043
▁audacity	-12.1043
▁bertuccio	-12.1043
▁captivat	-12.1043
▁cariboo	-12.1043
▁clodagh	-12.1043
▁commodit	-12.1043
▁conversion	-12.1043
▁convulsive	-12.1043
▁disastrous	-12.1043
▁dissatisfied	-12.1043
▁encircl	-12.1043
▁eunuch	-12.1043
▁exaggeration	-12.1043
▁fledgeby	-12.1043
▁forefinger	-12.1043
▁fragile	-12.1043
▁godfrey	-12.1043
▁grammar	-12.1043
▁handwriting	-12.1043
▁hypocrisy	-12.1043
▁ivanovitch	-12.1043
▁juncture	-12.1043
▁kepler	-12.1043
▁murray	-12.1043
▁observance	-12.1043
▁sabbath	-12.1043
▁savareen	-12.1043
▁stalwart	-12.1043
▁storage	-12.1043
▁tennessee	-12.1043
▁thompson	-12.1043
▁twemlow	-12.1043
▁tyrannical	-12.1043
▁unfamiliar	-12.1043
▁conspiracy	-12.1043
▁charcoal	-12.1043
▁edifice	-12.1043
▁entail	-12.1043
▁hampton	-12.1043
▁loaves	-12.1043
▁extort	-12.1043
▁garnish	-12.1043
▁copse	-12.1043
▁freak	-12.1043
▁urban	-12.1043
▁wriggl	-12.1043
▁nigger	-12.1043
▁pauper	-12.1043
▁bulb	-12.1043
▁eddie	-12.1045
▁veritabl	-12.105
▁ugli	-12.105
▁requir	-12.1082
▁indirect	-12.1205
iggle	-12.1253
breast	-12.1438
▁shrug	-12.1477
responsive	-12.1478
▁abnormal	-12.1478
▁acarnania	-12.1478
▁acclamation	-12.1478
▁adversary	-12.1478
▁alacrity	-12.1478
▁alexey	-12.1478
▁alphabet	-12.1478
▁applicable	-12.1478
▁atlantis	-12.1478
▁auditor	-12.1478
▁blasphem	-12.1478
▁citadel	-12.1478
▁commotion	-12.1478
▁comtesse	-12.1478
▁concrete	-12.1478
▁deserving	-12.1478
▁desolation	-12.1478
▁dotterine	-12.1478
▁drawback	-12.1478
▁erroneous	-12.1478
▁georgie	-12.1478
▁impertinent	-12.1478
▁inconvenient	-12.1478
▁jesuit	-12.1478
▁merciless	-12.1478
▁metaphysical	-12.1478
▁municipal	-12.1478
▁peloponnesians	-12.1478
▁prediction	-12.1478
▁premises	-12.1478
▁preposterous	-12.1478
▁quicksilver	-12.1478
▁romilly	-12.1478
▁sanctu	-12.1478
▁secular	-12.1478
▁sluggish	-12.1478
▁stealthily	-12.1478
▁stupendous	-12.1478
▁surplus	-12.1478
▁travilla	-12.1478
▁veteran	-12.1478
▁virtually	-12.1478
▁visibly	-12.1478
▁warburton	-12.1478
▁wolverstone	-12.1478
▁writhing	-12.1478
▁annabel	-12.1478
▁blond	-12.1478
▁bonteen	-12.1478
▁exportation	-12.1478
▁grenville	-12.1478
▁intercept	-12.1478
▁lucifer	-12.1478
▁marhaus	-12.1478
▁mislead	-12.1478
▁nuisance	-12.1478
▁paradox	-12.1478
▁phantas	-12.1478
▁pretense	-12.1478
▁resident	-12.1478
▁saunders	-12.1478
▁symphoni	-12.1478
▁turret	-12.1478
▁unarmed	-12.1478
▁covenant	-12.1478
▁creative	-12.1478
▁dishearten	-12.1478
▁edwin	-12.1478
▁encompass	-12.1478
▁hilda	-12.1478
▁joanna	-12.1478
▁provocati	-12.1478
▁edmond	-12.1478
▁manipulat	-12.1478
▁oneself	-12.1478
▁guitar	-12.1478
▁insurance	-12.1478
▁correlat	-12.1478
▁patrol	-12.1478
▁psalm	-12.1478
▁cherrie	-12.1478
▁kirk	-12.1478
▁primari	-12.1478
▁slamm	-12.1479
▁implacabl	-12.1479
mitigat	-12.15
▁capacit	-12.1919
▁unearth	-12.1932
▁discriminat	-12.1932
▁disintegrat	-12.1932
▁infidel	-12.1932
▁profuse	-12.1932
▁relentless	-12.1932
▁aghast	-12.1932
▁alexandrovitch	-12.1932
▁alligator	-12.1932
▁avalanche	-12.1932
▁calendar	-12.1932
▁constantinople	-12.1932
▁creating	-12.1932
▁dejected	-12.1932
▁drought	-12.1932
▁essex	-12.1932
▁estimation	-12.1932
▁exploded	-12.1932
▁ferocity	-12.1932
▁fyodorovitch	-12.1932
▁glasgow	-12.1932
▁halifax	-12.1932
▁harrowby	-12.1932
▁hurrah	-12.1932
▁imminent	-12.1932
▁improbable	-12.1932
▁inadequate	-12.1932
▁inexhaustible	-12.1932
▁jukes	-12.1932
▁lammle	-12.1932
▁merriment	-12.1932
