<unk>	0
<s>	0
</s>	0
▁t	-0
he	-1
▁a	-2
▁the	-3
in	-4
▁s	-5
▁w	-6
▁o	-7
re	-8
nd	-9
▁b	-10
▁h	-11
er	-12
▁m	-13
▁i	-14
ou	-15
▁c	-16
▁f	-17
at	-18
ed	-19
▁and	-20
en	-21
▁of	-22
on	-23
▁to	-24
is	-25
▁p	-26
▁d	-27
ing	-28
▁th	-29
or	-30
es	-31
▁he	-32
▁in	-33
▁l	-34
it	-35
an	-36
ar	-37
ll	-38
as	-39
▁n	-40
▁g	-41
om	-42
▁be	-43
▁e	-44
▁ha	-45
le	-46
ot	-47
ic	-48
ut	-49
ow	-50
▁it	-51
▁wh	-52
▁y	-53
ld	-54
▁that	-55
ly	-56
ve	-57
st	-58
se	-59
▁was	-60
▁on	-61
ent	-62
id	-63
gh	-64
▁re	-65
im	-66
ion	-67
▁u	-68
ce	-69
ver	-70
al	-71
▁you	-72
▁for	-73
▁we	-74
▁as	-75
ir	-76
et	-77
ith	-78
ay	-79
▁r	-80
▁his	-81
▁with	-82
▁st	-83
ur	-84
ad	-85
ght	-86
▁an	-87
▁is	-88
ter	-89
▁not	-90
ac	-91
▁had	-92
her	-93
am	-94
▁her	-95
oo	-96
▁at	-97
▁but	-98
ould	-99
▁se	-100
▁k	-101
▁she	-102
▁sh	-103
▁fr	-104
ain	-105
▁su	-106
▁so	-107
ill	-108
ight	-109
ch	-110
▁sa	-111
ct	-112
▁him	-113
▁me	-114
red	-115
ro	-116
all	-117
il	-118
ess	-119
ke	-120
▁they	-121
▁de	-122
▁whe	-123
ore	-124
▁all	-125
ich	-126
▁by	-127
▁con	-128
pp	-129
ri	-130
▁ne	-131
▁this	-132
ome	-133
▁which	-134
▁have	-135
▁my	-136
▁li	-137
us	-138
qu	-139
ul	-140
▁ch	-141
▁do	-142
▁from	-143
ge	-144
▁j	-145
▁up	-146
▁or	-147
ard	-148
▁v	-149
▁ex	-150
▁one	-151
pe	-152
th	-153
▁were	-154
▁said	-155
▁no	-156
est	-157
▁there	-158
and	-159
▁man	-160
ble	-161
ation	-162
res	-163
▁who	-164
ant	-165
▁al	-166
ous	-167
▁them	-168
ie	-169
ust	-170
nt	-171
very	-172
▁fe	-173
ist	-174
ers	-175
▁when	-176
▁int	-177
ame	-178
▁are	-179
▁their	-180
ood	-181
fe	-182
▁go	-183
ast	-184
ind	-185
our	-186
lf	-187
ong	-188
os	-189
art	-190
▁le	-191
ate	-192
out	-193
▁kn	-194
▁tr	-195
▁com	-196
▁would	-197
ound	-198
▁wor	-199
▁if	-200
ak	-201
▁out	-202
ap	-203
▁ab	-204
em	-205
▁will	-206
um	-207
ol	-208
un	-209
▁what	-210
ig	-211
▁mis	-212
▁br	-213
one	-214
ough	-215
if	-216
itt	-217
▁ar	-218
▁pro	-219
▁pl	-220
▁been	-221
ven	-222
ive	-223
ace	-224
ity	-225
reat	-226
ked	-227
own	-228
▁pr	-229
ther	-230
▁ro	-231
▁un	-232
▁sp	-233
▁then	-234
ag	-235
▁qu	-236
▁gr	-237
▁af	-238
▁tw	-239
ost	-240
self	-241
ort	-242
▁am	-243
▁ag	-244
hed	-245
ure	-246
ake	-247
▁could	-248
▁some	-249
▁any	-250
▁can	-251
▁en	-252
ack	-253
▁tim	-254
▁into	-255
▁more	-256
au	-257
▁cl	-258
ies	-259
ry	-260
pt	-261
ck	-262
ose	-263
nder	-264
▁your	-265
▁bo	-266
hing	-267
ved	-268
el	-269
▁now	-270
op	-271
are	-272
▁other	-273
ance	-274
able	-275
▁very	-276
ine	-277
▁im	-278
▁dis	-279
ide	-280
▁than	-281
▁co	-282
ittle	-283
ite	-284
▁little	-285
ass	-286
▁us	-287
▁like	-288
ab	-289
▁loo	-290
way	-291
ence	-292
urn	-293
▁bl	-294
fore	-295
ment	-296
▁day	-297
▁time	-298
ep	-299
▁over	-300
ought	-301
cc	-302
▁did	-303
other	-304
▁great	-305
▁ad	-306
ade	-307
ci	-308
ree	-309
▁te	-310
▁how	-311
ice	-312
de	-313
▁upon	-314
▁per	-315
▁about	-316
▁after	-317
▁fl	-318
wn	-319
▁know	-320
▁lo	-321
ish	-322
▁see	-323
pl	-324
ally	-325
▁too	-326
▁has	-327
ink	-328
▁again	-329
ount	-330
▁two	-331
ars	-332
▁our	-333
▁only	-334
ress	-335
▁should	-336
▁po	-337
▁pe	-338
ire	-339
▁hand	-340
▁str	-341
ings	-342
age	-343
ves	-344
▁its	-345
▁good	-346
▁well	-347
ving	-348
ave	-349
▁app	-350
ather	-351
per	-352
ions	-353
we	-354
ty	-355
▁say	-356
▁down	-357
ile	-358
te	-359
▁before	-360
ang	-361
tain	-362
▁every	-363
▁where	-364
▁old	-365
▁made	-366
▁mu	-367
▁thr	-368
▁these	-369
▁long	-370
▁such	-371
ick	-372
▁sc	-373
▁mar	-374
▁pre	-375
▁part	-376
ful	-377
▁sm	-378
ied	-379
ild	-380
act	-381
▁must	-382
ious	-383
▁fir	-384
ue	-385
▁under	-386
ans	-387
ull	-388
ft	-389
ord	-390
ward	-391
▁came	-392
▁fo	-393
▁off	-394
▁may	-395
▁bec	-396
▁never	-397
ated	-398
▁even	-399
ber	-400
ness	-401
▁spe	-402
▁rem	-403
▁miss	-404
▁ye	-405
ect	-406
led	-407
▁much	-408
▁way	-409
ren	-410
▁come	-411
orn	-412
ise	-413
ach	-414
ary	-415
▁let	-416
▁mister	-417
▁cr	-418
▁cont	-419
▁think	-420
▁first	-421
▁ey	-422
▁gl	-423
▁thought	-424
▁bet	-425
▁men	-426
▁back	-427
▁ob	-428
▁sl	-429
ud	-430
▁here	-431
▁des	-432
▁own	-433
▁just	-434
▁mo	-435
▁ho	-436
▁res	-437
ip	-438
co	-439
▁look	-440
ady	-441
cl	-442
ried	-443
av	-444
ff	-445
llow	-446
▁himself	-447
▁wat	-448
air	-449
▁went	-450
▁car	-451
▁comp	-452
ily	-453
▁might	-454
aw	-455
▁seem	-456
ath	-457
▁beg	-458
▁most	-459
▁imp	-460
anc	-461
▁em	-462
▁dr	-463
▁through	-464
oss	-465
▁cons	-466
ouse	-467
▁pres	-468
▁those	-469
▁without	-470
▁ke	-471
▁bel	-472
▁acc	-473
▁away	-474
hes	-475
▁comm	-476
▁life	-477
▁make	-478
ted	-479
▁get	-480
▁head	-481
ix	-482
▁new	-483
▁pass	-484
ks	-485
▁turn	-486
▁call	-487
ened	-488
▁still	-489
▁shall	-490
ail	-491
▁som	-492
less	-493
▁many	-494
▁jo	-495
▁don	-496
ause	-497
▁op	-498
▁three	-499
▁found	-500
▁house	-501
▁being	-502
▁take	-503
ons	-504
▁ent	-505
▁eyes	-506
▁wom	-507
ory	-508
▁ear	-509
▁night	-510
ign	-511
▁wr	-512
▁somet	-513
ds	-514
ens	-515
iv	-516
ors	-517
ared	-518
▁while	-519
▁put	-520
▁ser	-521
▁last	-522
les	-523
▁peop	-524
▁cour	-525
ible	-526
▁count	-527
▁ind	-528
▁same	-529
ition	-530
oth	-531
ase	-532
dy	-533
aking	-534
▁nothing	-535
▁att	-536
ark	-537
ction	-538
▁people	-539
▁ret	-540
▁tell	-541
igh	-542
▁saw	-543
▁place	-544
▁mat	-545
ered	-546
▁nor	-547
ng	-548
pect	-549
▁yet	-550
▁once	-551
▁dist	-552
▁right	-553
▁hu	-554
▁inst	-555
▁arm	-556
▁nat	-557
ult	-558
▁child	-559
▁another	-560
▁young	-561
ia	-562
vent	-563
▁far	-564
▁work	-565
ations	-566
get	-567
▁end	-568
▁king	-569
iend	-570
ince	-571
man	-572
▁room	-573
▁inte	-574
▁friend	-575
▁though	-576
ub	-577
ian	-578
▁set	-579
ew	-580
▁father	-581
▁took	-582
▁rep	-583
so	-584
▁happ	-585
int	-586
▁ever	-587
▁light	-588
sel	-589
▁char	-590
▁supp	-591
▁things	-592
▁form	-593
▁ac	-594
cess	-595
▁mind	-596
ished	-597
▁world	-598
▁sub	-599
▁pers	-600
▁cap	-601
▁find	-602
▁want	-603
fect	-604
ict	-605
▁face	-606
▁ple	-607
thing	-608
▁gen	-609
ently	-610
ower	-611
ject	-612
ertain	-613
aid	-614
▁dif	-615
▁heart	-616
▁thing	-617
▁wa	-618
▁left	-619
ways	-620
▁missus	-621
der	-622
irl	-623
▁looked	-624
ical	-625
▁war	-626
ange	-627
pped	-628
ced	-629
rew	-630
alk	-631
▁rel	-632
ither	-633
▁mom	-634
ple	-635
▁mother	-636
▁asked	-637
▁moment	-638
dd	-639
▁gu	-640
▁sat	-641
▁soon	-642
▁mon	-643
▁follow	-644
aught	-645
▁appe	-646
▁el	-647
▁sur	-648
▁always	-649
▁yes	-650
gg	-651
▁sw	-652
ling	-653
▁ans	-654
orm	-655
▁give	-656
▁eng	-657
▁poss	-658
▁because	-659
▁reg	-660
▁water	-661
▁sir	-662
▁gi	-663
▁hor	-664
ual	-665
▁love	-666
ss	-667
ning	-668
▁girl	-669
land	-670
▁seemed	-671
lt	-672
iver	-673
▁why	-674
aut	-675
▁home	-676
▁wind	-677
▁something	-678
ond	-679
▁heard	-680
▁bre	-681
▁inf	-682
▁years	-683
▁cle	-684
▁unt	-685
ched	-686
ne	-687
▁rest	-688
▁going	-689
▁got	-690
▁four	-691
▁ph	-692
ner	-693
▁also	-694
▁del	-695
ited	-696
▁conf	-697
▁return	-698
▁each	-699
▁vo	-700
▁god	-701
most	-702
ret	-703
▁ass	-704
▁against	-705
▁bu	-706
▁few	-707
▁woman	-708
ever	-709
▁hands	-710
▁act	-711
cept	-712
▁feel	-713
▁boy	-714
▁kind	-715
ook	-716
▁belie	-717
ool	-718
▁exp	-719
▁door	-720
ined	-721
▁side	-722
▁min	-723
▁hel	-724
ial	-725
ting	-726
ired	-727
▁hard	-728
ters	-729
ason	-730
rest	-731
ib	-732
▁half	-733
▁sil	-734
▁near	-735
▁ter	-736
▁certain	-737
row	-738
aps	-739
iness	-740
ream	-741
▁gener	-742
ru	-743
▁knew	-744
▁lar	-745
▁told	-746
▁among	-747
▁inc	-748
▁hum	-749
▁care	-750
▁began	-751
een	-752
ph	-753
▁quite	-754
▁having	-755
▁che	-756
oub	-757
aken	-758
selves	-759
ates	-760
▁called	-761
▁pur	-762
▁done	-763
▁better	-764
ully	-765
ross	-766
▁oh	-767
▁enough	-768
▁inde	-769
ps	-770
gether	-771
▁small	-772
▁cur	-773
ock	-774
▁ste	-775
▁beh	-776
▁tre	-777
▁col	-778
ense	-779
ised	-780
ying	-781
uth	-782
▁six	-783
▁whole	-784
▁ref	-785
▁sou	-786
ier	-787
ten	-788
▁seen	-789
▁read	-790
ween	-791
▁does	-792
▁pleas	-793
▁hour	-794
▁between	-795
▁both	-796
▁gave	-797
▁occ	-798
▁eight	-799
▁course	-800
ces	-801
▁toward	-802
▁turned	-803
▁ed	-804
▁add	-805
▁keep	-806
▁morn	-807
ular	-808
ank	-809
osed	-810
ute	-811
▁sim	-812
ndred	-813
▁high	-814
▁hundred	-815
▁almost	-816
▁sk	-817
▁inter	-818
▁ins	-819
▁wo	-820
▁beaut	-821
▁days	-822
aster	-823
▁sent	-824
▁sure	-825
ents	-826
▁country	-827
ating	-828
▁ev	-829
▁open	-830
▁however	-831
▁wi	-832
ows	-833
ung	-834
▁met	-835
▁lady	-836
ures	-837
▁fore	-838
▁land	-839
▁poor	-840
als	-841
▁morning	-842
xt	-843
▁best	-844
ained	-845
▁name	-846
▁until	-847
ale	-848
▁whom	-849
aring	-850
▁dear	-851
owed	-852
ned	-853
dden	-854
▁words	-855
▁stood	-856
bo	-857
▁cat	-858
aint	-859
▁sun	-860
▁white	-861
▁felt	-862
▁stand	-863
du	-864
▁prin	-865
▁fam	-866
▁use	-867
its	-868
▁power	-869
▁sle	-870
▁thir	-871
▁bus	-872
▁sudden	-873
ins	-874
rent	-875
▁law	-876
enty	-877
▁mean	-878
▁fact	-879
▁since	-880
▁lat	-881
haps	-882
up	-883
amp	-884
▁perhaps	-885
uck	-886
▁repl	-887
▁till	-888
ton	-889
▁dark	-890
▁mil	-891
▁ide	-892
ately	-893
▁less	-894
iet	-895
▁round	-896
▁contin	-897
ged	-898
▁bro	-899
▁myself	-900
▁vis	-901
▁underst	-902
not	-903
▁quest	-904
▁gre	-905
▁swe	-906
▁cond	-907
▁brought	-908
▁together	-909
▁aw	-910
▁need	-911
▁anything	-912
▁fin	-913
▁herself	-914
▁lay	-915
fully	-916
rib	-917
▁voice	-918
▁adv	-919
▁help	-920
▁present	-921
med	-922
▁large	-923
▁next	-924
nded	-925
lic	-926
▁indeed	-927
▁themselves	-928
eter	-929
cei	-930
▁par	-931
▁air	-932
ments	-933
▁person	-934
▁five	-935
▁ext	-936
▁point	-937
▁mor	-938
ities	-939
▁thus	-940
▁har	-941
▁matter	-942
▁others	-943
▁feet	-944
oc	-945
app	-946
iss	-947
ured	-948
▁spo	-949
akes	-950
▁full	-951
▁lord	-952
▁interest	-953
▁sy	-954
▁fall	-955
▁black	-956
▁ele	-957
▁opp	-958
▁es	-959
▁replied	-960
▁pol	-961
▁art	-962
▁cannot	-963
▁dire	-964
▁fire	-965
▁real	-966
▁along	-967
ene	-968
pr	-969
▁const	-970
▁looking	-971
ably	-972
▁doub	-973
▁nature	-974
▁adm	-975
▁doct	-976
ove	-977
▁rather	-978
▁children	-979
mb	-980
ield	-981
▁word	-982
▁speak	-983
▁taken	-984
▁rec	-985
ering	-986
tle	-987
▁wife	-988
oney	-989
▁bar	-990
ressed	-991
▁diffe	-992
▁cried	-993
uring	-994
▁thous	-995
▁thousand	-996
oun	-997
▁pat	-998
ention	-999
▁reason	-1000
▁twenty	-1001
▁bes	-1002
▁dep	-1003
▁hope	-1004
▁run	-1005
vel	-1006
▁sn	-1007
▁gent	-1008
itu	-1009
ash	-1010
▁earth	-1011
ants	-1012
▁death	-1013
▁unc	-1014
ison	-1015
▁bed	-1016
ached	-1017
vers	-1018
▁ma	-1019
▁horse	-1020
fort	-1021
▁therefore	-1022
▁whose	-1023
▁sing	-1024
▁fort	-1025
▁suff	-1026
▁gone	-1027
▁sound	-1028
▁wood	-1029
▁inv	-1030
▁true	-1031
▁spr	-1032
▁behind	-1033
ued	-1034
▁mount	-1035
▁bir	-1036
▁dec	-1037
▁body	-1038
ets	-1039
iting	-1040
▁talk	-1041
ains	-1042
▁close	-1043
▁state	-1044
▁red	-1045
me	-1046
▁hold	-1047
▁serv	-1048
ances	-1049
ided	-1050
cy	-1051
oud	-1052
ides	-1053
▁sea	-1054
▁mer	-1055
▁sec	-1056
▁prom	-1057
▁num	-1058
▁ground	-1059
od	-1060
fic	-1061
illed	-1062
▁dead	-1063
hen	-1064
ief	-1065
▁fif	-1066
▁gentle	-1067
▁cor	-1068
▁lau	-1069
▁chr	-1070
ery	-1071
▁hon	-1072
▁wonder	-1073
▁ir	-1074
▁fur	-1075
ually	-1076
▁alone	-1077
▁deep	-1078
▁compan	-1079
▁obs	-1080
▁often	-1081
ken	-1082
▁tem	-1083
cond	-1084
▁prop	-1085
▁believe	-1086
▁bur	-1087
▁remem	-1088
ceed	-1089
▁strong	-1090
▁passed	-1091
oy	-1092
ians	-1093
vern	-1094
▁given	-1095
ane	-1096
▁hur	-1097
ont	-1098
used	-1099
▁master	-1100
▁play	-1101
▁friends	-1102
wered	-1103
▁start	-1104
aces	-1105
▁ce	-1106
▁money	-1107
▁second	-1108
▁spir	-1109
gth	-1110
▁hear	-1111
osition	-1112
aced	-1113
▁doubt	-1114
ceived	-1115
▁leave	-1116
▁answered	-1117
▁ten	-1118
▁doctor	-1119
gr	-1120
▁fa	-1121
ider	-1122
▁cir	-1123
▁gold	-1124
ages	-1125
ific	-1126
anger	-1127
unt	-1128
▁ru	-1129
▁son	-1130
▁itself	-1131
▁pri	-1132
▁lear	-1133
wer	-1134
read	-1135
▁dri	-1136
▁eas	-1137
▁sign	-1138
▁fell	-1139
▁known	-1140
▁sch	-1141
▁wall	-1142
▁ra	-1143
men	-1144
▁city	-1145
ape	-1146
body	-1147
▁general	-1148
▁ill	-1149
▁short	-1150
idd	-1151
ution	-1152
▁abs	-1153
ident	-1154
▁order	-1155
▁used	-1156
▁expl	-1157
▁necess	-1158
▁pap	-1159
ines	-1160
▁brother	-1161
▁question	-1162
▁least	-1163
▁times	-1164
▁really	-1165
▁within	-1166
▁thou	-1167
▁town	-1168
▁dream	-1169
▁tri	-1170
vered	-1171
ys	-1172
▁ask	-1173
hip	-1174
▁aff	-1175
▁stre	-1176
▁above	-1177
iful	-1178
▁whether	-1179
▁mag	-1180
▁soci	-1181
ety	-1182
gn	-1183
▁dro	-1184
▁big	-1185
▁lad	-1186
▁sever	-1187
▁fair	-1188
▁understand	-1189
aughter	-1190
▁human	-1191
▁women	-1192
▁wish	-1193
▁either	-1194
▁means	-1195
▁wal	-1196
▁clear	-1197
▁river	-1198
▁leg	-1199
▁coming	-1200
owing	-1201
ote	-1202
▁list	-1203
aim	-1204
▁fear	-1205
ching	-1206
▁soul	-1207
▁lea	-1208
ready	-1209
▁circ	-1210
hn	-1211
▁already	-1212
▁mad	-1213
▁case	-1214
▁suddenly	-1215
▁prof	-1216
▁dem	-1217
▁expect	-1218
▁captain	-1219
cer	-1220
tered	-1221
▁meet	-1222
▁year	-1223
▁bring	-1224
lly	-1225
ott	-1226
▁john	-1227
▁during	-1228
iled	-1229
imes	-1230
▁bat	-1231
▁sort	-1232
▁mus	-1233
▁quick	-1234
ience	-1235
ger	-1236
▁obser	-1237
▁held	-1238
▁sight	-1239
▁reco	-1240
▁returned	-1241
▁lost	-1242
▁around	-1243
▁table	-1244
▁cal	-1245
▁ca	-1246
ister	-1247
be	-1248
▁pie	-1249
▁past	-1250
▁govern	-1251
ra	-1252
▁became	-1253
▁evening	-1254
▁several	-1255
ffect	-1256
▁hus	-1257
▁cut	-1258
ient	-1259
▁jud	-1260
▁sum	-1261
▁object	-1262
▁ran	-1263
▁anim	-1264
▁making	-1265
▁christ	-1266
▁sleep	-1267
old	-1268
▁cent	-1269
▁prov	-1270
iew	-1271
uc	-1272
▁exc	-1273
▁exist	-1274
▁charac	-1275
▁live	-1276
lish	-1277
▁pal	-1278
ility	-1279
▁squ	-1280
▁else	-1281
▁ship	-1282
ts	-1283
▁dev	-1284
▁equ	-1285
▁sal	-1286
▁effect	-1287
▁appro	-1288
▁everything	-1289
here	-1290
▁kept	-1291
▁corn	-1292
▁fre	-1293
▁rock	-1294
▁manner	-1295
llect	-1296
▁beautiful	-1297
▁become	-1298
▁est	-1299
eric	-1300
▁proper	-1301
oon	-1302
▁towards	-1303
cious	-1304
▁different	-1305
▁disc	-1306
▁exper	-1307
iam	-1308
▁possible	-1309
ublic	-1310
▁natur	-1311
ingly	-1312
▁step	-1313
▁hen	-1314
▁subject	-1315
▁lead	-1316
▁road	-1317
▁foot	-1318
▁wild	-1319
rence	-1320
▁diffic	-1321
▁bad	-1322
▁strange	-1323
▁business	-1324
teen	-1325
▁rose	-1326
▁comple	-1327
gy	-1328
▁mist	-1329
iously	-1330
▁truth	-1331
▁answer	-1332
▁appear	-1333
▁prince	-1334
▁arms	-1335
ah	-1336
lled	-1337
itted	-1338
▁sometimes	-1339
▁says	-1340
br	-1341
ative	-1342
▁cold	-1343
▁arri	-1344
▁grand	-1345
▁ready	-1346
ony	-1347
airs	-1348
▁disco	-1349
▁free	-1350
▁regard	-1351
▁family	-1352
bed	-1353
▁ut	-1354
▁fellow	-1355
▁fine	-1356
▁perfect	-1357
▁sto	-1358
▁div	-1359
▁cast	-1360
▁common	-1361
▁val	-1362
▁consider	-1363
▁accord	-1364
▁dest	-1365
▁low	-1366
▁idea	-1367
▁walk	-1368
band	-1369
▁bit	-1370
▁creat	-1371
▁mur	-1372
▁heav	-1373
▁direct	-1374
▁requ	-1375
▁pret	-1376
▁soft	-1377
▁win	-1378
▁cross	-1379
▁express	-1380
▁respect	-1381
▁pain	-1382
ught	-1383
▁won	-1384
tern	-1385
▁story	-1386
▁followed	-1387
▁mere	-1388
▁blood	-1389
▁eye	-1390
▁command	-1391
mer	-1392
▁husband	-1393
▁tou	-1394
ouble	-1395
▁fight	-1396
▁except	-1397
une	-1398
nding	-1399
▁succ	-1400
rie	-1401
ased	-1402
▁across	-1403
utes	-1404
▁partic	-1405
▁carried	-1406
▁letter	-1407
▁tom	-1408
▁able	-1409
▁rich	-1410
▁begin	-1411
▁quiet	-1412
ination	-1413
▁possess	-1414
ey	-1415
antly	-1416
▁spirit	-1417
ug	-1418
aven	-1419
empt	-1420
by	-1421
ices	-1422
▁character	-1423
to	-1424
▁excl	-1425
▁surpr	-1426
eth	-1427
ract	-1428
▁thy	-1429
▁slow	-1430
alth	-1431
▁show	-1432
ili	-1433
▁din	-1434
▁dog	-1435
itting	-1436
▁account	-1437
awn	-1438
▁reached	-1439
anged	-1440
▁sold	-1441
king	-1442
aged	-1443
ones	-1444
▁glad	-1445
▁americ	-1446
▁daughter	-1447
▁stri	-1448
▁school	-1449
▁happy	-1450
▁chur	-1451
▁produ	-1452
ches	-1453
▁hair	-1454
isf	-1455
▁sens	-1456
▁sus	-1457
ots	-1458
▁def	-1459
▁var	-1460
▁gard	-1461
▁ann	-1462
▁vir	-1463
▁tree	-1464
▁forg	-1465
▁flo	-1466
▁draw	-1467
▁import	-1468
umb	-1469
▁success	-1470
▁wee	-1471
▁view	-1472
▁occas	-1473
▁number	-1474
itude	-1475
▁longer	-1476
ump	-1477
▁sor	-1478
▁purp	-1479
▁fav	-1480
▁break	-1481
use	-1482
▁saying	-1483
ards	-1484
▁bright	-1485
▁scar	-1486
▁eat	-1487
▁esc	-1488
▁exam	-1489
▁dut	-1490
▁sense	-1491
▁heaven	-1492
gin	-1493
▁hill	-1494
▁trans	-1495
ality	-1496
ert	-1497
ising	-1498
▁taking	-1499
▁sho	-1500
▁window	-1501
▁sevent	-1502
▁english	-1503
▁pen	-1504
▁imag	-1505
▁public	-1506
▁sweet	-1507
▁suppose	-1508
▁appeared	-1509
▁green	-1510
▁didn	-1511
▁shad	-1512
▁continued	-1513
ms	-1514
ask	-1515
▁hast	-1516
▁eff	-1517
▁port	-1518
▁later	-1519
▁prot	-1520
son	-1521
▁thee	-1522
▁ap	-1523
owers	-1524
cul	-1525
▁rus	-1526
▁month	-1527
ster	-1528
▁ought	-1529
▁danger	-1530
▁mot	-1531
▁decl	-1532
▁prob	-1533
ames	-1534
▁disp	-1535
▁prep	-1536
ric	-1537
▁carry	-1538
▁spoke	-1539
▁seven	-1540
ury	-1541
▁princi	-1542
▁cry	-1543
▁stay	-1544
▁ve	-1545
▁move	-1546
▁satisf	-1547
▁hung	-1548
▁hours	-1549
▁opened	-1550
ime	-1551
▁self	-1552
ley	-1553
medi	-1554
▁sol	-1555
ledge	-1556
amed	-1557
▁ord	-1558
▁tor	-1559
▁len	-1560
ann	-1561
▁seems	-1562
▁field	-1563
▁party	-1564
▁hot	-1565
▁worth	-1566
▁remember	-1567
idence	-1568
▁offic	-1569
li	-1570
▁dress	-1571
▁quar	-1572
▁delight	-1573
▁fail	-1574
▁church	-1575
ats	-1576
inct	-1577
▁smo	-1578
bit	-1579
▁tried	-1580
▁pretty	-1581
▁secret	-1582
▁wanted	-1583
▁cause	-1584
▁ge	-1585
ney	-1586
▁none	-1587
▁certainly	-1588
outh	-1589
▁fast	-1590
▁breat	-1591
▁received	-1592
ism	-1593
▁immedi	-1594
uct	-1595
lect	-1596
▁sad	-1597
▁lived	-1598
▁led	-1599
ead	-1600
▁ga	-1601
▁book	-1602
▁early	-1603
ov	-1604
▁vi	-1605
ror	-1606
▁pray	-1607
▁pract	-1608
▁neither	-1609
▁eighteen	-1610
▁blue	-1611
▁clot	-1612
▁bene	-1613
▁neigh	-1614
▁particular	-1615
▁bey	-1616
▁beyond	-1617
▁knight	-1618
ilt	-1619
side	-1620
▁further	-1621
▁alth	-1622
resh	-1623
▁disapp	-1624
▁neighb	-1625
▁forward	-1626
▁stud	-1627
▁street	-1628
▁although	-1629
▁entire	-1630
day	-1631
▁med	-1632
▁front	-1633
▁age	-1634
▁bab	-1635
▁det	-1636
▁phil	-1637
▁fig	-1638
▁acqu	-1639
▁pay	-1640
riage	-1641
▁wis	-1642
▁garden	-1643
▁feeling	-1644
▁forth	-1645
▁miles	-1646
▁living	-1647
▁entered	-1648
og	-1649
▁fren	-1650
▁repe	-1651
arent	-1652
▁stra	-1653
▁line	-1654
▁nearly	-1655
▁cre	-1656
▁change	-1657
▁pleasure	-1658
ls	-1659
ern	-1660
▁super	-1661
▁government	-1662
aimed	-1663
▁concer	-1664
▁court	-1665
▁pa	-1666
▁chief	-1667
▁accom	-1668
the	-1669
▁hall	-1670
▁laid	-1671
▁minutes	-1672
▁trave	-1673
▁visit	-1674
▁maj	-1675
ously	-1676
▁plan	-1677
ues	-1678
▁ang	-1679
▁plain	-1680
iter	-1681
▁heavy	-1682
pend	-1683
▁try	-1684
▁camp	-1685
▁enem	-1686
▁stren	-1687
▁mem	-1688
inted	-1689
▁laugh	-1690
inary	-1691
▁necessary	-1692
▁lab	-1693
▁desp	-1694
▁build	-1695
▁natural	-1696
▁hist	-1697
▁purpose	-1698
ists	-1699
ement	-1700
▁occasion	-1701
anced	-1702
▁island	-1703
pper	-1704
cient	-1705
▁walked	-1706
▁happened	-1707
▁princess	-1708
ustom	-1709
▁comfort	-1710
▁doing	-1711
▁peace	-1712
mon	-1713
iment	-1714
▁auth	-1715
▁mill	-1716
wards	-1717
▁aunt	-1718
▁whis	-1719
▁main	-1720
▁deal	-1721
▁thirty	-1722
▁opin	-1723
iff	-1724
ler	-1725
ounded	-1726
▁deter	-1727
▁tal	-1728
▁circum	-1729
oof	-1730
uff	-1731
form	-1732
lling	-1733
▁faith	-1734
ening	-1735
▁news	-1736
▁pict	-1737
▁attention	-1738
ior	-1739
▁rev	-1740
▁top	-1741
▁mouth	-1742
▁fing	-1743
where	-1744
▁french	-1745
▁late	-1746
▁force	-1747
els	-1748
▁hat	-1749
▁joy	-1750
ented	-1751
atic	-1752
▁trees	-1753
▁av	-1754
▁la	-1755
▁bell	-1756
▁lim	-1757
▁burn	-1758
▁seeing	-1759
▁sister	-1760
▁queen	-1761
▁added	-1762
▁instead	-1763
wh	-1764
▁den	-1765
▁crow	-1766
▁remain	-1767
▁er	-1768
▁lu	-1769
▁wit	-1770
▁caught	-1771
▁determ	-1772
▁knowledge	-1773
iling	-1774
▁army	-1775
▁chap	-1776
▁north	-1777
▁vill	-1778
▁fifty	-1779
▁arr	-1780
▁class	-1781
▁length	-1782
▁contr	-1783
▁gentleman	-1784
▁drew	-1785
hood	-1786
▁bill	-1787
▁desc	-1788
▁south	-1789
▁trouble	-1790
▁born	-1791
▁food	-1792
io	-1793
▁du	-1794
▁grew	-1795
▁thinking	-1796
▁following	-1797
▁uncle	-1798
▁attempt	-1799
▁thoughts	-1800
▁deg	-1801
▁terri	-1802
▁afr	-1803
icked	-1804
▁silence	-1805
▁prison	-1806
▁standing	-1807
ooks	-1808
▁enc	-1809
▁scr	-1810
ming	-1811
▁ago	-1812
▁beauty	-1813
cho	-1814
▁saint	-1815
▁forest	-1816
ives	-1817
▁shar	-1818
usion	-1819
▁grow	-1820
▁england	-1821
▁stopped	-1822
▁stone	-1823
▁afraid	-1824
ply	-1825
▁whate	-1826
▁chance	-1827
▁anx	-1828
▁states	-1829
▁straight	-1830
iced	-1831
ining	-1832
▁whatever	-1833
aded	-1834
rupt	-1835
▁conv	-1836
fered	-1837
▁company	-1838
▁lie	-1839
ested	-1840
ift	-1841
▁fle	-1842
▁spring	-1843
yr	-1844
▁infl	-1845
itions	-1846
▁thick	-1847
▁bear	-1848
bert	-1849
tained	-1850
▁author	-1851
▁besides	-1852
▁position	-1853
▁hig	-1854
▁rom	-1855
▁mary	-1856
▁scarce	-1857
▁complete	-1858
ush	-1859
▁eag	-1860
▁paper	-1861
▁distance	-1862
▁makes	-1863
ases	-1864
▁rap	-1865
▁mine	-1866
▁nar	-1867
sequ	-1868
▁pull	-1869
ceive	-1870
▁incl	-1871
▁yourself	-1872
▁watch	-1873
▁hardly	-1874
▁circumst	-1875
▁gar	-1876
orses	-1877
▁nin	-1878
▁rid	-1879
▁dinner	-1880
▁society	-1881
▁glass	-1882
▁third	-1883
str	-1884
▁boys	-1885
▁smile	-1886
▁ball	-1887
▁accept	-1888
▁result	-1889
▁exclaimed	-1890
▁priv	-1891
▁slowly	-1892
asp	-1893
▁fat	-1894
▁hop	-1895
▁vict	-1896
▁desire	-1897
▁horses	-1898
gan	-1899
▁profess	-1900
▁polit	-1901
▁imposs	-1902
▁treat	-1903
▁meant	-1904
▁difficult	-1905
gress	-1906
▁save	-1907
▁exact	-1908
▁slight	-1909
ored	-1910
▁died	-1911
▁depart	-1912
jo	-1913
▁moon	-1914
▁sand	-1915
▁palace	-1916
aching	-1917
▁da	-1918
ging	-1919
▁rob	-1920
▁loved	-1921
ivid	-1922
▁und	-1923
▁wait	-1924
▁placed	-1925
▁jour	-1926
▁post	-1927
▁wrong	-1928
▁broken	-1929
ences	-1930
▁conn	-1931
▁effort	-1932
dom	-1933
▁gun	-1934
▁immediately	-1935
ixed	-1936
▁inqu	-1937
▁brown	-1938
▁piece	-1939
▁inform	-1940
▁inn	-1941
▁girls	-1942
ghed	-1943
▁bird	-1944
▁easy	-1945
▁nine	-1946
▁wide	-1947
▁lang	-1948
▁grave	-1949
ges	-1950
▁box	-1951
▁coun	-1952
▁warm	-1953
▁belong	-1954
▁convers	-1955
▁quickly	-1956
▁strength	-1957
isted	-1958
▁sugg	-1959
▁chair	-1960
▁resol	-1961
▁filled	-1962
▁imm	-1963
acy	-1964
ugg	-1965
▁evil	-1966
▁relig	-1967
▁ah	-1968
▁action	-1969
▁id	-1970
▁meas	-1971
ively	-1972
▁comes	-1973
▁send	-1974
ically	-1975
uit	-1976
▁ant	-1977
▁single	-1978
▁getting	-1979
▁obl	-1980
▁beat	-1981
▁incre	-1982
ork	-1983
▁je	-1984
head	-1985
ries	-1986
▁fool	-1987
▁bound	-1988
▁beside	-1989
▁ori	-1990
▁van	-1991
▁maid	-1992
▁west	-1993
cially	-1994
ics	-1995
▁ver	-1996
oured	-1997
▁viol	-1998
▁commun	-1999
▁remained	-2000
▁mid	-2001
▁compl	-2002
▁music	-2003
▁sitting	-2004
ires	-2005
▁impossible	-2006
ancy	-2007
aped	-2008
▁die	-2009
▁opinion	-2010
▁ger	-2011
iddle	-2012
iers	-2013
▁guard	-2014
ories	-2015
▁waiting	-2016
▁probably	-2017
ny	-2018
ency	-2019
pping	-2020
▁dread	-2021
▁fright	-2022
▁struck	-2023
ified	-2024
▁suffic	-2025
▁greater	-2026
▁started	-2027
▁sac	-2028
itten	-2029
▁boat	-2030
▁hunt	-2031
▁lips	-2032
▁aftern	-2033
▁according	-2034
▁concl	-2035
▁drink	-2036
▁forgot	-2037
▁simple	-2038
▁proceed	-2039
▁mass	-2040
▁crowd	-2041
tend	-2042
▁tears	-2043
▁thank	-2044
▁pop	-2045
▁doll	-2046
▁sav	-2047
▁weak	-2048
bs	-2049
▁pun	-2050
▁arrived	-2051
gar	-2052
ope	-2053
val	-2054
▁event	-2055
▁demand	-2056
ald	-2057
ech	-2058
par	-2059
▁gall	-2060
▁lift	-2061
▁mess	-2062
▁laughed	-2063
▁youth	-2064
arch	-2065
▁duty	-2066
▁floor	-2067
▁books	-2068
▁peter	-2069
▁subst	-2070
uel	-2071
▁battle	-2072
reme	-2073
▁latter	-2074
▁please	-2075
▁outside	-2076
und	-2077
▁former	-2078
uss	-2079
▁fash	-2080
▁mark	-2081
▁wise	-2082
▁fresh	-2083
▁mountain	-2084
ius	-2085
▁sky	-2086
▁afternoon	-2087
▁fly	-2088
▁clothes	-2089
▁speaking	-2090
let	-2091
▁loc	-2092
▁tone	-2093
▁experience	-2094
joy	-2095
▁forget	-2096
ston	-2097
▁exh	-2098
dered	-2099
▁espe	-2100
▁safe	-2101
▁sail	-2102
▁stop	-2103
ma	-2104
▁week	-2105
▁consequ	-2106
cial	-2107
ises	-2108
▁below	-2109
▁spec	-2110
▁langu	-2111
▁remark	-2112
▁chapter	-2113
amb	-2114
arer	-2115
ship	-2116
▁cho	-2117
▁history	-2118
▁mention	-2119
▁star	-2120
▁usual	-2121
▁une	-2122
erv	-2123
bar	-2124
yal	-2125
hered	-2126
▁neck	-2127
▁spot	-2128
▁conscious	-2129
▁coll	-2130
▁forty	-2131
▁learned	-2132
▁anne	-2133
▁repres	-2134
▁fut	-2135
▁oper	-2136
▁shut	-2137
▁corner	-2138
ital	-2139
▁fun	-2140
▁influ	-2141
▁fashion	-2142
ell	-2143
▁mel	-2144
▁jack	-2145
▁path	-2146
▁butter	-2147
▁giving	-2148
▁months	-2149
▁presence	-2150
▁trust	-2151
▁merely	-2152
▁purs	-2153
▁morrow	-2154
▁service	-2155
▁sla	-2156
▁expected	-2157
▁iron	-2158
▁occur	-2159
▁stream	-2160
▁train	-2161
▁cab	-2162
▁scarcely	-2163
ests	-2164
▁game	-2165
▁showed	-2166
▁tender	-2167
▁appearance	-2168
aled	-2169
ndon	-2170
vere	-2171
orted	-2172
▁grace	-2173
itation	-2174
▁nation	-2175
▁winter	-2176
▁leaving	-2177
▁running	-2178
ounds	-2179
▁beast	-2180
▁bread	-2181
▁eager	-2182
▁couldn	-2183
▁ladies	-2184
▁recogn	-2185
mn	-2186
▁kill	-2187
tended	-2188
▁becom	-2189
▁liber	-2190
▁flowers	-2191
wise	-2192
▁easily	-2193
▁talking	-2194
▁magn	-2195
▁rapid	-2196
elve	-2197
▁perm	-2198
▁sick	-2199
▁knows	-2200
▁occup	-2201
▁breath	-2202
▁twelve	-2203
▁direction	-2204
▁especially	-2205
▁london	-2206
▁entirely	-2207
itch	-2208
ature	-2209
▁stir	-2210
▁condition	-2211
onel	-2212
▁neg	-2213
ipped	-2214
▁bank	-2215
▁pock	-2216
▁shout	-2217
▁wished	-2218
ee	-2219
pic	-2220
ulty	-2221
▁sym	-2222
▁cand	-2223
▁tur	-2224
ivers	-2225
▁origin	-2226
▁fal	-2227
▁suc	-2228
▁board	-2229
▁shore	-2230
▁raised	-2231
▁finally	-2232
fer	-2233
▁snow	-2234
▁virt	-2235
▁marg	-2236
fection	-2237
▁moved	-2238
▁killed	-2239
▁individ	-2240
▁tea	-2241
▁bott	-2242
▁situ	-2243
idered	-2244
ishing	-2245
▁enjoy	-2246
▁beginning	-2247
llig	-2248
ples	-2249
▁geor	-2250
▁persons	-2251
istr	-2252
▁clim	-2253
▁important	-2254
▁cou	-2255
▁changed	-2256
▁turning	-2257
ibly	-2258
▁pet	-2259
▁frequ	-2260
▁escape	-2261
well	-2262
▁gro	-2263
▁tast	-2264
▁closed	-2265
▁office	-2266
▁existence	-2267
velop	-2268
▁animal	-2269
▁fortune	-2270
▁hy	-2271
▁golden	-2272
▁conduct	-2273
▁pleasant	-2274
oom	-2275
▁arg	-2276
▁lives	-2277
▁furn	-2278
▁places	-2279
▁instant	-2280
ax	-2281
uous	-2282
ushed	-2283
▁shot	-2284
▁allowed	-2285
▁succeed	-2286
▁individual	-2287
▁conversation	-2288
uted	-2289
▁sei	-2290
▁figure	-2291
▁connect	-2292
▁afterwards	-2293
▁expression	-2294
inite	-2295
▁reach	-2296
▁custom	-2297
▁minute	-2298
▁elect	-2299
▁middle	-2300
▁opport	-2301
▁covered	-2302
ruct	-2303
ument	-2304
▁write	-2305
▁married	-2306
▁pot	-2307
▁silent	-2308
▁animals	-2309
▁happiness	-2310
▁understood	-2311
ume	-2312
▁cup	-2313
pered	-2314
▁enemy	-2315
▁prevent	-2316
ham	-2317
unk	-2318
ript	-2319
iding	-2320
olute	-2321
▁blind	-2322
▁social	-2323
rief	-2324
▁fish	-2325
▁civ	-2326
osing	-2327
▁oblig	-2328
▁utter	-2329
▁silver	-2330
▁trying	-2331
▁wouldn	-2332
▁isn	-2333
cience	-2334
▁enter	-2335
roy	-2336
cell	-2337
▁ban	-2338
▁mal	-2339
▁sit	-2340
ament	-2341
▁ears	-2342
▁grant	-2343
▁simply	-2344
▁speech	-2345
▁unless	-2346
▁written	-2347
fast	-2348
▁vol	-2349
▁decided	-2350
▁terrible	-2351
bered	-2352
▁empl	-2353
▁sole	-2354
▁ideas	-2355
▁sharp	-2356
aret	-2357
▁revol	-2358
▁ham	-2359
ouses	-2360
▁phys	-2361
▁deser	-2362
▁journey	-2363
▁observed	-2364
▁circumstances	-2365
eness	-2366
▁pros	-2367
▁rain	-2368
▁opportun	-2369
▁perfectly	-2370
▁wonderful	-2371
oop	-2372
rodu	-2373
▁tall	-2374
▁delic	-2375
kes	-2376
▁dim	-2377
▁sett	-2378
▁threw	-2379
▁shadow	-2380
▁strugg	-2381
▁ancient	-2382
itc	-2383
enth	-2384
orth	-2385
▁prev	-2386
▁spread	-2387
▁surprise	-2388
urs	-2389
▁defe	-2390
▁flat	-2391
▁estab	-2392
▁learn	-2393
▁separ	-2394
▁intellig	-2395
oses	-2396
ours	-2397
ision	-2398
▁impress	-2399
▁legs	-2400
▁broad	-2401
▁constit	-2402
▁intellect	-2403
▁discovered	-2404
osp	-2405
semb	-2406
▁guess	-2407
▁sword	-2408
▁dom	-2409
▁jew	-2410
▁baby	-2411
▁earn	-2412
▁future	-2413
▁american	-2414
▁dam	-2415
iod	-2416
come	-2417
light	-2418
▁birds	-2419
▁president	-2420
▁ign	-2421
▁san	-2422
erial	-2423
▁shook	-2424
▁repeated	-2425
▁lying	-2426
▁reply	-2427
▁spite	-2428
▁assist	-2429
▁colonel	-2430
▁absolute	-2431
rect	-2432
▁fit	-2433
▁stick	-2434
▁employ	-2435
▁passing	-2436
▁protect	-2437
aph	-2438
iti	-2439
▁ves	-2440
▁resp	-2441
af	-2442
hel	-2443
ator	-2444
▁mir	-2445
▁exer	-2446
▁note	-2447
▁moder	-2448
▁walls	-2449
▁beneath	-2450
▁dar	-2451
▁inj	-2452
▁firm	-2453
▁lean	-2454
▁bitter	-2455
▁ben	-2456
▁mut	-2457
▁surf	-2458
▁cover	-2459
▁bottom	-2460
▁narrow	-2461
▁bod	-2462
▁bow	-2463
▁ine	-2464
▁pale	-2465
▁wand	-2466
▁temper	-2467
▁egg	-2468
▁laws	-2469
▁presently	-2470
ec	-2471
▁ur	-2472
umed	-2473
ission	-2474
▁major	-2475
▁royal	-2476
▁creature	-2477
▁si	-2478
oved	-2479
▁built	-2480
▁parts	-2481
▁period	-2482
▁rub	-2483
ables	-2484
▁vall	-2485
▁admir	-2486
ails	-2487
▁bag	-2488
anging	-2489
▁considered	-2490
▁determined	-2491
iar	-2492
▁mach	-2493
erable	-2494
▁broke	-2495
▁steps	-2496
▁wrote	-2497
▁leaves	-2498
▁yellow	-2499
▁dropped	-2500
▁kiss	-2501
▁conce	-2502
▁develop	-2503
itary	-2504
▁heads	-2505
▁formed	-2506
ils	-2507
▁grass	-2508
▁judge	-2509
▁motion	-2510
▁surely	-2511
▁attack	-2512
▁greatest	-2513
▁educ	-2514
▁gate	-2515
▁space	-2516
▁united	-2517
▁perform	-2518
▁darkness	-2519
que	-2520
idden	-2521
▁bless	-2522
ishment	-2523
▁german	-2524
▁lot	-2525
▁lou	-2526
▁paid	-2527
▁song	-2528
▁habit	-2529
▁castle	-2530
ayed	-2531
clock	-2532
▁cost	-2533
▁thor	-2534
▁season	-2535
▁various	-2536
itable	-2537
▁listen	-2538
▁fifteen	-2539
sy	-2540
▁fol	-2541
under	-2542
▁empt	-2543
▁excell	-2544
ocr	-2545
acked	-2546
▁allow	-2547
▁drawn	-2548
▁serve	-2549
ference	-2550
▁degree	-2551
▁sorrow	-2552
▁disappe	-2553
▁exactly	-2554
rer	-2555
ingu	-2556
▁goes	-2557
▁harm	-2558
▁ways	-2559
▁summer	-2560
ral	-2561
▁ty	-2562
▁lin	-2563
▁calm	-2564
▁drag	-2565
▁nice	-2566
▁ring	-2567
▁press	-2568
▁health	-2569
▁houses	-2570
▁notice	-2571
het	-2572
▁agre	-2573
▁meth	-2574
▁jul	-2575
▁impro	-2576
▁likely	-2577
pet	-2578
what	-2579
▁contro	-2580
▁dressed	-2581
nday	-2582
▁cook	-2583
▁host	-2584
▁cheer	-2585
▁noble	-2586
▁somewhat	-2587
▁remembered	-2588
ague	-2589
ring	-2590
▁dry	-2591
▁pan	-2592
▁brid	-2593
▁loud	-2594
▁mort	-2595
▁wealth	-2596
▁apparent	-2597
▁carefully	-2598
▁comb	-2599
▁race	-2600
▁advent	-2601
▁promise	-2602
▁william	-2603
sh	-2604
key	-2605
osop	-2606
iction	-2607
▁touch	-2608
▁advant	-2609
▁believed	-2610
▁influence	-2611
▁difficulty	-2612
cise	-2613
action	-2614
▁greatly	-2615
▁ash	-2616
▁apart	-2617
▁marry	-2618
▁weather	-2619
▁marriage	-2620
wood	-2621
▁dick	-2622
▁fixed	-2623
▁speed	-2624
▁drawing	-2625
▁tired	-2626
▁holding	-2627
iety	-2628
ilar	-2629
▁pick	-2630
▁agree	-2631
▁scene	-2632
▁passion	-2633
pan	-2634
ites	-2635
lend	-2636
▁hes	-2637
▁faint	-2638
retched	-2639
▁pleased	-2640
osite	-2641
▁clean	-2642
▁vessel	-2643
▁surface	-2644
ob	-2645
▁sin	-2646
▁distinct	-2647
▁breakfast	-2648
oes	-2649
rel	-2650
uded	-2651
▁seat	-2652
▁aston	-2653
▁imper	-2654
▁mod	-2655
▁ven	-2656
▁alto	-2657
▁ange	-2658
▁grown	-2659
▁sorry	-2660
▁mountains	-2661
▁eli	-2662
▁gray	-2663
tering	-2664
▁pieces	-2665
▁extreme	-2666
▁introdu	-2667
▁letters	-2668
▁watched	-2669
▁philosop	-2670
▁property	-2671
▁altogether	-2672
cing	-2673
oted	-2674
▁lake	-2675
▁swift	-2676
▁ourselves	-2677
my	-2678
na	-2679
oned	-2680
▁york	-2681
▁desce	-2682
▁splend	-2683
▁pi	-2684
ashed	-2685
▁affect	-2686
▁honest	-2687
▁madame	-2688
▁meaning	-2689
▁avo	-2690
▁vent	-2691
▁honour	-2692
▁describ	-2693
▁bal	-2694
▁east	-2695
▁waited	-2696
▁fingers	-2697
▁distingu	-2698
▁wear	-2699
▁lower	-2700
▁finished	-2701
ture	-2702
▁pure	-2703
▁tong	-2704
▁vast	-2705
▁wond	-2706
▁equal	-2707
▁declared	-2708
▁soldiers	-2709
▁jane	-2710
▁opposite	-2711
▁stranger	-2712
▁opportunity	-2713
▁inh	-2714
▁stro	-2715
▁henry	-2716
▁remar	-2717
▁troub	-2718
▁reading	-2719
▁margaret	-2720
▁grou	-2721
iently	-2722
▁burst	-2723
▁favor	-2724
▁village	-2725
iny	-2726
aked	-2727
cent	-2728
stem	-2729
▁poet	-2730
▁noise	-2731
▁personal	-2732
▁unk	-2733
▁thin	-2734
▁honor	-2735
▁lines	-2736
▁nobody	-2737
▁noticed	-2738
▁destroy	-2739
▁usually	-2740
▁language	-2741
ium	-2742
▁aut	-2743
▁spent	-2744
▁worse	-2745
▁sufficient	-2746
hest	-2747
▁sen	-2748
▁evid	-2749
▁tail	-2750
▁shape	-2751
▁france	-2752
▁picture	-2753
▁material	-2754
ina	-2755
nown	-2756
▁bas	-2757
▁touched	-2758
▁george	-2759
▁knowing	-2760
▁everybody	-2761
▁ju	-2762
▁ones	-2763
▁collect	-2764
▁generally	-2765
aff	-2766
itive	-2767
▁chee	-2768
▁pocket	-2769
▁system	-2770
▁confess	-2771
▁process	-2772
▁reflect	-2773
▁situation	-2774
▁ess	-2775
▁cous	-2776
▁edge	-2777
▁heat	-2778
▁sides	-2779
isters	-2780
▁courage	-2781
▁ordinary	-2782
aly	-2783
ancing	-2784
▁freed	-2785
▁hence	-2786
▁plant	-2787
▁value	-2788
▁wel	-2789
▁store	-2790
▁favour	-2791
▁inside	-2792
▁christian	-2793
▁forgotten	-2794
hens	-2795
chant	-2796
▁false	-2797
▁kingdom	-2798
▁feelings	-2799
▁loss	-2800
▁rail	-2801
▁thro	-2802
▁paris	-2803
▁pecul	-2804
▁valley	-2805
▁finding	-2806
▁whispered	-2807
acing	-2808
osity	-2809
▁fill	-2810
▁salt	-2811
▁vain	-2812
▁hills	-2813
▁storm	-2814
▁earnest	-2815
▁peculiar	-2816
uce	-2817
▁shr	-2818
▁brit	-2819
▁fate	-2820
▁rise	-2821
▁lose	-2822
▁nose	-2823
▁charge	-2824
▁building	-2825
uses	-2826
acher	-2827
▁coat	-2828
▁dare	-2829
▁kitc	-2830
▁smiled	-2831
▁private	-2832
▁difference	-2833
oose	-2834
imate	-2835
▁exec	-2836
▁fond	-2837
▁cruel	-2838
▁supposed	-2839
otion	-2840
▁murm	-2841
▁angry	-2842
▁looks	-2843
▁pride	-2844
athered	-2845
▁seventeen	-2846
ky	-2847
bur	-2848
like	-2849
▁dav	-2850
▁eur	-2851
▁bent	-2852
▁dism	-2853
▁surr	-2854
▁depend	-2855
▁higher	-2856
▁similar	-2857
▁shoulder	-2858
▁surprised	-2859
eds	-2860
▁fer	-2861
▁rul	-2862
▁dust	-2863
▁gods	-2864
▁hide	-2865
▁sake	-2866
▁appre	-2867
▁brave	-2868
▁taste	-2869
▁obliged	-2870
mond	-2871
▁amb	-2872
▁ing	-2873
▁mart	-2874
▁rode	-2875
▁reali	-2876
▁fallen	-2877
▁square	-2878
▁serious	-2879
▁settled	-2880
▁jim	-2881
▁wil	-2882
arily	-2883
▁bare	-2884
▁treas	-2885
▁offered	-2886
irt	-2887
amber	-2888
▁dollars	-2889
▁quarter	-2890
▁regular	-2891
▁carriage	-2892
▁questions	-2893
bing	-2894
▁mam	-2895
▁pra	-2896
▁grat	-2897
▁anxious	-2898
mit	-2899
▁eld	-2900
▁diam	-2901
▁fier	-2902
▁europe	-2903
ays	-2904
oint	-2905
lished	-2906
▁empty	-2907
▁proud	-2908
▁rocks	-2909
▁principle	-2910
ergy	-2911
enced	-2912
▁grad	-2913
father	-2914
▁color	-2915
▁quietly	-2916
▁walking	-2917
▁contrary	-2918
▁companion	-2919
rid	-2920
▁forced	-2921
▁america	-2922
▁ordered	-2923
ipp	-2924
lls	-2925
▁gh	-2926
ding	-2927
▁due	-2928
arest	-2929
▁plat	-2930
ulation	-2931
▁prepared	-2932
▁band	-2933
▁cloud	-2934
▁organ	-2935
▁caused	-2936
▁worked	-2937
▁attract	-2938
▁species	-2939
rit	-2940
iant	-2941
▁jump	-2942
▁offer	-2943
▁sixty	-2944
▁spoken	-2945
▁kitchen	-2946
▁streets	-2947
▁instance	-2948
▁gentlemen	-2949
con	-2950
ners	-2951
▁ali	-2952
▁ice	-2953
▁por	-2954
▁symp	-2955
pected	-2956
▁extra	-2957
▁woods	-2958
▁accompl	-2959
▁curious	-2960
▁matters	-2961
▁windows	-2962
▁accompan	-2963
▁authority	-2964
▁trib	-2965
▁wasn	-2966
▁proved	-2967
▁stones	-2968
▁thrown	-2969
▁affection	-2970
▁shoulders	-2971
over	-2972
▁kne	-2973
▁unf	-2974
icated	-2975
ointed	-2976
▁fortun	-2977
▁glance	-2978
▁liberty	-2979
▁servant	-2980
▁seventy	-2981
ify	-2982
▁skin	-2983
▁magic	-2984
ruction	-2985
▁invent	-2986
▁represent	-2987
▁di	-2988
nes	-2989
ille	-2990
ishop	-2991
▁ignor	-2992
▁discuss	-2993
▁evidently	-2994
how	-2995
▁arch	-2996
▁rejo	-2997
ounced	-2998
▁suffer	-2999
▁univers	-3000
▁officers	-3001
apped	-3002
iliar	-3003
▁pack	-3004
▁reck	-3005
▁reve	-3006
▁seek	-3007
▁trad	-3008
▁cases	-3009
▁prove	-3010
▁justice	-3011
▁opening	-3012
▁brothers	-3013
▁listened	-3014
▁ep	-3015
ibility	-3016
▁memory	-3017
leep	-3018
▁works	-3019
▁asleep	-3020
▁cra	-3021
▁unh	-3022
▁tremb	-3023
▁record	-3024
▁writing	-3025
eder	-3026
soci	-3027
▁ris	-3028
▁alar	-3029
▁bold	-3030
▁hurt	-3031
▁milk	-3032
▁faces	-3033
▁liked	-3034
▁threat	-3035
▁political	-3036
yn	-3037
▁deb	-3038
▁uns	-3039
▁test	-3040
▁sacri	-3041
▁special	-3042
▁progress	-3043
ron	-3044
eping	-3045
▁wine	-3046
vation	-3047
▁fancy	-3048
▁flour	-3049
▁growing	-3050
▁hearing	-3051
▁imagine	-3052
▁measure	-3053
▁thorough	-3054
cil	-3055
▁hom	-3056
▁bask	-3057
▁citi	-3058
▁farm	-3059
▁crown	-3060
▁twice	-3061
▁gathered	-3062
▁duke	-3063
▁alive	-3064
▁inhab	-3065
▁union	-3066
▁amount	-3067
▁lifted	-3068
▁example	-3069
▁watching	-3070
bers	-3071
antic	-3072
▁artic	-3073
▁failed	-3074
▁rising	-3075
▁chamber	-3076
▁receive	-3077
▁recogni	-3078
▁produced	-3079
▁promised	-3080
vey	-3081
▁hol	-3082
onsie	-3083
▁blow	-3084
▁parl	-3085
▁emper	-3086
▁ninet	-3087
▁weeks	-3088
▁happen	-3089
▁pulled	-3090
▁directly	-3091
▁fem	-3092
▁grey	-3093
▁luck	-3094
▁rate	-3095
▁study	-3096
▁bodies	-3097
▁distur	-3098
▁flower	-3099
▁orders	-3100
▁content	-3101
▁explain	-3102
▁putting	-3103
▁religion	-3104
▁interrupt	-3105
unch	-3106
▁breast	-3107
▁tongue	-3108
▁unknown	-3109
▁discover	-3110
uls	-3111
▁ber	-3112
▁wed	-3113
▁entr	-3114
fortun	-3115
▁fault	-3116
▁march	-3117
▁named	-3118
▁height	-3119
go	-3120
▁shoot	-3121
▁design	-3122
▁mighty	-3123
▁forms	-3124
▁rough	-3125
▁support	-3126
▁carrying	-3127
ik	-3128
cher	-3129
▁stock	-3130
▁associ	-3131
▁supper	-3132
▁meeting	-3133
▁cow	-3134
▁aside	-3135
▁takes	-3136
▁cott	-3137
▁gree	-3138
▁persu	-3139
▁nearer	-3140
▁working	-3141
▁substance	-3142
▁jes	-3143
▁bull	-3144
▁catch	-3145
▁coast	-3146
▁labor	-3147
▁stars	-3148
▁terms	-3149
▁freedom	-3150
▁hurried	-3151
▁dur	-3152
▁pin	-3153
▁paul	-3154
▁doesn	-3155
▁innoc	-3156
▁indian	-3157
▁weight	-3158
dle	-3159
▁ow	-3160
▁tit	-3161
▁pity	-3162
▁aware	-3163
▁steam	-3164
▁stairs	-3165
▁engaged	-3166
▁interesting	-3167
erous	-3168
▁drive	-3169
▁trail	-3170
▁interp	-3171
▁sunday	-3172
▁affairs	-3173
▁arrange	-3174
▁laughing	-3175
▁naturally	-3176
aries	-3177
▁ende	-3178
▁memb	-3179
ortion	-3180
▁keeping	-3181
▁suggest	-3182
▁servants	-3183
▁satisfied	-3184
ford	-3185
▁mas	-3186
▁unto	-3187
▁hurry	-3188
▁names	-3189
▁slaves	-3190
▁solemn	-3191
▁moments	-3192
▁soldier	-3193
esh	-3194
iles	-3195
▁ale	-3196
▁rag	-3197
▁dish	-3198
▁shop	-3199
▁span	-3200
▁movement	-3201
set	-3202
ulf	-3203
▁jer	-3204
▁meat	-3205
▁aband	-3206
▁moral	-3207
▁yield	-3208
▁belief	-3209
▁moving	-3210
▁despair	-3211
▁foreign	-3212
▁confidence	-3213
▁busy	-3214
▁falling	-3215
ips	-3216
ora	-3217
▁ble	-3218
▁unw	-3219
▁ships	-3220
▁afford	-3221
▁sought	-3222
▁distant	-3223
▁emperor	-3224
▁witness	-3225
▁otherwise	-3226
▁completely	-3227
▁constitution	-3228
▁wid	-3229
usted	-3230
▁diss	-3231
iments	-3232
▁claim	-3233
▁doors	-3234
▁suspic	-3235
▁talked	-3236
▁evidence	-3237
▁handsome	-3238
▁possessed	-3239
reg	-3240
road	-3241
▁capt	-3242
▁cool	-3243
▁hath	-3244
▁displ	-3245
▁superior	-3246
▁excellent	-3247
isc	-3248
using	-3249
▁suit	-3250
itated	-3251
ception	-3252
▁agreed	-3253
▁diamond	-3254
▁required	-3255
▁instantly	-3256
▁necessity	-3257
▁companions	-3258
▁possession	-3259
hy	-3260
▁sam	-3261
ocked	-3262
▁huge	-3263
▁pier	-3264
▁spect	-3265
▁needed	-3266
▁contain	-3267
▁hunting	-3268
▁telling	-3269
▁professor	-3270
asm	-3271
lin	-3272
ette	-3273
▁wants	-3274
▁waters	-3275
▁intended	-3276
▁advantage	-3277
▁grandfather	-3278
nds	-3279
rem	-3280
rop	-3281
▁roof	-3282
▁haven	-3283
▁eighty	-3284
▁events	-3285
▁search	-3286
▁seated	-3287
▁served	-3288
▁century	-3289
▁clearly	-3290
hem	-3291
hold	-3292
▁bee	-3293
▁buy	-3294
▁env	-3295
▁oce	-3296
▁vig	-3297
ulous	-3298
▁dogs	-3299
▁sour	-3300
▁chest	-3301
▁fruit	-3302
▁yours	-3303
▁lovely	-3304
▁pointed	-3305
▁familiar	-3306
▁education	-3307
rose	-3308
▁pair	-3309
▁slave	-3310
▁cousin	-3311
▁prefer	-3312
▁log	-3313
▁disg	-3314
▁brand	-3315
▁played	-3316
▁succeeded	-3317
▁frequently	-3318
▁particularly	-3319
mas	-3320
oms	-3321
▁der	-3322
▁dign	-3323
▁mile	-3324
▁rule	-3325
ration	-3326
▁endeav	-3327
▁control	-3328
▁instinct	-3329
eer	-3330
olog	-3331
▁fart	-3332
▁horror	-3333
▁indust	-3334
▁terror	-3335
▁splendid	-3336
▁aid	-3337
▁aug	-3338
▁ros	-3339
▁awful	-3340
▁throw	-3341
▁trade	-3342
▁divine	-3343
▁indians	-3344
▁remarked	-3345
▁conditions	-3346
▁importance	-3347
▁ain	-3348
▁cop	-3349
▁emp	-3350
▁rat	-3351
▁earl	-3352
▁rooms	-3353
▁singing	-3354
▁powerful	-3355
asc	-3356
▁pit	-3357
▁rad	-3358
▁tru	-3359
▁mult	-3360
▁liter	-3361
▁polly	-3362
▁advice	-3363
▁majest	-3364
▁members	-3365
▁station	-3366
kin	-3367
agon	-3368
istic	-3369
▁daily	-3370
▁smoke	-3371
▁trium	-3372
▁upper	-3373
▁hither	-3374
▁pounds	-3375
▁counten	-3376
▁possibly	-3377
▁mentioned	-3378
▁frightened	-3379
umn	-3380
▁wes	-3381
▁papa	-3382
▁pill	-3383
attered	-3384
▁mistress	-3385
▁neighbour	-3386
lv	-3387
▁ama	-3388
aches	-3389
▁crit	-3390
▁qual	-3391
▁instr	-3392
▁proof	-3393
▁bishop	-3394
▁finger	-3395
▁triumph	-3396
▁pictures	-3397
▁ado	-3398
▁curi	-3399
▁rare	-3400
▁exped	-3401
▁flesh	-3402
▁joined	-3403
▁equally	-3404
▁sympath	-3405
▁actually	-3406
ades	-3407
vert	-3408
▁aud	-3409
▁lies	-3410
▁birth	-3411
▁gives	-3412
theless	-3413
▁fields	-3414
▁powers	-3415
▁softly	-3416
▁officer	-3417
▁passage	-3418
▁nevertheless	-3419
▁flew	-3420
▁redu	-3421
▁rope	-3422
▁goods	-3423
▁group	-3424
▁lands	-3425
▁shame	-3426
▁behold	-3427
▁driven	-3428
▁parent	-3429
▁preser	-3430
▁calling	-3431
▁science	-3432
▁spirits	-3433
▁demanded	-3434
▁occurred	-3435
den	-3436
gment	-3437
▁address	-3438
▁infinite	-3439
▁entertain	-3440
▁relations	-3441
graph	-3442
▁clou	-3443
▁eggs	-3444
▁hole	-3445
▁image	-3446
▁wicked	-3447
▁extraord	-3448
▁explained	-3449
olo	-3450
ater	-3451
▁suf	-3452
▁card	-3453
▁hero	-3454
▁pard	-3455
▁shown	-3456
▁gently	-3457
▁becomes	-3458
▁whenever	-3459
▁buck	-3460
ternal	-3461
▁minds	-3462
agement	-3463
▁basket	-3464
▁myster	-3465
▁yester	-3466
▁regarded	-3467
▁disappeared	-3468
▁fac	-3469
▁sex	-3470
angers	-3471
▁conqu	-3472
▁distr	-3473
ability	-3474
ication	-3475
▁exceed	-3476
▁fourth	-3477
▁virgin	-3478
▁anybody	-3479
▁leading	-3480
▁fighting	-3481
▁yesterday	-3482
alous	-3483
▁enth	-3484
▁holy	-3485
orious	-3486
▁gloom	-3487
▁sheep	-3488
▁attend	-3489
▁hearts	-3490
▁absolutely	-3491
acle	-3492
inal	-3493
kins	-3494
▁cult	-3495
▁dawn	-3496
▁fold	-3497
▁hosp	-3498
▁ocean	-3499
▁share	-3500
▁modern	-3501
▁smiling	-3502
▁welcome	-3503
▁iss	-3504
acious	-3505
ndered	-3506
▁couple	-3507
▁double	-3508
▁voices	-3509
▁apparently	-3510
iot	-3511
usi	-3512
▁mix	-3513
▁dull	-3514
▁gain	-3515
▁worthy	-3516
▁cottage	-3517
▁consciousness	-3518
lo	-3519
llen	-3520
with	-3521
▁coo	-3522
night	-3523
▁bore	-3524
▁shel	-3525
▁subs	-3526
▁drove	-3527
▁stead	-3528
▁stuff	-3529
▁track	-3530
▁objects	-3531
▁dangerous	-3532
com	-3533
▁appl	-3534
▁wore	-3535
▁excit	-3536
▁unhapp	-3537
▁sixteen	-3538
▁advanced	-3539
▁dreadful	-3540
▁remarkable	-3541
pap	-3542
ude	-3543
ighed	-3544
uments	-3545
▁fully	-3546
▁waves	-3547
▁independ	-3548
▁suggested	-3549
ival	-3550
▁key	-3551
▁tele	-3552
▁worn	-3553
▁paused	-3554
▁taught	-3555
ification	-3556
▁nineteen	-3557
▁curiosity	-3558
ife	-3559
iest	-3560
illa	-3561
resp	-3562
▁nob	-3563
▁rab	-3564
▁adam	-3565
▁brill	-3566
▁temple	-3567
▁undert	-3568
▁virtue	-3569
▁capital	-3570
▁enemies	-3571
▁farther	-3572
▁resolved	-3573
▁lod	-3574
▁cart	-3575
▁club	-3576
▁park	-3577
▁ride	-3578
ainted	-3579
▁dance	-3580
▁knees	-3581
▁burning	-3582
▁relation	-3583
ese	-3584
▁bew	-3585
▁dun	-3586
lessly	-3587
▁exhib	-3588
▁facts	-3589
▁frank	-3590
▁flying	-3591
▁interv	-3592
▁neighbor	-3593
▁countenance	-3594
for	-3595
▁bor	-3596
▁oak	-3597
▁tot	-3598
ental	-3599
iable	-3600
▁obst	-3601
▁avoid	-3602
▁cabin	-3603
▁encour	-3604
▁flight	-3605
▁excitement	-3606
▁interested	-3607
▁information	-3608
▁satisfaction	-3609
che	-3610
por	-3611
arsh	-3612
▁gle	-3613
▁betr	-3614
▁obey	-3615
▁pour	-3616
▁desper	-3617
▁report	-3618
▁acquaint	-3619
▁unfortun	-3620
▁christmas	-3621
bb	-3622
acity	-3623
▁eleven	-3624
▁points	-3625
▁inhabit	-3626
▁message	-3627
▁delighted	-3628
▁yo	-3629
crib	-3630
ural	-3631
▁ren	-3632
iance	-3633
▁arose	-3634
▁clever	-3635
▁helped	-3636
▁crossed	-3637
▁enthusi	-3638
▁presented	-3639
ara	-3640
ker	-3641
▁pos	-3642
▁saf	-3643
while	-3644
▁drop	-3645
▁indif	-3646
▁ceased	-3647
▁gather	-3648
▁larger	-3649
▁rapidly	-3650
▁judgment	-3651
▁moreover	-3652
▁adventure	-3653
▁ox	-3654
chief	-3655
▁forb	-3656
anches	-3657
atures	-3658
▁glory	-3659
▁midst	-3660
▁wings	-3661
lection	-3662
▁highest	-3663
▁magnific	-3664
▁imagination	-3665
▁od	-3666
▁fox	-3667
▁comr	-3668
▁peas	-3669
▁term	-3670
▁tight	-3671
▁robert	-3672
▁wholly	-3673
▁capable	-3674
▁extraordinary	-3675
▁mc	-3676
pted	-3677
▁wet	-3678
ading	-3679
▁cher	-3680
▁frag	-3681
▁keen	-3682
▁sigh	-3683
▁task	-3684
▁hoped	-3685
▁shoes	-3686
onsieur	-3687
▁explan	-3688
▁hidden	-3689
▁savage	-3690
▁pressed	-3691
▁stories	-3692
▁monsieur	-3693
▁constantly	-3694
gged	-3695
oops	-3696
▁compe	-3697
▁picked	-3698
▁sounds	-3699
▁supply	-3700
▁shining	-3701
▁wounded	-3702
▁military	-3703
abeth	-3704
▁sout	-3705
istram	-3706
▁method	-3707
▁sprang	-3708
▁thanks	-3709
▁closely	-3710
▁correct	-3711
▁princip	-3712
▁removed	-3713
▁worship	-3714
▁tristram	-3715
rig	-3716
▁awa	-3717
▁mont	-3718
▁pink	-3719
▁franc	-3720
▁affair	-3721
▁choice	-3722
▁willing	-3723
▁meanwhile	-3724
▁proceeded	-3725
▁considerable	-3726
▁obv	-3727
ailed	-3728
astic	-3729
▁meal	-3730
▁dreams	-3731
▁recall	-3732
▁excited	-3733
▁occupied	-3734
▁perceived	-3735
▁thoroughly	-3736
rees	-3737
▁bay	-3738
▁fet	-3739
▁ken	-3740
anges	-3741
asing	-3742
▁colle	-3743
▁drift	-3744
▁skill	-3745
▁famous	-3746
▁plenty	-3747
▁constant	-3748
aker	-3749
▁cats	-3750
▁hans	-3751
▁hate	-3752
▁admit	-3753
▁resist	-3754
▁rushed	-3755
▁wishes	-3756
▁foolish	-3757
▁retreat	-3758
▁washing	-3759
▁suffered	-3760
▁creatures	-3761
▁expressed	-3762
▁approached	-3763
▁accordingly	-3764
▁intelligence	-3765
▁dw	-3766
▁hun	-3767
aming	-3768
ially	-3769
▁fled	-3770
▁quant	-3771
▁edward	-3772
▁extent	-3773
▁regret	-3774
▁settle	-3775
▁smooth	-3776
▁sooner	-3777
▁refused	-3778
▁gradually	-3779
ole	-3780
▁sed	-3781
▁cred	-3782
▁jose	-3783
▁rank	-3784
▁depth	-3785
▁grief	-3786
▁stage	-3787
▁worst	-3788
▁relief	-3789
▁british	-3790
▁efforts	-3791
▁evident	-3792
▁prisoner	-3793
▁concerned	-3794
▁increased	-3795
▁impression	-3796
ols	-3797
▁dan	-3798
▁odd	-3799
▁sang	-3800
▁begun	-3801
▁crime	-3802
▁truly	-3803
▁anyone	-3804
▁august	-3805
▁contem	-3806
▁delicate	-3807
▁entrance	-3808
aws	-3809
gers	-3810
itor	-3811
▁dig	-3812
▁fan	-3813
asons	-3814
ators	-3815
▁anger	-3816
▁jesus	-3817
▁marked	-3818
▁severe	-3819
▁precious	-3820
▁bot	-3821
▁joe	-3822
iring	-3823
▁pred	-3824
ensive	-3825
▁loose	-3826
▁waste	-3827
▁papers	-3828
▁shouted	-3829
▁principles	-3830
bits	-3831
▁myst	-3832
▁type	-3833
▁stiff	-3834
▁sugar	-3835
▁murder	-3836
▁useful	-3837
▁accepted	-3838
▁wondered	-3839
▁religious	-3840
▁pu	-3841
ilst	-3842
rant	-3843
▁pow	-3844
asped	-3845
conom	-3846
igned	-3847
▁caut	-3848
▁blank	-3849
▁saved	-3850
▁smith	-3851
▁fierce	-3852
▁forces	-3853
▁stepped	-3854
▁branches	-3855
win	-3856
iber	-3857
▁aim	-3858
▁sty	-3859
▁tar	-3860
stand	-3861
▁nodd	-3862
▁stup	-3863
▁brief	-3864
▁dying	-3865
▁julia	-3866
▁kinds	-3867
▁lights	-3868
▁strike	-3869
▁whence	-3870
▁escaped	-3871
▁fellows	-3872
▁becoming	-3873
▁physical	-3874
▁practice	-3875
▁established	-3876
ha	-3877
ffe	-3878
sec	-3879
aval	-3880
▁emer	-3881
▁devil	-3882
▁wound	-3883
▁carpet	-3884
▁clouds	-3885
▁compre	-3886
▁pardon	-3887
▁emb	-3888
▁alex	-3889
▁cord	-3890
▁weap	-3891
▁yard	-3892
ivered	-3893
▁brain	-3894
▁older	-3895
▁teeth	-3896
▁asking	-3897
▁assemb	-3898
▁begged	-3899
▁econom	-3900
▁maiden	-3901
▁thrust	-3902
▁mistake	-3903
▁portion	-3904
illy	-3905
▁max	-3906
▁phr	-3907
▁mour	-3908
▁seld	-3909
ription	-3910
ustomed	-3911
▁absence	-3912
▁careful	-3913
▁newspap	-3914
▁thunder	-3915
▁national	-3916
▁concerning	-3917
▁friendship	-3918
▁throughout	-3919
mend	-3920
ulated	-3921
▁billy	-3922
▁flood	-3923
▁level	-3924
▁yards	-3925
▁cities	-3926
▁nur	-3927
▁nut	-3928
aling	-3929
▁emph	-3930
▁grim	-3931
▁hell	-3932
▁thom	-3933
▁trot	-3934
▁ghost	-3935
▁stern	-3936
▁weary	-3937
▁invest	-3938
▁safety	-3939
▁secure	-3940
▁seldom	-3941
▁unable	-3942
▁bearing	-3943
▁current	-3944
▁miserable	-3945
▁recollect	-3946
oe	-3947
▁ug	-3948
respond	-3949
▁choose	-3950
▁ninety	-3951
▁scream	-3952
▁desired	-3953
▁popular	-3954
▁sisters	-3955
▁victory	-3956
▁approach	-3957
▁original	-3958
▁correspond	-3959
agn	-3960
room	-3961
▁hut	-3962
▁aven	-3963
ential	-3964
▁buried	-3965
▁theory	-3966
▁troops	-3967
▁wooden	-3968
▁advance	-3969
▁remains	-3970
▁souther	-3971
▁provided	-3972
▁understanding	-3973
cks	-3974
ett	-3975
now	-3976
urd	-3977
▁cloth	-3978
▁indul	-3979
▁restr	-3980
▁crying	-3981
▁throat	-3982
▁whilst	-3983
▁arrival	-3984
▁dignity	-3985
▁slipped	-3986
▁somewhere	-3987
elt	-3988
chan	-3989
▁cro	-3990
▁nay	-3991
▁rig	-3992
▁lack	-3993
▁mead	-3994
▁scot	-3995
mother	-3996
ushing	-3997
▁ahead	-3998
▁amuse	-3999
▁project	-4000
▁accident	-4001
▁prospect	-4002
▁everywhere	-4003
aunt	-4004
iana	-4005
▁prim	-4006
▁wheel	-4007
▁western	-4008
▁arranged	-4009
▁governor	-4010
▁suffering	-4011
cked	-4012
▁ton	-4013
▁amid	-4014
▁slept	-4015
▁vague	-4016
▁bought	-4017
▁civili	-4018
▁kindly	-4019
▁proble	-4020
▁scient	-4021
▁jealous	-4022
▁plainly	-4023
▁admitted	-4024
▁obtained	-4025
▁struggle	-4026
▁distinguished	-4027
isl	-4028
▁hyp	-4029
▁nap	-4030
▁pir	-4031
▁leap	-4032
▁lone	-4033
▁impat	-4034
▁nurse	-4035
▁deeply	-4036
▁hungry	-4037
▁joseph	-4038
▁somehow	-4039
▁et	-4040
▁arab	-4041
▁insp	-4042
▁benef	-4043
▁james	-4044
▁actions	-4045
▁appears	-4046
▁convent	-4047
▁playing	-4048
▁treasure	-4049
aud	-4050
inate	-4051
orous	-4052
ourse	-4053
▁mood	-4054
▁sons	-4055
ashing	-4056
utions	-4057
▁alice	-4058
▁david	-4059
▁invol	-4060
▁sport	-4061
▁winds	-4062
▁convin	-4063
▁council	-4064
▁immense	-4065
▁majesty	-4066
▁produce	-4067
▁proportion	-4068
▁consequence	-4069
▁sup	-4070
ivity	-4071
▁alas	-4072
▁ends	-4073
▁impl	-4074
inging	-4075
▁ended	-4076
▁horri	-4077
▁stands	-4078
▁tables	-4079
▁machine	-4080
▁returning	-4081
▁ack	-4082
▁lux	-4083
▁arth	-4084
▁boil	-4085
▁crew	-4086
inated	-4087
isions	-4088
▁hotel	-4089
▁manif	-4090
▁shock	-4091
▁uncom	-4092
▁bridge	-4093
▁pushed	-4094
▁remind	-4095
▁wisdom	-4096
▁assured	-4097
▁inhabitants	-4098
uing	-4099
ption	-4100
▁crim	-4101
▁sylv	-4102
▁unex	-4103
atives	-4104
stairs	-4105
▁arist	-4106
▁knife	-4107
▁praise	-4108
▁rolled	-4109
▁stupid	-4110
▁patient	-4111
▁exercise	-4112
▁features	-4113
▁instruct	-4114
▁household	-4115
col	-4116
more	-4117
oused	-4118
rison	-4119
▁exha	-4120
▁join	-4121
▁cliff	-4122
▁hopes	-4123
▁roman	-4124
▁acknow	-4125
▁beaten	-4126
▁fairly	-4127
▁indign	-4128
▁member	-4129
▁parties	-4130
▁require	-4131
▁setting	-4132
▁inquired	-4133
▁accustomed	-4134
cip	-4135
icks	-4136
▁tow	-4137
▁hadn	-4138
▁sher	-4139
▁wolf	-4140
▁beard	-4141
▁bowed	-4142
▁suppl	-4143
▁arthur	-4144
▁detect	-4145
▁illust	-4146
▁legisl	-4147
▁uttered	-4148
▁visible	-4149
▁trembling	-4150
▁comfortable	-4151
held	-4152
▁feed	-4153
▁enorm	-4154
▁greet	-4155
▁knock	-4156
▁compar	-4157
▁congress	-4158
▁numerous	-4159
▁explanation	-4160
▁interrupted	-4161
isp	-4162
vin	-4163
▁ly	-4164
▁lit	-4165
onies	-4166
▁hang	-4167
▁nerv	-4168
▁feast	-4169
▁recom	-4170
▁democr	-4171
▁excuse	-4172
▁experi	-4173
▁partly	-4174
▁nations	-4175
▁respons	-4176
▁unhappy	-4177
▁argument	-4178
▁contempt	-4179
▁informed	-4180
▁listening	-4181
▁revolution	-4182
▁hal	-4183
▁russ	-4184
▁unus	-4185
▁admin	-4186
▁bride	-4187
▁melan	-4188
▁needs	-4189
▁price	-4190
▁pepper	-4191
▁eagerly	-4192
▁lighted	-4193
▁bringing	-4194
▁kindness	-4195
▁permitted	-4196
▁consideration	-4197
irm	-4198
▁ol	-4199
▁rib	-4200
atory	-4201
▁embr	-4202
▁sell	-4203
▁tend	-4204
▁dared	-4205
▁lover	-4206
▁queer	-4207
▁reven	-4208
▁resemb	-4209
▁sensible	-4210
▁conclusion	-4211
mith	-4212
▁rif	-4213
right	-4214
urity	-4215
▁outl	-4216
▁rent	-4217
▁rust	-4218
▁tale	-4219
▁mamma	-4220
▁merry	-4221
▁tower	-4222
▁genius	-4223
▁obtain	-4224
▁squire	-4225
▁ashamed	-4226
▁knights	-4227
▁norther	-4228
▁parents	-4229
▁protest	-4230
▁sympathy	-4231
▁discovery	-4232
fl	-4233
aty	-4234
▁apr	-4235
▁duc	-4236
▁fis	-4237
▁fro	-4238
▁lam	-4239
iture	-4240
▁cell	-4241
▁reward	-4242
▁travel	-4243
onscious	-4244
▁amongst	-4245
▁retired	-4246
▁utterly	-4247
▁acquaintance	-4248
pent	-4249
▁cas	-4250
▁dor	-4251
stone	-4252
uries	-4253
▁horn	-4254
▁lest	-4255
▁tiny	-4256
▁guide	-4257
▁kings	-4258
▁novel	-4259
▁absurd	-4260
▁fought	-4261
▁highly	-4262
▁market	-4263
▁organi	-4264
▁thinks	-4265
▁friendly	-4266
▁murmured	-4267
▁sentence	-4268
▁brilliant	-4269
gl	-4270
ids	-4271
▁vic	-4272
▁ming	-4273
▁mode	-4274
▁harry	-4275
ceiving	-4276
▁stared	-4277
▁degrees	-4278
▁feather	-4279
▁follows	-4280
▁improve	-4281
▁violent	-4282
▁district	-4283
▁somebody	-4284
▁southern	-4285
▁mysterious	-4286
▁ax	-4287
▁ot	-4288
lest	-4289
▁pig	-4290
achel	-4291
ology	-4292
ville	-4293
▁hind	-4294
▁rome	-4295
▁sank	-4296
▁coffe	-4297
▁embar	-4298
▁mercy	-4299
▁active	-4300
▁condem	-4301
▁feared	-4302
▁inquir	-4303
▁territ	-4304
▁emotion	-4305
▁useless	-4306
▁addition	-4307
▁singular	-4308
▁virginia	-4309
▁intention	-4310
▁approaching	-4311
kind	-4312
osen	-4313
▁lan	-4314
▁row	-4315
▁rum	-4316
icate	-4317
▁fare	-4318
▁wing	-4319
umbled	-4320
▁elder	-4321
▁souls	-4322
▁teach	-4323
▁barbar	-4324
▁button	-4325
▁causes	-4326
▁instit	-4327
▁strain	-4328
▁concern	-4329
▁thousands	-4330
▁intellectual	-4331
chie	-4332
rows	-4333
▁bos	-4334
▁fee	-4335
acles	-4336
onstr	-4337
uding	-4338
▁ages	-4339
▁base	-4340
▁ease	-4341
▁rout	-4342
inking	-4343
▁shows	-4344
▁coffee	-4345
▁native	-4346
▁managed	-4347
▁increase	-4348
▁merchant	-4349
▁minister	-4350
▁stretched	-4351
▁assistance	-4352
bour	-4353
▁bon	-4354
▁dece	-4355
▁lamp	-4356
▁warri	-4357
fulness	-4358
ilities	-4359
utation	-4360
▁centre	-4361
▁hollow	-4362
▁kissed	-4363
▁transp	-4364
▁utmost	-4365
▁alexand	-4366
▁figures	-4367
▁million	-4368
▁observe	-4369
▁treated	-4370
▁profound	-4371
▁proposed	-4372
▁connected	-4373
▁delightful	-4374
ped	-4375
ares	-4376
pher	-4377
▁reb	-4378
choly	-4379
▁lion	-4380
▁rush	-4381
▁sult	-4382
▁vers	-4383
▁coach	-4384
▁spend	-4385
▁circle	-4386
▁handed	-4387
ointment	-4388
▁complex	-4389
▁consent	-4390
▁hanging	-4391
▁showing	-4392
▁striking	-4393
▁interests	-4394
▁qualities	-4395
▁melancholy	-4396
sie	-4397
ales	-4398
cles	-4399
▁ate	-4400
▁fix	-4401
▁ric	-4402
▁ugly	-4403
▁wash	-4404
▁angel	-4405
▁spare	-4406
▁chosen	-4407
▁plants	-4408
▁sancho	-4409
▁divided	-4410
▁effects	-4411
▁mission	-4412
▁whisper	-4413
▁continue	-4414
▁employed	-4415
▁connection	-4416
▁unconscious	-4417
▁tro	-4418
▁voy	-4419
verse	-4420
▁hori	-4421
▁silk	-4422
▁swim	-4423
lected	-4424
▁armed	-4425
▁grate	-4426
▁haste	-4427
▁range	-4428
▁swall	-4429
▁domest	-4430
▁eating	-4431
▁loving	-4432
▁glanced	-4433
▁mounted	-4434
▁admiration	-4435
▁profession	-4436
▁difficulties	-4437
can	-4438
▁unp	-4439
▁guns	-4440
▁soil	-4441
▁torn	-4442
▁uneas	-4443
▁whist	-4444
▁gained	-4445
▁deliber	-4446
▁intense	-4447
▁distress	-4448
▁northern	-4449
ris	-4450
fice	-4451
gypt	-4452
▁lap	-4453
▁tyr	-4454
▁gest	-4455
▁grie	-4456
atched	-4457
▁helen	-4458
▁ident	-4459
▁medic	-4460
▁raise	-4461
▁conven	-4462
▁duties	-4463
▁engine	-4464
▁police	-4465
▁refuse	-4466
▁contract	-4467
▁extended	-4468
▁conscience	-4469
▁destruction	-4470
udd	-4471
▁ba	-4472
▁gay	-4473
▁tis	-4474
▁echo	-4475
▁guil	-4476
▁boots	-4477
▁egypt	-4478
tending	-4479
▁forgive	-4480
▁parliam	-4481
▁departed	-4482
▁surrounded	-4483
▁magnificent	-4484
etr	-4485
ois	-4486
ffin	-4487
upon	-4488
iform	-4489
▁bade	-4490
▁glac	-4491
▁glim	-4492
▁ling	-4493
▁local	-4494
▁pause	-4495
▁sorts	-4496
▁guilty	-4497
▁priest	-4498
▁render	-4499
▁sacred	-4500
▁climbed	-4501
▁quality	-4502
▁mistaken	-4503
▁slightly	-4504
▁appointed	-4505
▁confusion	-4506
▁described	-4507
▁practical	-4508
▁err	-4509
▁mud	-4510
board	-4511
▁bree	-4512
▁exch	-4513
▁kate	-4514
▁subm	-4515
▁tied	-4516
▁trif	-4517
▁faced	-4518
▁notes	-4519
▁purch	-4520
▁refer	-4521
▁batter	-4522
▁poison	-4523
▁mankind	-4524
▁manners	-4525
▁shadows	-4526
▁learning	-4527
▁patience	-4528
▁commanded	-4529
▁washington	-4530
▁sufficiently	-4531
oul	-4532
mber	-4533
▁folk	-4534
▁leaf	-4535
▁lucy	-4536
▁quix	-4537
illing	-4538
▁polic	-4539
▁stret	-4540
▁bottle	-4541
▁cheeks	-4542
▁hastily	-4543
▁visited	-4544
▁sleeping	-4545
▁immediate	-4546
▁sacrifice	-4547
▁introduced	-4548
hess	-4549
omen	-4550
▁cyr	-4551
field	-4552
▁bern	-4553
▁pear	-4554
▁roll	-4555
▁scen	-4556
▁relie	-4557
▁signs	-4558
▁prepar	-4559
▁senses	-4560
▁charles	-4561
▁prosper	-4562
▁request	-4563
▁slavery	-4564
▁laughter	-4565
▁establish	-4566
▁extremely	-4567
▁reflection	-4568
▁oil	-4569
▁gift	-4570
▁nest	-4571
apping	-4572
▁baron	-4573
▁civil	-4574
▁dwell	-4575
▁overt	-4576
▁farmer	-4577
▁nights	-4578
▁sultan	-4579
▁sylvia	-4580
▁charming	-4581
▁republic	-4582
▁separate	-4583
▁commission	-4584
end	-4585
born	-4586
plex	-4587
▁tra	-4588
▁deck	-4589
▁lawy	-4590
▁pipe	-4591
▁sees	-4592
▁shade	-4593
▁solid	-4594
▁energy	-4595
▁misery	-4596
▁nodded	-4597
▁sighed	-4598
▁composed	-4599
▁everyone	-4600
▁destroyed	-4601
▁operation	-4602
▁principal	-4603
ems	-4604
pse	-4605
▁clo	-4606
▁pil	-4607
inent	-4608
▁katy	-4609
▁liqu	-4610
▁proc	-4611
▁trip	-4612
teenth	-4613
▁alike	-4614
▁blame	-4615
▁carol	-4616
▁irish	-4617
▁trial	-4618
▁prayer	-4619
▁precise	-4620
▁horrible	-4621
▁ignorant	-4622
▁quantity	-4623
▁rendered	-4624
ads	-4625
nal	-4626
abel	-4627
ived	-4628
▁ner	-4629
▁sar	-4630
▁tax	-4631
icken	-4632
▁asce	-4633
▁lamb	-4634
▁page	-4635
▁rage	-4636
▁absor	-4637
▁block	-4638
▁swept	-4639
▁nearest	-4640
▁quarters	-4641
▁troubled	-4642
▁suspicion	-4643
▁protection	-4644
▁punishment	-4645
edy	-4646
fall	-4647
▁unm	-4648
uable	-4649
umber	-4650
▁cave	-4651
▁june	-4652
▁banks	-4653
▁fever	-4654
▁flame	-4655
▁simpl	-4656
▁vision	-4657
▁reasons	-4658
▁enormous	-4659
▁fourteen	-4660
▁innocent	-4661
▁parliament	-4662
bor	-4663
lot	-4664
omp	-4665
aved	-4666
▁abo	-4667
▁bla	-4668
▁dise	-4669
▁nurs	-4670
▁rebe	-4671
▁giant	-4672
▁withd	-4673
▁cultiv	-4674
▁firmly	-4675
▁jumped	-4676
▁preced	-4677
▁reader	-4678
▁quixote	-4679
▁reality	-4680
▁confeder	-4681
▁directed	-4682
▁properly	-4683
▁sentiment	-4684
▁expedition	-4685
ka	-4686
rs	-4687
ye	-4688
anch	-4689
▁bul	-4690
▁hit	-4691
eenth	-4692
inity	-4693
▁hers	-4694
▁flung	-4695
▁plans	-4696
▁pound	-4697
▁straw	-4698
▁easter	-4699
▁locked	-4700
▁lonely	-4701
▁prompt	-4702
▁propri	-4703
▁source	-4704
▁dancing	-4705
▁results	-4706
▁convinced	-4707
▁universal	-4708
ams	-4709
iday	-4710
▁obsc	-4711
▁bloom	-4712
▁erect	-4713
▁exerc	-4714
▁steel	-4715
▁waist	-4716
▁habits	-4717
▁lately	-4718
▁created	-4719
▁nervous	-4720
▁privile	-4721
▁uniform	-4722
▁subjects	-4723
▁concluded	-4724
▁acquainted	-4725
▁accomplished	-4726
just	-4727
▁bob	-4728
▁pub	-4729
▁sul	-4730
▁gets	-4731
▁leis	-4732
▁offe	-4733
▁sear	-4734
▁ideal	-4735
▁smell	-4736
▁arrest	-4737
▁empire	-4738
▁mental	-4739
▁resumed	-4740
▁electric	-4741
▁investig	-4742
▁recovered	-4743
▁accompanied	-4744
ox	-4745
isite	-4746
▁clos	-4747
▁ruin	-4748
▁check	-4749
▁crack	-4750
▁fifth	-4751
▁bushes	-4752
▁intent	-4753
▁compass	-4754
▁teacher	-4755
▁travell	-4756
▁affected	-4757
▁stronger	-4758
▁gratitude	-4759
▁prisoners	-4760
▁unexpected	-4761
▁disposition	-4762
ama	-4763
▁unl	-4764
ulted	-4765
▁cler	-4766
▁rude	-4767
ground	-4768
▁awake	-4769
▁gover	-4770
▁lieut	-4771
▁negro	-4772
▁veget	-4773
▁calcul	-4774
▁desert	-4775
▁infant	-4776
▁planet	-4777
▁saddle	-4778
▁throne	-4779
▁granted	-4780
▁leisure	-4781
▁wedding	-4782
▁violence	-4783
▁sensation	-4784
▁successful	-4785
alt	-4786
xic	-4787
ints	-4788
rass	-4789
▁hid	-4790
▁nav	-4791
▁ray	-4792
ilies	-4793
rived	-4794
▁chat	-4795
▁mich	-4796
ograph	-4797
▁frame	-4798
▁guest	-4799
▁beheld	-4800
▁convey	-4801
▁female	-4802
▁mechan	-4803
▁rights	-4804
▁strict	-4805
▁appreci	-4806
▁bernard	-4807
▁duchess	-4808
▁product	-4809
▁attitude	-4810
▁contempl	-4811
▁hitherto	-4812
▁troubles	-4813
▁departure	-4814
▁wondering	-4815
▁astonishment	-4816
aggy	-4817
cies	-4818
mosp	-4819
▁fil	-4820
▁gal	-4821
▁luc	-4822
▁chim	-4823
▁flag	-4824
▁inex	-4825
▁ours	-4826
▁prec	-4827
▁craft	-4828
▁reser	-4829
▁style	-4830
▁atmosp	-4831
▁burned	-4832
▁rested	-4833
▁thread	-4834
▁reduced	-4835
▁shaking	-4836
▁younger	-4837
▁announced	-4838
▁compelled	-4839
▁remaining	-4840
otes	-4841
udes	-4842
umes	-4843
▁haw	-4844
▁jac	-4845
order	-4846
pless	-4847
▁chin	-4848
▁fred	-4849
▁male	-4850
▁rele	-4851
▁caval	-4852
▁crept	-4853
▁fairy	-4854
▁flore	-4855
▁match	-4856
▁plate	-4857
▁repro	-4858
▁series	-4859
▁lieuten	-4860
▁mystery	-4861
▁faithful	-4862
▁wherever	-4863
▁agreeable	-4864
▁non	-4865
▁orn	-4866
▁spl	-4867
▁vac	-4868
▁abst	-4869
▁fund	-4870
▁ital	-4871
▁pron	-4872
▁athen	-4873
▁bosom	-4874
▁chris	-4875
▁fatal	-4876
▁louis	-4877
▁sauce	-4878
▁shone	-4879
▁tells	-4880
▁tempt	-4881
▁theat	-4882
▁growth	-4883
▁leader	-4884
▁notion	-4885
▁classes	-4886
▁smaller	-4887
▁breaking	-4888
▁afterward	-4889
▁descended	-4890
▁movements	-4891
▁instrument	-4892
ki	-4893
coln	-4894
▁glo	-4895
agnan	-4896
▁acts	-4897
▁apple	-4898
▁bones	-4899
▁clock	-4900
▁gates	-4901
▁plung	-4902
▁credit	-4903
▁shakes	-4904
artagnan	-4905
▁anxiety	-4906
▁changes	-4907
▁college	-4908
▁colored	-4909
▁lincoln	-4910
▁painful	-4911
▁attached	-4912
▁humanity	-4913
▁characters	-4914
▁scientific	-4915
▁cy	-4916
bury	-4917
elia	-4918
rous	-4919
rates	-4920
worth	-4921
▁bath	-4922
▁beef	-4923
▁mild	-4924
▁nons	-4925
▁pine	-4926
▁tent	-4927
▁trap	-4928
▁disci	-4929
▁final	-4930
▁spark	-4931
▁stair	-4932
▁clergy	-4933
▁humble	-4934
▁modest	-4935
▁reckon	-4936
▁stable	-4937
▁curtain	-4938
▁details	-4939
▁eternal	-4940
▁likewise	-4941
▁addressed	-4942
▁scattered	-4943
▁observation	-4944
▁philosopher	-4945
uf	-4946
oke	-4947
mble	-4948
phia	-4949
itate	-4950
pleas	-4951
▁aver	-4952
▁libr	-4953
▁wept	-4954
▁delay	-4955
▁hunger	-4956
▁region	-4957
▁walter	-4958
▁numbers	-4959
▁sounded	-4960
▁deserted	-4961
▁previous	-4962
▁contained	-4963
▁desperate	-4964
sey	-4965
▁os	-4966
aves	-4967
▁bye	-4968
▁dot	-4969
▁ned	-4970
▁tob	-4971
▁dart	-4972
▁fulf	-4973
▁pian	-4974
urance	-4975
▁infer	-4976
▁mixed	-4977
▁score	-4978
▁shell	-4979
▁witch	-4980
▁attrib	-4981
▁commer	-4982
▁guests	-4983
▁devoted	-4984
▁glorious	-4985
▁teaching	-4986
▁grandmother	-4987
long	-4988
▁cam	-4989
▁cig	-4990
▁answ	-4991
▁bark	-4992
▁lock	-4993
▁tomb	-4994
▁alarm	-4995
▁drown	-4996
▁felic	-4997
▁slain	-4998
▁steep	-4999
▁actual	-5000
▁morgan	-5001
▁shaggy	-5002
▁signal	-5003
▁sovere	-5004
▁masters	-5005
▁supreme	-5006
▁attended	-5007
▁examined	-5008
▁majority	-5009
▁weakness	-5010
▁seriously	-5011
▁opposition	-5012
▁provisions	-5013
▁continually	-5014
▁unfortunate	-5015
▁consequently	-5016
add	-5017
net	-5018
▁apt	-5019
▁dang	-5020
▁pant	-5021
▁stat	-5022
▁scorn	-5023
▁polite	-5024
▁victim	-5025
▁wilson	-5026
standing	-5027
▁islands	-5028
▁maintain	-5029
▁nonsense	-5030
▁occasions	-5031
▁astonished	-5032
icip	-5033
ulse	-5034
▁tad	-5035
▁rang	-5036
▁borne	-5037
▁elsie	-5038
▁henri	-5039
▁ridic	-5040
▁title	-5041
▁colour	-5042
▁histor	-5043
▁repeat	-5044
inations	-5045
▁chiefly	-5046
▁consist	-5047
▁germany	-5048
▁staring	-5049
▁warning	-5050
▁manifest	-5051
▁abandoned	-5052
▁embarrass	-5053
▁spiritual	-5054
▁directions	-5055
oen	-5056
▁pace	-5057
liness	-5058
▁madam	-5059
▁invited	-5060
▁cheerful	-5061
uits	-5062
▁nic	-5063
enger	-5064
hetic	-5065
house	-5066
smith	-5067
▁aust	-5068
▁phen	-5069
▁sore	-5070
▁bewild	-5071
▁consid	-5072
▁observ	-5073
▁rabbit	-5074
▁article	-5075
▁entreat	-5076
▁domestic	-5077
▁phenomen	-5078
▁reaching	-5079
▁signific	-5080
▁surround	-5081
▁wretched	-5082
▁furniture	-5083
▁description	-5084
▁occasionally	-5085
▁ped	-5086
ooked	-5087
▁wave	-5088
▁wire	-5089
▁fleet	-5090
▁folks	-5091
▁haunt	-5092
▁murde	-5093
atively	-5094
▁assure	-5095
▁perpet	-5096
▁thirst	-5097
aughters	-5098
▁problem	-5099
▁pursued	-5100
▁variety	-5101
▁anywhere	-5102
▁forehead	-5103
▁midnight	-5104
▁muttered	-5105
▁probable	-5106
▁steadily	-5107
▁valuable	-5108
▁vanished	-5109
▁doubtless	-5110
▁essential	-5111
▁lieutenant	-5112
cast	-5113
rage	-5114
rier	-5115
▁job	-5116
sters	-5117
▁grav	-5118
▁cream	-5119
▁italy	-5120
▁maybe	-5121
▁outer	-5122
▁serge	-5123
▁shake	-5124
▁stamp	-5125
ational	-5126
▁abroad	-5127
▁aspect	-5128
▁attain	-5129
▁beasts	-5130
▁leaned	-5131
▁writer	-5132
▁contrib	-5133
▁leaning	-5134
▁seeking	-5135
▁inclined	-5136
▁community	-5137
▁concealed	-5138
▁atmosphere	-5139
ae	-5140
mo	-5141
arm	-5142
bre	-5143
eem	-5144
▁ere	-5145
▁gor	-5146
▁hay	-5147
▁badly	-5148
▁breed	-5149
▁drunk	-5150
▁fanci	-5151
▁metal	-5152
▁mexic	-5153
▁stout	-5154
▁appeal	-5155
▁critic	-5156
▁sailor	-5157
▁thomas	-5158
▁priests	-5159
▁definite	-5160
▁official	-5161
▁perceive	-5162
▁richmond	-5163
▁countries	-5164
▁slightest	-5165
ada	-5166
jud	-5167
ses	-5168
arse	-5169
fied	-5170
▁cot	-5171
▁dir	-5172
▁kitt	-5173
▁shed	-5174
▁aloud	-5175
▁chose	-5176
▁decor	-5177
▁loves	-5178
▁maxim	-5179
▁roast	-5180
▁scare	-5181
▁towns	-5182
▁views	-5183
▁boiled	-5184
▁excess	-5185
▁counter	-5186
▁crowded	-5187
▁leather	-5188
▁sending	-5189
▁frequent	-5190
▁platform	-5191
▁shooting	-5192
▁strongly	-5193
▁committed	-5194
▁delivered	-5195
▁philosophy	-5196
▁represented	-5197
lebr	-5198
uine	-5199
▁ens	-5200
▁fed	-5201
▁gif	-5202
▁rod	-5203
▁tin	-5204
▁narr	-5205
▁chann	-5206
▁fears	-5207
▁phoen	-5208
▁toler	-5209
▁widow	-5210
▁permit	-5211
▁applied	-5212
▁driving	-5213
▁ambition	-5214
▁dressing	-5215
▁hospital	-5216
▁services	-5217
▁circumstance	-5218
ael	-5219
wick	-5220
▁gri	-5221
inous	-5222
▁eaten	-5223
▁schol	-5224
▁stoop	-5225
ression	-5226
▁emphas	-5227
▁poured	-5228
▁sprink	-5229
▁happens	-5230
▁perplex	-5231
▁unusual	-5232
▁venture	-5233
▁belonged	-5234
▁hastened	-5235
▁murderer	-5236
▁throwing	-5237
▁wandered	-5238
▁attempted	-5239
▁daughters	-5240
▁hesitated	-5241
▁experiment	-5242
burg	-5243
gest	-5244
▁unb	-5245
agger	-5246
▁oath	-5247
▁prey	-5248
▁risk	-5249
ferent	-5250
▁achie	-5251
▁beach	-5252
▁greek	-5253
▁powder	-5254
▁riding	-5255
▁wilder	-5256
▁enchant	-5257
▁fancied	-5258
▁marched	-5259
▁readily	-5260
▁helpless	-5261
▁hundreds	-5262
▁wandering	-5263
▁population	-5264
▁indifferent	-5265
ev	-5266
lie	-5267
ault	-5268
aging	-5269
icity	-5270
▁neat	-5271
▁prud	-5272
▁tear	-5273
oonful	-5274
unning	-5275
▁abund	-5276
▁honey	-5277
▁lunch	-5278
▁reign	-5279
▁whirl	-5280
▁burden	-5281
▁celebr	-5282
▁physic	-5283
▁reform	-5284
▁steady	-5285
▁voyage	-5286
▁assumed	-5287
▁belongs	-5288
▁contrad	-5289
▁vessels	-5290
▁wearing	-5291
▁incident	-5292
▁developed	-5293
▁furnished	-5294
▁development	-5295
anny	-5296
char	-5297
eral	-5298
geon	-5299
quet	-5300
▁wre	-5301
olate	-5302
osure	-5303
ounce	-5304
peare	-5305
verty	-5306
▁noon	-5307
▁soot	-5308
▁bench	-5309
▁boats	-5310
▁rules	-5311
inction	-5312
▁angels	-5313
▁beings	-5314
▁esteem	-5315
▁fisher	-5316
▁hunter	-5317
▁manage	-5318
▁beloved	-5319
▁darling	-5320
▁knocked	-5321
▁poverty	-5322
▁duration	-5323
amm	-5324
nat	-5325
rell	-5326
▁hale	-5327
▁shud	-5328
▁surv	-5329
ipping	-5330
▁brush	-5331
▁calls	-5332
▁cheek	-5333
▁confl	-5334
▁thine	-5335
▁wives	-5336
▁worry	-5337
▁headed	-5338
▁poetry	-5339
▁safely	-5340
▁committ	-5341
▁italian	-5342
▁library	-5343
▁painted	-5344
▁respond	-5345
▁insisted	-5346
▁contented	-5347
▁communication	-5348
ros	-5349
▁mac	-5350
▁tub	-5351
eless	-5352
▁brow	-5353
▁pars	-5354
▁resc	-5355
▁ruth	-5356
▁diana	-5357
▁emily	-5358
▁intim	-5359
▁stuck	-5360
▁assert	-5361
▁autumn	-5362
▁dining	-5363
▁stayed	-5364
▁lightly	-5365
▁shouldn	-5366
▁spanish	-5367
▁swiftly	-5368
▁intimate	-5369
ola	-5370
iven	-5371
▁intr	-5372
▁china	-5373
▁doctr	-5374
▁rifle	-5375
▁staff	-5376
▁turns	-5377
▁applic	-5378
▁attent	-5379
▁fitted	-5380
▁descend	-5381
▁disturb	-5382
▁describe	-5383
▁industry	-5384
▁meantime	-5385
▁execution	-5386
▁interview	-5387
▁convention	-5388
ana	-5389
rim	-5390
▁bol	-5391
▁mos	-5392
▁sne	-5393
liest	-5394
▁deny	-5395
▁rear	-5396
▁sust	-5397
▁twil	-5398
encies	-5399
ension	-5400
▁cared	-5401
▁cease	-5402
▁tones	-5403
▁guards	-5404
▁hatred	-5405
▁rivers	-5406
▁concent	-5407
▁failure	-5408
▁heavens	-5409
▁sharply	-5410
▁shelter	-5411
▁someone	-5412
▁comprehe	-5413
▁fastened	-5414
▁centuries	-5415
▁fashioned	-5416
▁multitude	-5417
ata	-5418
bow	-5419
▁eve	-5420
ulate	-5421
▁beth	-5422
▁heap	-5423
▁inev	-5424
▁jest	-5425
ovitch	-5426
▁anthe	-5427
▁disgr	-5428
▁feder	-5429
▁sunsh	-5430
▁tobac	-5431
▁copper	-5432
▁hiding	-5433
▁labour	-5434
▁rachel	-5435
▁desires	-5436
▁smoking	-5437
▁families	-5438
▁separated	-5439
▁shakespeare	-5440
ird	-5441
▁au	-5442
▁ard	-5443
▁jan	-5444
▁jun	-5445
▁tun	-5446
ember	-5447
kward	-5448
▁anti	-5449
▁eleg	-5450
▁eyed	-5451
▁rice	-5452
▁shir	-5453
▁toss	-5454
▁unre	-5455
▁wake	-5456
▁writ	-5457
▁disag	-5458
▁homes	-5459
▁incon	-5460
▁piano	-5461
▁shrie	-5462
▁trick	-5463
▁abrupt	-5464
▁mortal	-5465
▁remote	-5466
kerchief	-5467
▁abandon	-5468
▁consult	-5469
▁phoenix	-5470
▁recover	-5471
▁sincere	-5472
▁activity	-5473
▁formerly	-5474
▁twilight	-5475
▁neighbors	-5476
▁objection	-5477
▁pretended	-5478
▁territory	-5479
▁enthusiasm	-5480
▁handkerchief	-5481
aft	-5482
eps	-5483
sed	-5484
▁anch	-5485
▁barn	-5486
▁conc	-5487
▁gown	-5488
▁laun	-5489
iverse	-5490
▁apply	-5491
▁chase	-5492
▁finds	-5493
▁fired	-5494
▁flash	-5495
▁hated	-5496
▁noted	-5497
▁recon	-5498
▁lawyer	-5499
▁awkward	-5500
▁benefit	-5501
▁central	-5502
▁acquired	-5503
▁decision	-5504
▁apartment	-5505
▁exception	-5506
▁treatment	-5507
▁englishman	-5508
▁neighbourhood	-5509
arf	-5510
atch	-5511
yard	-5512
▁asc	-5513
▁bun	-5514
▁rav	-5515
▁tie	-5516
▁wag	-5517
asper	-5518
ufact	-5519
▁beds	-5520
▁fasc	-5521
▁flow	-5522
▁obed	-5523
▁chuck	-5524
▁domin	-5525
▁inner	-5526
▁parted	-5527
▁tempor	-5528
▁washed	-5529
lessness	-5530
▁counsel	-5531
▁earlier	-5532
▁enterpr	-5533
▁monarch	-5534
▁tremend	-5535
▁bitterly	-5536
▁coloured	-5537
▁manufact	-5538
▁millions	-5539
▁buildings	-5540
▁suspected	-5541
▁consequences	-5542
eys	-5543
aine	-5544
cest	-5545
ooge	-5546
▁dil	-5547
▁ecc	-5548
▁sob	-5549
▁vex	-5550
▁oven	-5551
▁trim	-5552
pended	-5553
▁drank	-5554
▁effic	-5555
▁grasp	-5556
▁heels	-5557
umption	-5558
▁estate	-5559
▁images	-5560
▁inches	-5561
▁shield	-5562
▁display	-5563
▁forever	-5564
▁jackson	-5565
▁scrooge	-5566
▁thither	-5567
▁countess	-5568
▁drinking	-5569
▁generous	-5570
▁overcome	-5571
▁construct	-5572
▁strangers	-5573
▁exceedingly	-5574
work	-5575
▁bea	-5576
▁wol	-5577
oring	-5578
▁cake	-5579
▁craw	-5580
▁sway	-5581
▁tide	-5582
isible	-5583
▁charm	-5584
▁fatig	-5585
▁limit	-5586
▁roses	-5587
▁candle	-5588
▁closer	-5589
▁purple	-5590
▁sailed	-5591
▁dearest	-5592
▁francis	-5593
▁heavily	-5594
▁monster	-5595
▁obvious	-5596
▁articles	-5597
▁ventured	-5598
▁administr	-5599
▁ignorance	-5600
▁regarding	-5601
▁discussion	-5602
pes	-5603
▁mi	-5604
adel	-5605
▁jar	-5606
▁kid	-5607
▁ult	-5608
ishes	-5609
rated	-5610
▁bees	-5611
▁hook	-5612
▁inch	-5613
akened	-5614
▁boast	-5615
▁depos	-5616
▁satur	-5617
▁susan	-5618
▁swung	-5619
umbling	-5620
▁anthea	-5621
▁fearful	-5622
▁rolling	-5623
▁trained	-5624
▁virtues	-5625
▁imagined	-5626
▁passions	-5627
▁purposes	-5628
▁interpret	-5629
▁resolution	-5630
withstanding	-5631
fty	-5632
ache	-5633
▁vel	-5634
cript	-5635
▁cath	-5636
▁holl	-5637
▁rand	-5638
▁slee	-5639
▁spar	-5640
▁acted	-5641
▁annoy	-5642
▁asser	-5643
▁desir	-5644
▁roads	-5645
▁surre	-5646
▁branch	-5647
▁candid	-5648
▁center	-5649
▁propos	-5650
▁repent	-5651
▁retain	-5652
▁thence	-5653
▁anticip	-5654
▁eastern	-5655
▁existed	-5656
▁hearted	-5657
▁shortly	-5658
▁capacity	-5659
▁crossing	-5660
▁acknowled	-5661
▁exhausted	-5662
▁performed	-5663
▁reflected	-5664
▁uncertain	-5665
▁operations	-5666
▁notwithstanding	-5667
ago	-5668
lle	-5669
lets	-5670
▁hed	-5671
▁buff	-5672
▁heed	-5673
engers	-5674
ifying	-5675
▁afric	-5676
▁climb	-5677
▁ingen	-5678
▁levin	-5679
▁songs	-5680
▁acting	-5681
▁altern	-5682
▁anyway	-5683
▁edison	-5684
▁insist	-5685
▁prejud	-5686
▁resour	-5687
▁ability	-5688
▁beating	-5689
▁cunning	-5690
▁enjoyed	-5691
▁pretend	-5692
▁stirred	-5693
▁audience	-5694
▁disposed	-5695
▁entering	-5696
▁opinions	-5697
▁regiment	-5698
▁commander	-5699
▁persuaded	-5700
nel	-5701
uge	-5702
▁iv	-5703
▁oy	-5704
ella	-5705
uced	-5706
▁alt	-5707
▁gig	-5708
▁bake	-5709
▁bald	-5710
▁coal	-5711
▁jews	-5712
▁nois	-5713
▁pist	-5714
▁root	-5715
▁sche	-5716
▁ward	-5717
rences	-5718
▁alter	-5719
▁bible	-5720
▁chain	-5721
▁fount	-5722
▁naked	-5723
▁cattle	-5724
▁danced	-5725
▁deeper	-5726
▁flames	-5727
▁leaped	-5728
▁contact	-5729
▁disease	-5730
▁dragged	-5731
▁tobacco	-5732
▁division	-5733
▁goodness	-5734
▁grateful	-5735
▁sunshine	-5736
▁precisely	-5737
▁supported	-5738
▁intelligent	-5739
aks	-5740
apt	-5741
eal	-5742
nce	-5743
apes	-5744
lars	-5745
omed	-5746
uish	-5747
▁ree	-5748
▁wax	-5749
▁batt	-5750
▁copy	-5751
▁stag	-5752
▁weep	-5753
ctions	-5754
▁april	-5755
▁fence	-5756
▁jimmy	-5757
▁procl	-5758
fortune	-5759
▁begins	-5760
▁penetr	-5761
▁wheels	-5762
▁genuine	-5763
▁mixture	-5764
▁pockets	-5765
▁prayers	-5766
▁section	-5767
▁compared	-5768
▁comrades	-5769
▁pointing	-5770
▁province	-5771
▁solitary	-5772
▁starting	-5773
▁athenians	-5774
▁disturbed	-5775
▁misfortune	-5776
▁distinction	-5777
▁disappointed	-5778
ods	-5779
oqu	-5780
▁ta	-5781
apan	-5782
▁ark	-5783
▁rot	-5784
▁bind	-5785
▁date	-5786
▁fury	-5787
▁rein	-5788
▁stom	-5789
▁whip	-5790
▁accur	-5791
▁autom	-5792
▁cheap	-5793
▁cries	-5794
▁dirty	-5795
▁marsh	-5796
▁urged	-5797
▁wagon	-5798
▁finish	-5799
▁lesson	-5800
▁missed	-5801
▁scenes	-5802
▁string	-5803
▁summon	-5804
▁michael	-5805
▁mingled	-5806
▁pursuit	-5807
▁wishing	-5808
▁consists	-5809
▁measures	-5810
▁startled	-5811
▁apprehens	-5812
cle	-5813
ums	-5814
aign	-5815
olic	-5816
▁shy	-5817
cture	-5818
erson	-5819
▁exqu	-5820
▁fawn	-5821
▁pall	-5822
▁quit	-5823
▁sale	-5824
▁falls	-5825
▁fires	-5826
▁japan	-5827
▁lemon	-5828
▁limbs	-5829
▁owner	-5830
▁patri	-5831
▁swear	-5832
▁trace	-5833
▁wrath	-5834
▁admire	-5835
▁decide	-5836
▁encoun	-5837
▁endure	-5838
▁martin	-5839
▁masses	-5840
▁romans	-5841
▁stated	-5842
▁adopted	-5843
▁boiling	-5844
▁railroad	-5845
▁sacrific	-5846
▁sovereign	-5847
▁conviction	-5848
▁reasonable	-5849
▁necessarily	-5850
iel	-5851
▁gas	-5852
▁soc	-5853
▁tum	-5854
icing	-5855
leton	-5856
▁cann	-5857
▁deed	-5858
▁gran	-5859
▁load	-5860
▁frost	-5861
▁marks	-5862
▁stall	-5863
▁andrew	-5864
▁motive	-5865
▁perman	-5866
▁reject	-5867
▁cutting	-5868
▁deliver	-5869
▁federal	-5870
▁richard	-5871
▁weeping	-5872
▁election	-5873
▁medicine	-5874
▁committee	-5875
▁newspaper	-5876
▁succession	-5877
▁arrangement	-5878
▁independent	-5879
bly	-5880
ipe	-5881
uch	-5882
vet	-5883
anqu	-5884
▁enl	-5885
▁pup	-5886
inery	-5887
▁aged	-5888
▁cars	-5889
▁lily	-5890
▁terr	-5891
remony	-5892
udding	-5893
▁agent	-5894
▁cyril	-5895
▁drops	-5896
▁inher	-5897
▁lofty	-5898
▁mouse	-5899
▁today	-5900
▁absent	-5901
▁career	-5902
▁consol	-5903
▁driver	-5904
▁marvel	-5905
▁blessed	-5906
▁conceal	-5907
▁peasant	-5908
▁persist	-5909
▁pirates	-5910
▁suspect	-5911
▁unpleas	-5912
▁visitor	-5913
▁ceremony	-5914
▁farewell	-5915
▁politics	-5916
▁scotland	-5917
▁exquisite	-5918
▁preparing	-5919
▁reputation	-5920
▁threatened	-5921
▁wilderness	-5922
▁distinguish	-5923
ria	-5924
imer	-5925
seen	-5926
▁bra	-5927
▁arts	-5928
▁belt	-5929
▁ruff	-5930
▁feels	-5931
▁marve	-5932
▁pains	-5933
▁prair	-5934
▁stole	-5935
▁venge	-5936
ulating	-5937
▁advert	-5938
▁ancest	-5939
▁apples	-5940
▁daring	-5941
▁pierre	-5942
▁ragged	-5943
▁specul	-5944
▁artific	-5945
▁methods	-5946
▁selfish	-5947
▁thereby	-5948
▁weapons	-5949
▁absorbed	-5950
▁campaign	-5951
▁clothing	-5952
▁diamonds	-5953
▁industri	-5954
▁visitors	-5955
▁warriors	-5956
▁sensations	-5957
▁considering	-5958
▁experienced	-5959
▁possibility	-5960
▁disappointment	-5961
ado	-5962
ram	-5963
rom	-5964
ieth	-5965
keep	-5966
▁dus	-5967
▁bond	-5968
▁brig	-5969
▁emma	-5970
▁flut	-5971
▁pole	-5972
▁rays	-5973
▁sept	-5974
▁burnt	-5975
▁ashore	-5976
▁column	-5977
▁defend	-5978
▁gloomy	-5979
▁marble	-5980
▁comrade	-5981
▁element	-5982
▁examine	-5983
▁plunged	-5984
▁resting	-5985
▁shepher	-5986
▁slender	-5987
▁springs	-5988
▁stomach	-5989
▁prevented	-5990
▁engagement	-5991
▁invitation	-5992
phy	-5993
ura	-5994
aned	-5995
outs	-5996
rily	-5997
▁jos	-5998
aping	-5999
inger	-6000
irmed	-6001
▁lane	-6002
▁lust	-6003
▁sant	-6004
▁wick	-6005
ailing	-6006
▁agnes	-6007
▁error	-6008
▁gifts	-6009
▁silly	-6010
▁county	-6011
▁depths	-6012
atherine	-6013
▁exposed	-6014
▁quarrel	-6015
▁related	-6016
▁revenge	-6017
▁whereas	-6018
▁wrapped	-6019
▁attacked	-6020
▁daylight	-6021
▁disagree	-6022
▁fortunate	-6023
▁preserved	-6024
▁tenderness	-6025
▁om	-6026
▁sie	-6027
▁sof	-6028
remon	-6029
▁chop	-6030
▁clut	-6031
▁cree	-6032
▁norm	-6033
▁plot	-6034
▁scre	-6035
▁tang	-6036
orable	-6037
▁analy	-6038
▁india	-6039
▁monte	-6040
▁compet	-6041
▁gallop	-6042
▁landed	-6043
▁shaped	-6044
▁unlike	-6045
▁victor	-6046
▁volunt	-6047
ological	-6048
▁grounds	-6049
▁opposed	-6050
▁contrast	-6051
▁danglars	-6052
▁heartily	-6053
▁presents	-6054
▁condemned	-6055
bon	-6056
isk	-6057
pri	-6058
rav	-6059
▁atl	-6060
▁tig	-6061
▁cens	-6062
▁clay	-6063
▁pile	-6064
▁stol	-6065
▁tour	-6066
icable	-6067
▁agric	-6068
▁deeds	-6069
▁dimin	-6070
▁dried	-6071
▁linen	-6072
▁merch	-6073
▁moist	-6074
▁sheet	-6075
▁smart	-6076
natural	-6077
▁arrive	-6078
▁finest	-6079
▁scheme	-6080
▁depends	-6081
▁schools	-6082
▁changing	-6083
▁demonstr	-6084
▁disgrace	-6085
▁thirteen	-6086
▁belonging	-6087
▁receiving	-6088
▁unpleasant	-6089
pir	-6090
uer	-6091
back	-6092
inth	-6093
othy	-6094
rels	-6095
uary	-6096
▁lun	-6097
▁net	-6098
ients	-6099
oston	-6100
uting	-6101
▁butt	-6102
▁encl	-6103
▁frog	-6104
▁seas	-6105
▁shoe	-6106
▁temp	-6107
▁ashes	-6108
▁ceter	-6109
▁frown	-6110
▁overw	-6111
▁quart	-6112
▁renew	-6113
▁vivid	-6114
▁boston	-6115
▁income	-6116
▁philip	-6117
▁robber	-6118
▁charged	-6119
▁corrupt	-6120
▁disgust	-6121
▁pulling	-6122
▁raising	-6123
▁heavenly	-6124
▁pressure	-6125
▁socrates	-6126
▁upstairs	-6127
▁anxiously	-6128
▁ascertain	-6129
▁secretary	-6130
▁struggling	-6131
▁examination	-6132
hib	-6133
rog	-6134
case	-6135
inte	-6136
▁diff	-6137
▁glow	-6138
▁puff	-6139
▁vote	-6140
actory	-6141
▁appet	-6142
▁awoke	-6143
▁flock	-6144
▁irres	-6145
▁owing	-6146
▁timid	-6147
▁amelia	-6148
▁brings	-6149
▁cetera	-6150
▁louise	-6151
▁portra	-6152
▁prohib	-6153
▁provin	-6154
▁chimney	-6155
▁dismiss	-6156
▁distrib	-6157
▁gardens	-6158
▁guessed	-6159
▁aristocr	-6160
▁touching	-6161
▁instances	-6162
▁vengeance	-6163
alla	-6164
▁lee	-6165
▁wig	-6166
▁woo	-6167
▁gang	-6168
▁sire	-6169
▁tick	-6170
▁brood	-6171
▁fetch	-6172
▁trump	-6173
▁divers	-6174
▁freely	-6175
▁precip	-6176
▁recent	-6177
▁undoub	-6178
▁volume	-6179
▁essence	-6180
▁fathers	-6181
▁tablesp	-6182
▁silently	-6183
▁statement	-6184
▁procession	-6185
nie	-6186
▁rh	-6187
iece	-6188
▁owe	-6189
usive	-6190
▁bush	-6191
▁desk	-6192
▁ener	-6193
▁hint	-6194
▁perf	-6195
▁slew	-6196
▁slip	-6197
▁whit	-6198
uously	-6199
▁arise	-6200
▁basin	-6201
▁disgu	-6202
▁jones	-6203
▁paint	-6204
▁parad	-6205
▁shirt	-6206
▁sixth	-6207
▁spell	-6208
oration	-6209
▁cotton	-6210
▁scarec	-6211
▁flashed	-6212
▁gallery	-6213
▁prepare	-6214
▁scarlet	-6215
▁wanting	-6216
▁contents	-6217
▁exchange	-6218
▁favorite	-6219
▁relative	-6220
▁trembled	-6221
▁universe	-6222
▁confident	-6223
▁including	-6224
▁intervals	-6225
▁machinery	-6226
▁convenient	-6227
▁distinctly	-6228
▁suggestion	-6229
▁inclination	-6230
▁instruments	-6231
▁practically	-6232
att	-6233
▁bid	-6234
▁ion	-6235
▁ted	-6236
▁tip	-6237
▁vib	-6238
abled	-6239
▁cock	-6240
▁cryst	-6241
▁dwarf	-6242
▁overl	-6243
▁risen	-6244
▁sober	-6245
▁steal	-6246
▁feeble	-6247
▁handle	-6248
▁incred	-6249
▁isabel	-6250
▁issued	-6251
▁lasted	-6252
▁lovers	-6253
▁quiver	-6254
▁advised	-6255
▁gesture	-6256
▁impulse	-6257
▁sailors	-6258
▁satisfy	-6259
▁speaker	-6260
▁awakened	-6261
▁betrayed	-6262
▁commonly	-6263
▁confined	-6264
▁conflict	-6265
▁revealed	-6266
▁published	-6267
▁undoubted	-6268
▁democratic	-6269
▁perfection	-6270
▁resistance	-6271
▁impressions	-6272
▁individuals	-6273
rey	-6274
sing	-6275
▁ath	-6276
▁han	-6277
▁rud	-6278
after	-6279
force	-6280
▁anna	-6281
▁pony	-6282
ifully	-6283
▁avail	-6284
▁faded	-6285
▁rider	-6286
▁glacier	-6287
▁princes	-6288
▁streams	-6289
▁confused	-6290
▁elements	-6291
▁relieved	-6292
▁americans	-6293
▁earnestly	-6294
▁gathering	-6295
▁advantages	-6296
▁tremendous	-6297
▁administration	-6298
of	-6299
arn	-6300
▁ire	-6301
ilton	-6302
place	-6303
▁bron	-6304
▁deem	-6305
▁fame	-6306
▁hann	-6307
▁otto	-6308
▁folly	-6309
▁holds	-6310
▁jason	-6311
▁minor	-6312
▁mourn	-6313
▁roots	-6314
▁spear	-6315
▁waved	-6316
amation	-6317
▁chairs	-6318
▁insult	-6319
▁jewels	-6320
▁loaded	-6321
▁minded	-6322
▁obeyed	-6323
ulations	-6324
▁declare	-6325
▁expense	-6326
▁russian	-6327
▁wherein	-6328
▁florence	-6329
▁overwhel	-6330
▁suitable	-6331
▁conceived	-6332
▁protested	-6333
▁prosperity	-6334
ante	-6335
ills	-6336
umbs	-6337
▁ske	-6338
iency	-6339
ribly	-6340
▁astr	-6341
▁bars	-6342
▁duck	-6343
▁hull	-6344
▁joke	-6345
▁jude	-6346
▁sink	-6347
▁stim	-6348
▁exert	-6349
▁idiot	-6350
▁potat	-6351
▁rigid	-6352
▁trunk	-6353
itating	-6354
▁folded	-6355
▁gladly	-6356
▁laying	-6357
▁monkey	-6358
▁reluct	-6359
▁transl	-6360
▁channel	-6361
▁cleared	-6362
▁limited	-6363
▁regards	-6364
▁savages	-6365
▁steamer	-6366
▁abruptly	-6367
▁economic	-6368
▁fortunes	-6369
▁saturday	-6370
▁shouting	-6371
▁stopping	-6372
▁certainty	-6373
▁expecting	-6374
▁favourite	-6375
▁invisible	-6376
▁lightning	-6377
▁september	-6378
met	-6379
rep	-6380
oons	-6381
rate	-6382
▁dug	-6383
cules	-6384
itute	-6385
thren	-6386
▁andy	-6387
▁estr	-6388
▁kenn	-6389
▁mans	-6390
▁pool	-6391
▁rese	-6392
▁summ	-6393
▁tore	-6394
inence	-6395
racted	-6396
▁behav	-6397
▁harsh	-6398
▁merit	-6399
▁mould	-6400
▁owned	-6401
▁peril	-6402
▁ruins	-6403
▁shrew	-6404
▁spani	-6405
▁avenue	-6406
▁detail	-6407
▁eldest	-6408
▁resent	-6409
▁weapon	-6410
▁brethren	-6411
▁cardinal	-6412
▁external	-6413
▁floating	-6414
▁propriet	-6415
▁solitude	-6416
▁standard	-6417
▁indicated	-6418
▁containing	-6419
▁increasing	-6420
▁simplicity	-6421
▁characteristic	-6422
gs	-6423
hew	-6424
lon	-6425
ule	-6426
coat	-6427
onic	-6428
▁jen	-6429
▁pav	-6430
ashes	-6431
burgh	-6432
enses	-6433
▁blew	-6434
▁brut	-6435
▁enjo	-6436
▁fanc	-6437
▁goat	-6438
▁mail	-6439
▁merc	-6440
▁mock	-6441
▁pope	-6442
▁slid	-6443
▁sunk	-6444
▁warn	-6445
otions	-6446
▁adorn	-6447
▁balls	-6448
▁bells	-6449
▁blown	-6450
▁irrit	-6451
▁legal	-6452
▁lions	-6453
▁pitch	-6454
▁porth	-6455
▁sadly	-6456
▁using	-6457
inating	-6458
▁anchor	-6459
▁armies	-6460
▁assume	-6461
▁calmly	-6462
▁refuge	-6463
▁shells	-6464
▁shores	-6465
▁stolen	-6466
▁average	-6467
▁avoided	-6468
▁cavalry	-6469
▁ceremon	-6470
▁dischar	-6471
▁dreamed	-6472
▁happily	-6473
▁killing	-6474
▁landing	-6475
▁leaders	-6476
▁thanked	-6477
▁devotion	-6478
▁equality	-6479
▁interior	-6480
▁moderate	-6481
▁philadel	-6482
▁rational	-6483
▁requires	-6484
▁commenced	-6485
▁constance	-6486
▁disappear	-6487
▁innocence	-6488
▁privilege	-6489
▁reference	-6490
▁scarecrow	-6491
▁wherefore	-6492
▁accomplish	-6493
▁fortunately	-6494
▁proposition	-6495
isto	-6496
▁mul	-6497
▁tap	-6498
▁wip	-6499
▁cure	-6500
▁damp	-6501
▁gret	-6502
▁jean	-6503
▁roar	-6504
▁tops	-6505
leness	-6506
▁dwelt	-6507
▁total	-6508
▁groups	-6509
▁heroes	-6510
▁lively	-6511
▁magnet	-6512
▁plains	-6513
▁remove	-6514
▁turkey	-6515
▁chopped	-6516
▁forests	-6517
▁funeral	-6518
▁porthos	-6519
▁senator	-6520
▁studied	-6521
▁torment	-6522
▁existing	-6523
▁promptly	-6524
▁security	-6525
▁shepherd	-6526
▁completed	-6527
▁continent	-6528
▁generation	-6529
▁sentiments	-6530
▁disagreeable	-6531
▁tablespoonful	-6532
da	-6533
ipl	-6534
omb	-6535
▁dew	-6536
▁mic	-6537
▁oct	-6538
▁pel	-6539
▁psy	-6540
▁umb	-6541
▁vul	-6542
▁woe	-6543
alled	-6544
▁bart	-6545
▁bone	-6546
▁bred	-6547
▁davy	-6548
▁mast	-6549
▁mule	-6550
▁prow	-6551
▁rows	-6552
▁spin	-6553
▁vine	-6554
ensity	-6555
iation	-6556
usions	-6557
▁agony	-6558
▁cards	-6559
▁creek	-6560
▁funny	-6561
▁issue	-6562
▁kitty	-6563
▁landl	-6564
▁poets	-6565
▁porch	-6566
▁sweep	-6567
▁tales	-6568
▁carved	-6569
▁coward	-6570
▁psmith	-6571
▁sports	-6572
▁struct	-6573
▁alarmed	-6574
▁founded	-6575
▁lessons	-6576
▁accounts	-6577
▁hercules	-6578
▁jealousy	-6579
▁mischief	-6580
▁training	-6581
▁amusement	-6582
▁childhood	-6583
▁encounter	-6584
▁frightful	-6585
▁preferred	-6586
▁department	-6587
▁motionless	-6588
▁newspapers	-6589
▁indifference	-6590
▁philadelphia	-6591
▁thoughtfully	-6592
ari	-6593
ean	-6594
low	-6595
rup	-6596
▁cu	-6597
ilet	-6598
lers	-6599
omon	-6600
ores	-6601
rain	-6602
sell	-6603
utor	-6604
assed	-6605
icted	-6606
▁bund	-6607
▁hasn	-6608
▁push	-6609
idents	-6610
▁appar	-6611
▁champ	-6612
▁grows	-6613
▁incap	-6614
▁lords	-6615
rection	-6616
welling	-6617
▁cristo	-6618
▁deadly	-6619
▁dishes	-6620
▁editor	-6621
▁footst	-6622
▁harris	-6623
▁horrid	-6624
▁meadow	-6625
▁porter	-6626
▁vanity	-6627
▁admired	-6628
▁charity	-6629
▁injured	-6630
▁oppress	-6631
▁regions	-6632
▁romance	-6633
▁deceived	-6634
▁garments	-6635
▁gracious	-6636
▁reported	-6637
▁sergeant	-6638
▁catherine	-6639
▁moonlight	-6640
▁maintained	-6641
▁permission	-6642
▁indignation	-6643
▁respectable	-6644
gu	-6645
ban	-6646
sis	-6647
▁og	-6648
oths	-6649
ucky	-6650
▁alm	-6651
▁ast	-6652
▁bub	-6653
▁dad	-6654
▁sme	-6655
▁stu	-6656
agues	-6657
inald	-6658
▁idle	-6659
▁impe	-6660
▁link	-6661
▁mare	-6662
▁nove	-6663
▁penn	-6664
▁text	-6665
▁eloqu	-6666
▁entit	-6667
▁pages	-6668
▁tribe	-6669
chester	-6670
▁collar	-6671
▁engage	-6672
▁exists	-6673
▁immort	-6674
▁prayed	-6675
▁teleph	-6676
▁tranqu	-6677
▁yonder	-6678
▁bedroom	-6679
▁gravely	-6680
▁inquiry	-6681
▁meadows	-6682
▁seconds	-6683
▁seventh	-6684
▁shudder	-6685
▁doctrine	-6686
▁hurrying	-6687
▁stirring	-6688
▁supplied	-6689
▁supplies	-6690
▁treacher	-6691
▁enjoyment	-6692
▁pronounced	-6693
▁neighborhood	-6694
▁ay	-6695
dles	-6696
iour	-6697
mans	-6698
pled	-6699
▁ded	-6700
▁kar	-6701
▁nom	-6702
▁pac	-6703
▁vin	-6704
aning	-6705
lance	-6706
▁deaf	-6707
▁dumb	-6708
▁envy	-6709
▁kent	-6710
▁moss	-6711
▁palm	-6712
idding	-6713
▁anton	-6714
▁dense	-6715
▁gorge	-6716
▁indic	-6717
▁patch	-6718
▁ranks	-6719
▁revel	-6720
▁thief	-6721
▁cliffs	-6722
▁denied	-6723
▁haired	-6724
▁injury	-6725
▁intend	-6726
▁interc	-6727
▁losing	-6728
▁loudly	-6729
▁ruined	-6730
▁uneasy	-6731
▁comment	-6732
▁dangers	-6733
▁glimpse	-6734
▁hideous	-6735
▁railway	-6736
▁whither	-6737
▁estralla	-6738
▁inferior	-6739
▁rejoined	-6740
▁selected	-6741
▁resources	-6742
▁conception	-6743
▁determination	-6744
cca	-6745
anim	-6746
▁ape	-6747
ifted	-6748
▁cush	-6749
▁glit	-6750
▁july	-6751
▁apost	-6752
▁brass	-6753
▁brisk	-6754
▁dutch	-6755
▁holes	-6756
▁irreg	-6757
▁keeps	-6758
▁monot	-6759
▁penny	-6760
▁spain	-6761
iveness	-6762
▁francs	-6763
▁ladder	-6764
▁mutual	-6765
▁namely	-6766
▁oliver	-6767
▁passes	-6768
▁rubbed	-6769
▁sunset	-6770
▁derived	-6771
▁johnson	-6772
▁percept	-6773
▁clearing	-6774
▁creation	-6775
▁felicity	-6776
▁persuade	-6777
▁romantic	-6778
▁displayed	-6779
▁irregular	-6780
▁pleasures	-6781
▁reasoning	-6782
▁responded	-6783
▁sensitive	-6784
▁transform	-6785
▁uncomfort	-6786
▁association	-6787
▁legislature	-6788
aur	-6789
lyn	-6790
yon	-6791
gent	-6792
gram	-6793
oral	-6794
uity	-6795
▁cub	-6796
▁fid	-6797
▁lav	-6798
▁map	-6799
▁pip	-6800
▁sew	-6801
olent	-6802
▁budd	-6803
▁crou	-6804
▁enqu	-6805
▁eust	-6806
▁evol	-6807
▁fant	-6808
▁fest	-6809
▁foul	-6810
▁glen	-6811
▁grin	-6812
▁jail	-6813
▁toil	-6814
keness	-6815
verted	-6816
▁brook	-6817
▁motor	-6818
▁santa	-6819
▁twent	-6820
▁vigor	-6821
▁wreck	-6822
ictions	-6823
▁defeat	-6824
▁indisp	-6825
▁judges	-6826
▁policy	-6827
▁repose	-6828
▁specim	-6829
▁traged	-6830
▁ireland	-6831
▁largest	-6832
▁longing	-6833
▁parting	-6834
▁pudding	-6835
▁remarks	-6836
▁torture	-6837
▁hopeless	-6838
▁youngest	-6839
▁complaint	-6840
▁elsewhere	-6841
▁endeavour	-6842
▁imperfect	-6843
▁whereupon	-6844
▁associated	-6845
▁thoughtful	-6846
▁undoubtedly	-6847
min	-6848
acks	-6849
eous	-6850
oise	-6851
▁gab	-6852
▁sel	-6853
▁bags	-6854
▁caes	-6855
▁coin	-6856
▁deer	-6857
▁flee	-6858
▁knee	-6859
▁slop	-6860
▁team	-6861
▁tort	-6862
▁wilt	-6863
cribed	-6864
▁based	-6865
▁grove	-6866
▁latin	-6867
▁rocky	-6868
▁scott	-6869
▁spoon	-6870
▁durham	-6871
▁firing	-6872
▁judged	-6873
▁melted	-6874
▁murmur	-6875
▁streng	-6876
▁unjust	-6877
▁bending	-6878
▁conspic	-6879
▁floated	-6880
▁gallant	-6881
▁incense	-6882
▁magistr	-6883
▁musical	-6884
▁planted	-6885
▁prairie	-6886
▁precaut	-6887
▁provide	-6888
▁solomon	-6889
▁trusted	-6890
▁assembly	-6891
▁churches	-6892
▁curtains	-6893
▁punished	-6894
▁vigorous	-6895
▁strangely	-6896
▁swallowed	-6897
▁adventures	-6898
▁collection	-6899
▁enterprise	-6900
▁travellers	-6901
▁intercourse	-6902
▁instructions	-6903
eg	-6904
▁gy	-6905
olas	-6906
olet	-6907
rane	-6908
ulus	-6909
▁foe	-6910
▁pul	-6911
▁yer	-6912
iforn	-6913
uming	-6914
▁fert	-6915
▁fogg	-6916
▁rosy	-6917
▁runs	-6918
▁vest	-6919
itudes	-6920
▁ambit	-6921
▁bloss	-6922
▁brute	-6923
▁coron	-6924
▁incom	-6925
▁laura	-6926
▁prime	-6927
▁quoth	-6928
▁scale	-6929
amental	-6930
▁betray	-6931
▁phrase	-6932
▁punish	-6933
▁speaks	-6934
▁stores	-6935
▁amiable	-6936
▁breathe	-6937
▁journal	-6938
▁largely	-6939
▁outward	-6940
▁theatre	-6941
▁blessing	-6942
▁californ	-6943
▁combined	-6944
▁dwelling	-6945
▁inspired	-6946
▁measured	-6947
▁peaceful	-6948
▁reminded	-6949
▁assistant	-6950
▁impressed	-6951
▁ministers	-6952
▁physician	-6953
▁spectacle	-6954
▁supposing	-6955
▁occupation	-6956
▁surrounding	-6957
▁preparations	-6958
onom	-6959
▁lur	-6960
ridge	-6961
▁dram	-6962
▁halt	-6963
▁nich	-6964
▁poly	-6965
▁rect	-6966
▁soup	-6967
▁spur	-6968
▁subl	-6969
▁veil	-6970
▁backs	-6971
▁percy	-6972
▁psych	-6973
▁tenth	-6974
▁butler	-6975
▁crumbs	-6976
▁discer	-6977
▁dishon	-6978
▁dragon	-6979
▁extrem	-6980
▁kenned	-6981
▁miller	-6982
▁retire	-6983
▁stroke	-6984
▁throng	-6985
ountered	-6986
▁balance	-6987
▁britain	-6988
▁conquer	-6989
▁corners	-6990
▁counted	-6991
▁defence	-6992
▁despite	-6993
▁dorothy	-6994
▁endless	-6995
▁fishing	-6996
▁medical	-6997
▁motives	-6998
▁natured	-6999
▁conceive	-7000
▁hamilton	-7001
▁offering	-7002
▁recently	-7003
▁transfer	-7004
▁collected	-7005
▁curiously	-7006
▁effective	-7007
▁fortnight	-7008
▁messenger	-7009
▁transport	-7010
▁neighbours	-7011
▁improvement	-7012
▁satisfactory	-7013
cope	-7014
rian	-7015
▁lum	-7016
▁mol	-7017
▁ral	-7018
▁bend	-7019
▁carr	-7020
▁cass	-7021
▁fors	-7022
▁inse	-7023
▁knot	-7024
aining	-7025
itious	-7026
olence	-7027
▁ellen	-7028
▁etern	-7029
▁leads	-7030
▁seren	-7031
▁solic	-7032
▁spots	-7033
▁twink	-7034
▁twist	-7035
itality	-7036
▁easier	-7037
▁eighth	-7038
▁inward	-7039
▁liquid	-7040
▁verses	-7041
▁wasted	-7042
▁carpent	-7043
▁crimson	-7044
▁discipl	-7045
▁discour	-7046
▁illness	-7047
▁kennedy	-7048
▁wonders	-7049
▁appropri	-7050
▁educated	-7051
▁emphasis	-7052
▁irresist	-7053
▁literary	-7054
▁november	-7055
▁overhead	-7056
▁referred	-7057
▁strictly	-7058
▁attracted	-7059
▁believing	-7060
▁breathing	-7061
▁obedience	-7062
▁obviously	-7063
▁passengers	-7064
▁proceeding	-7065
▁encountered	-7066
▁arrangements	-7067
agg	-7068
ena	-7069
anda	-7070
eled	-7071
odor	-7072
rors	-7073
▁alf	-7074
▁dou	-7075
▁gil	-7076
▁jam	-7077
lands	-7078
▁bert	-7079
▁bust	-7080
▁cash	-7081
▁dine	-7082
▁dost	-7083
▁doth	-7084
▁phot	-7085
▁stub	-7086
▁tram	-7087
▁wret	-7088
herent	-7089
▁humor	-7090
▁miser	-7091
▁sheer	-7092
▁stove	-7093
▁tramp	-7094
▁aboard	-7095
▁albert	-7096
▁boffin	-7097
▁colors	-7098
▁harmon	-7099
▁lament	-7100
▁landsc	-7101
▁longed	-7102
▁paying	-7103
▁rarely	-7104
▁rescue	-7105
▁robbed	-7106
▁roused	-7107
▁screen	-7108
▁shrewd	-7109
▁theirs	-7110
▁achieve	-7111
▁battery	-7112
▁conject	-7113
▁feature	-7114
▁flushed	-7115
▁natives	-7116
▁serpent	-7117
▁backward	-7118
▁captured	-7119
▁likeness	-7120
▁peasants	-7121
▁reproach	-7122
▁stricken	-7123
▁conducted	-7124
▁confessed	-7125
▁consented	-7126
▁delicious	-7127
▁extensive	-7128
▁followers	-7129
▁merchants	-7130
▁california	-7131
▁compassion	-7132
▁application	-7133
ji	-7134
chn	-7135
ula	-7136
▁wy	-7137
greg	-7138
ilus	-7139
▁doc	-7140
▁gos	-7141
▁ket	-7142
▁lip	-7143
allen	-7144
▁bows	-7145
▁cape	-7146
▁dash	-7147
▁flav	-7148
▁goss	-7149
▁prod	-7150
▁vary	-7151
▁bears	-7152
▁boxes	-7153
▁creep	-7154
▁defin	-7155
▁ridge	-7156
▁rival	-7157
▁siege	-7158
▁tools	-7159
▁bloody	-7160
▁contri	-7161
▁dashed	-7162
▁dissol	-7163
▁enable	-7164
▁explos	-7165
▁extend	-7166
▁friday	-7167
▁naught	-7168
▁prosec	-7169
▁resign	-7170
▁select	-7171
▁survey	-7172
▁tumult	-7173
▁furious	-7174
▁glowing	-7175
▁deprived	-7176
▁function	-7177
▁respects	-7178
▁arguments	-7179
▁recommend	-7180
▁bewildered	-7181
▁cheerfully	-7182
▁intentions	-7183
▁ridiculous	-7184
▁travelling	-7185
▁expectation	-7186
▁independence	-7187
▁observations	-7188
ba	-7189
la	-7190
asy	-7191
aus	-7192
oor	-7193
tha	-7194
acon	-7195
fold	-7196
▁ink	-7197
▁mah	-7198
apsed	-7199
orrow	-7200
ravag	-7201
▁bapt	-7202
▁bite	-7203
▁boot	-7204
▁conj	-7205
▁naut	-7206
▁pint	-7207
▁reef	-7208
▁stew	-7209
▁whir	-7210
▁blast	-7211
▁brist	-7212
▁eagle	-7213
▁edith	-7214
▁georg	-7215
▁simon	-7216
▁sulph	-7217
▁artist	-7218
▁borrow	-7219
▁caesar	-7220
▁limits	-7221
▁luxury	-7222
▁resort	-7223
▁senate	-7224
▁submit	-7225
▁chances	-7226
▁deserve	-7227
▁fatigue	-7228
▁wealthy	-7229
▁yielded	-7230
ibilities	-7231
▁asserted	-7232
▁disorder	-7233
▁emotions	-7234
▁entitled	-7235
▁extravag	-7236
▁graceful	-7237
▁positive	-7238
▁restored	-7239
▁tenderly	-7240
▁tomorrow	-7241
▁accompany	-7242
▁assurance	-7243
▁consisted	-7244
▁justified	-7245
▁cautiously	-7246
▁comprehens	-7247
▁employment	-7248
▁hesitation	-7249
▁politeness	-7250
▁authorities	-7251
▁recognition	-7252
▁unfortunately	-7253
ih	-7254
fly	-7255
gom	-7256
oot	-7257
sky	-7258
tes	-7259
ties	-7260
▁fry	-7261
▁les	-7262
▁tid	-7263
▁fain	-7264
▁gulf	-7265
▁lots	-7266
ulties	-7267
▁clerk	-7268
▁embro	-7269
▁illum	-7270
▁intol	-7271
▁jacob	-7272
▁jolly	-7273
▁loyal	-7274
▁nails	-7275
▁navig	-7276
▁squir	-7277
▁wages	-7278
▁cheese	-7279
▁impuls	-7280
▁jacket	-7281
▁remedy	-7282
▁signed	-7283
▁vulgar	-7284
▁waking	-7285
▁warmth	-7286
▁warned	-7287
▁aroused	-7288
▁caution	-7289
▁ceiling	-7290
▁cruelty	-7291
▁customs	-7292
▁propose	-7293
▁stretch	-7294
▁superst	-7295
▁attempts	-7296
▁breathed	-7297
▁gardener	-7298
▁infantry	-7299
▁monaster	-7300
▁nicholas	-7301
▁sprinkle	-7302
▁agreement	-7303
▁confirmed	-7304
▁faculties	-7305
▁footsteps	-7306
▁greatness	-7307
▁henriette	-7308
▁introduce	-7309
▁permanent	-7310
▁travelled	-7311
▁artificial	-7312
▁literature	-7313
▁performance	-7314
▁acknowledged	-7315
▁establishment	-7316
ko	-7317
arded	-7318
asion	-7319
ernal	-7320
hesis	-7321
iving	-7322
▁lend	-7323
▁symb	-7324
▁thie	-7325
▁vice	-7326
▁woke	-7327
keeper	-7328
resses	-7329
▁arrow	-7330
▁darcy	-7331
▁mustn	-7332
achment	-7333
▁advise	-7334
▁anyhow	-7335
▁errand	-7336
▁johnny	-7337
▁mirror	-7338
▁monday	-7339
▁prodig	-7340
▁rebell	-7341
▁scotch	-7342
▁tribes	-7343
▁chicken	-7344
▁harbour	-7345
▁helping	-7346
▁letting	-7347
▁missing	-7348
▁patriot	-7349
▁records	-7350
▁arrested	-7351
▁bestowed	-7352
▁catching	-7353
▁nautilus	-7354
▁offended	-7355
▁preserve	-7356
▁restless	-7357
▁retorted	-7358
▁solemnly	-7359
▁suffrage	-7360
▁sunlight	-7361
▁visiting	-7362
▁remainder	-7363
▁willingly	-7364
▁celebrated	-7365
▁downstairs	-7366
▁foundation	-7367
acc	-7368
ded	-7369
tur	-7370
hire	-7371
port	-7372
▁axe	-7373
▁elm	-7374
▁mob	-7375
▁sem	-7376
aving	-7377
forth	-7378
heart	-7379
▁disd	-7380
▁monk	-7381
▁muse	-7382
▁shru	-7383
▁sins	-7384
▁sofa	-7385
▁tebr	-7386
aments	-7387
▁amend	-7388
▁cares	-7389
▁crest	-7390
▁discl	-7391
▁juice	-7392
▁lodge	-7393
▁nancy	-7394
▁paths	-7395
▁print	-7396
▁prisc	-7397
▁terry	-7398
▁vital	-7399
▁access	-7400
▁brains	-7401
▁ginger	-7402
▁nerves	-7403
▁orange	-7404
▁riches	-7405
▁saving	-7406
▁upward	-7407
▁velvet	-7408
▁candles	-7409
▁charlot	-7410
▁demands	-7411
▁eustace	-7412
▁exagger	-7413
▁holland	-7414
▁induced	-7415
▁secured	-7416
▁sinking	-7417
▁upright	-7418
▁careless	-7419
▁contains	-7420
▁imprison	-7421
▁invented	-7422
▁resolute	-7423
▁speedily	-7424
▁swimming	-7425
▁alexander	-7426
▁landscape	-7427
▁searching	-7428
▁treasures	-7429
▁settlement	-7430
▁affectionate	-7431
▁uncomfortable	-7432
opl	-7433
rov	-7434
lock	-7435
orus	-7436
vant	-7437
inese	-7438
▁abol	-7439
▁boss	-7440
▁bowl	-7441
▁debt	-7442
▁ding	-7443
▁elab	-7444
▁keys	-7445
▁lace	-7446
▁lege	-7447
▁nora	-7448
▁pump	-7449
▁shan	-7450
licted	-7451
▁adopt	-7452
▁allah	-7453
▁calam	-7454
▁cloak	-7455
▁dougl	-7456
▁drain	-7457
▁freck	-7458
▁keith	-7459
▁route	-7460
▁alight	-7461
▁baking	-7462
▁cannon	-7463
▁cooked	-7464
▁facing	-7465
▁harder	-7466
▁keeper	-7467
▁mathem	-7468
▁perish	-7469
▁profit	-7470
▁shaken	-7471
▁sticks	-7472
▁strang	-7473
▁summit	-7474
▁swords	-7475
▁tossed	-7476
▁anguish	-7477
▁babylon	-7478
▁contest	-7479
▁dispute	-7480
▁doorway	-7481
▁drowned	-7482
▁hostile	-7483
▁neglect	-7484
▁obscure	-7485
▁rushing	-7486
▁torrent	-7487
▁wrought	-7488
▁attained	-7489
▁murdered	-7490
▁pleasing	-7491
▁recalled	-7492
▁situated	-7493
▁answering	-7494
▁perpetual	-7495
▁priscilla	-7496
▁provision	-7497
▁comparison	-7498
▁encouraged	-7499
▁sufferings	-7500
▁temptation	-7501
▁yourselves	-7502
▁picturesque	-7503
nut	-7504
grim	-7505
▁eug	-7506
aired	-7507
gence	-7508
▁beck	-7509
▁chic	-7510
▁chip	-7511
▁elev	-7512
▁isol	-7513
▁maga	-7514
▁rend	-7515
▁sets	-7516
▁virg	-7517
▁blows	-7518
▁lakes	-7519
▁likes	-7520
▁rings	-7521
▁rises	-7522
itively	-7523
▁claims	-7524
▁columb	-7525
▁parish	-7526
▁visits	-7527
▁embrace	-7528
▁forming	-7529
▁healthy	-7530
▁herbert	-7531
▁holiday	-7532
▁lantern	-7533
▁liberal	-7534
▁lifting	-7535
▁nowhere	-7536
▁pouring	-7537
▁prophet	-7538
▁seeming	-7539
▁tebrick	-7540
▁umbrell	-7541
▁whoever	-7542
▁gigantic	-7543
▁japanese	-7544
▁tendency	-7545
▁advancing	-7546
▁assembled	-7547
▁fragments	-7548
▁preceding	-7549
▁telephone	-7550
▁composition	-7551
ek	-7552
bot	-7553
llo	-7554
mun	-7555
och	-7556
pel	-7557
raw	-7558
alem	-7559
iate	-7560
iron	-7561
itya	-7562
jean	-7563
xter	-7564
▁adj	-7565
▁cha	-7566
▁fog	-7567
▁sic	-7568
▁choo	-7569
▁dant	-7570
▁dome	-7571
▁hamm	-7572
▁mars	-7573
▁musk	-7574
▁stur	-7575
vering	-7576
▁abode	-7577
▁accum	-7578
▁brick	-7579
▁brows	-7580
▁bunch	-7581
▁diver	-7582
▁purse	-7583
▁shalt	-7584
▁techn	-7585
▁toast	-7586
▁wheat	-7587
▁defect	-7588
▁jasper	-7589
▁medium	-7590
▁packed	-7591
▁subtle	-7592
▁towers	-7593
▁waving	-7594
▁welcom	-7595
▁amusing	-7596
▁elegant	-7597
▁enabled	-7598
▁faculty	-7599
▁faintly	-7600
▁greeted	-7601
▁inquire	-7602
▁inspect	-7603
▁marvell	-7604
▁pilgrim	-7605
▁planned	-7606
▁reserve	-7607
▁doubtful	-7608
▁passages	-7609
▁portrait	-7610
▁potatoes	-7611
▁summoned	-7612
▁swinging	-7613
▁uncommon	-7614
▁butterfly	-7615
▁incapable	-7616
▁inquiries	-7617
▁materials	-7618
▁prevailed	-7619
▁reception	-7620
▁christians	-7621
▁occasional	-7622
▁representative	-7623
mp	-7624
bby	-7625
▁ja	-7626
anna	-7627
eman	-7628
hand	-7629
wart	-7630
▁vap	-7631
orter	-7632
orthy	-7633
▁aren	-7634
▁dame	-7635
▁dusk	-7636
▁godd	-7637
▁kick	-7638
▁lung	-7639
▁uses	-7640
▁altar	-7641
▁basis	-7642
▁cigar	-7643
▁clara	-7644
▁couch	-7645
▁fiery	-7646
▁homer	-7647
▁hypot	-7648
▁lucky	-7649
▁paces	-7650
▁slope	-7651
▁squee	-7652
▁stare	-7653
▁sympt	-7654
▁upset	-7655
▁walks	-7656
▁barely	-7657
▁cellar	-7658
▁coarse	-7659
▁decent	-7660
▁insens	-7661
▁marian	-7662
▁monstr	-7663
▁needle	-7664
▁owners	-7665
▁wounds	-7666
atically	-7667
▁awaited	-7668
▁challen	-7669
▁conserv	-7670
▁cooking	-7671
▁crushed	-7672
▁dislike	-7673
▁douglas	-7674
▁offices	-7675
▁criminal	-7676
▁december	-7677
▁deserved	-7678
▁dropping	-7679
▁enjoying	-7680
▁feathers	-7681
▁mourning	-7682
▁polished	-7683
▁pressing	-7684
▁customary	-7685
▁detective	-7686
▁languages	-7687
▁primitive	-7688
▁spaniards	-7689
▁structure	-7690
▁surrender	-7691
▁twentieth	-7692
▁commercial	-7693
▁previously	-7694
▁questioned	-7695
▁conspicuous	-7696
▁probability	-7697
▁responsible	-7698
any	-7699
esy	-7700
osa	-7701
▁fy	-7702
▁gn	-7703
▁tu	-7704
aser	-7705
chio	-7706
cian	-7707
omin	-7708
▁ade	-7709
▁bud	-7710
▁nan	-7711
▁nep	-7712
▁sag	-7713
eling	-7714
rious	-7715
▁barg	-7716
▁dirt	-7717
▁haul	-7718
▁jeff	-7719
▁nigh	-7720
▁prel	-7721
▁rash	-7722
▁ratt	-7723
▁rugg	-7724
gomery	-7725
▁flies	-7726
▁jewel	-7727
▁mitya	-7728
▁perse	-7729
▁reass	-7730
▁recei	-7731
▁sarah	-7732
▁shine	-7733
▁stool	-7734
▁verse	-7735
oiselle	-7736
▁cavern	-7737
▁coffin	-7738
▁dunbar	-7739
▁eccles	-7740
▁echoed	-7741
▁fyodor	-7742
▁gasped	-7743
▁gretel	-7744
▁pillow	-7745
▁prophe	-7746
▁tracks	-7747
▁writes	-7748
▁doubted	-7749
▁elected	-7750
▁females	-7751
▁harmony	-7752
▁mothers	-7753
▁oysters	-7754
▁sailing	-7755
▁serving	-7756
▁afforded	-7757
▁appetite	-7758
▁awaiting	-7759
▁governed	-7760
▁promises	-7761
▁secretly	-7762
▁sickness	-7763
▁thankful	-7764
▁agitation	-7765
▁clergyman	-7766
▁dependent	-7767
▁formation	-7768
▁neglected	-7769
▁violently	-7770
▁surprising	-7771
▁deliberately	-7772
▁interpretation	-7773
▁responsibility	-7774
ager	-7775
atus	-7776
fere	-7777
inge	-7778
kers	-7779
ober	-7780
roll	-7781
tery	-7782
vial	-7783
▁gau	-7784
▁lic	-7785
▁mun	-7786
▁rhy	-7787
utive	-7788
▁degr	-7789
▁poem	-7790
▁tart	-7791
▁trem	-7792
▁wars	-7793
ounted	-7794
▁capit	-7795
▁chill	-7796
▁gleam	-7797
▁grind	-7798
▁guilt	-7799
▁seats	-7800
▁trous	-7801
▁adding	-7802
▁africa	-7803
▁bigger	-7804
▁boldly	-7805
▁bundle	-7806
▁chains	-7807
▁combat	-7808
▁fruits	-7809
▁impart	-7810
▁nephew	-7811
▁plates	-7812
▁altered	-7813
▁assault	-7814
▁capture	-7815
▁cousins	-7816
▁descent	-7817
▁exhaust	-7818
▁january	-7819
▁pushing	-7820
▁tremble	-7821
▁underne	-7822
▁valjean	-7823
▁winding	-7824
▁engineer	-7825
▁garrison	-7826
▁machines	-7827
▁purchase	-7828
▁solution	-7829
▁charlotte	-7830
▁falsehood	-7831
▁hurriedly	-7832
▁residence	-7833
▁staircase	-7834
▁telegraph	-7835
▁compliment	-7836
▁confession	-7837
▁acknowledge	-7838
▁beautifully	-7839
▁institution	-7840
▁underground	-7841
▁christianity	-7842
ais	-7843
bru	-7844
elf	-7845
ica	-7846
inn	-7847
ino	-7848
irs	-7849
oni	-7850
aham	-7851
heus	-7852
inea	-7853
lind	-7854
maid	-7855
orse	-7856
rers	-7857
▁cel	-7858
▁dyn	-7859
amble	-7860
arian	-7861
eding	-7862
lfare	-7863
orial	-7864
▁chau	-7865
▁chem	-7866
▁dict	-7867
▁hymn	-7868
▁mate	-7869
▁myth	-7870
▁parr	-7871
▁pled	-7872
▁pref	-7873
▁prem	-7874
▁rasc	-7875
▁ripe	-7876
▁rosa	-7877
▁wont	-7878
usalem	-7879
▁cents	-7880
▁games	-7881
▁indef	-7882
▁ordin	-7883
▁punct	-7884
▁raven	-7885
▁relax	-7886
▁scent	-7887
▁stake	-7888
▁awaken	-7889
▁russia	-7890
▁script	-7891
▁unseen	-7892
▁accused	-7893
▁appoint	-7894
▁defense	-7895
▁defined	-7896
▁dresses	-7897
▁fitting	-7898
▁flowing	-7899
▁furnish	-7900
▁justify	-7901
▁marilla	-7902
▁partner	-7903
▁shocked	-7904
▁tightly	-7905
▁welfare	-7906
▁workmen	-7907
▁agricult	-7908
▁fountain	-7909
▁inconven	-7910
▁interval	-7911
▁marching	-7912
▁scholars	-7913
▁smallest	-7914
▁withdraw	-7915
▁forbidden	-7916
▁jerusalem	-7917
▁monstrous	-7918
▁philosoph	-7919
▁complexion	-7920
▁inevitable	-7921
▁montgomery	-7922
▁providence	-7923
▁underneath	-7924
▁combination	-7925
▁constructed	-7926
▁recollection	-7927
amis	-7928
chus	-7929
gard	-7930
ique	-7931
raft	-7932
riel	-7933
▁aly	-7934
▁bib	-7935
▁oun	-7936
▁lent	-7937
▁pave	-7938
▁soap	-7939
antial	-7940
brance	-7941
itably	-7942
uerite	-7943
urable	-7944
▁blade	-7945
▁cakes	-7946
▁chant	-7947
▁curse	-7948
▁estim	-7949
▁goose	-7950
▁mules	-7951
▁newly	-7952
▁phant	-7953
▁prett	-7954
▁repet	-7955
▁sails	-7956
▁split	-7957
▁swore	-7958
aration	-7959
reshold	-7960
▁arrows	-7961
▁bodily	-7962
▁border	-7963
▁flowed	-7964
▁formal	-7965
▁graham	-7966
▁guided	-7967
▁halted	-7968
▁hearty	-7969
▁	-7970
e	-7971
t	-7972
a	-7973
o	-7974
n	-7975
i	-7976
h	-7977
s	-7978
r	-7979
d	-7980
l	-7981
u	-7982
m	-7983
c	-7984
w	-7985
f	-7986
g	-7987
y	-7988
p	-7989
b	-7990
v	-7991
k	-7992
'	-7993
x	-7994
j	-7995
q	-7996
