<unk>	0
<s>	0
</s>	0
▁the	-2.77442
▁and	-3.37071
▁of	-3.46376
▁to	-3.60446
▁a	-3.83412
▁in	-4.07514
▁he	-4.36945
▁i	-4.38246
▁that	-4.38558
▁was	-4.43103
▁it	-4.48506
▁his	-4.67216
▁with	-4.80828
▁as	-4.84462
▁for	-4.85892
▁is	-4.89462
▁had	-4.9223
▁you	-4.95511
▁her	-5.0259
▁but	-5.04528
▁not	-5.06639
▁be	-5.14704
▁she	-5.16433
▁at	-5.17658
▁on	-5.1776
▁they	-5.30224
▁by	-5.36883
▁him	-5.37171
▁this	-5.39752
▁which	-5.42768
▁have	-5.42774
▁all	-5.42918
▁from	-5.47938
▁one	-5.56733
▁my	-5.56827
▁so	-5.56877
▁said	-5.57388
▁were	-5.57533
▁me	-5.69611
▁we	-5.71963
▁or	-5.73215
▁their	-5.75292
▁are	-5.7642
▁there	-5.767
▁when	-5.77951
▁them	-5.79434
▁no	-5.79542
▁an	-5.83146
▁if	-5.8706
▁would	-5.88606
▁who	-5.92467
▁what	-5.98032
▁will	-5.9944
▁been	-6.00801
▁out	-6.03432
▁then	-6.06793
▁up	-6.07589
▁into	-6.18409
▁could	-6.19397
▁do	-6.21184
▁more	-6.21719
▁man	-6.25298
▁now	-6.28347
▁some	-6.28568
▁very	-6.30379
▁little	-6.35274
▁time	-6.37388
▁your	-6.38422
▁upon	-6.42209
▁about	-6.42598
▁like	-6.43841
▁than	-6.46129
▁any	-6.48112
▁two	-6.49227
▁only	-6.49353
▁has	-6.49789
▁did	-6.51977
▁its	-6.522
▁well	-6.5536
▁other	-6.55997
▁our	-6.58505
▁over	-6.59743
▁good	-6.6171
▁before	-6.61854
▁great	-6.62451
▁after	-6.62554
▁down	-6.6378
▁made	-6.64452
▁see	-6.64916
▁these	-6.64937
▁can	-6.65001
▁should	-6.65149
▁such	-6.65234
▁old	-6.70417
▁know	-6.7091
▁came	-6.71586
▁must	-6.72017
▁day	-6.72176
▁how	-6.75648
▁never	-6.77406
▁much	-6.7779
▁us	-6.77959
▁may	-6.78393
▁come	-6.79269
▁where	-6.79685
▁mister	-6.8077
▁first	-6.81791
▁go	-6.82369
▁way	-6.8823
▁men	-6.88658
▁long	-6.89493
▁himself	-6.90472
▁again	-6.90745
▁here	-6.91653
▁went	-6.91958
▁back	-6.92152
▁own	-6.94456
▁most	-6.97604
▁say	-6.98843
▁even	-6.99678
▁those	-7.00219
▁without	-7.00823
▁away	-7.01614
▁might	-7.02195
▁just	-7.02873
▁every	-7.03245
▁too	-7.03307
▁think	-7.03369
▁make	-7.03618
▁through	-7.04149
▁thought	-7.04904
▁life	-7.05537
▁am	-7.07137
▁many	-7.09126
▁still	-7.09323
▁shall	-7.0962
▁three	-7.10318
▁being	-7.10418
▁take	-7.10986
▁eyes	-7.11625
▁while	-7.14328
▁same	-7.16077
▁hand	-7.17105
▁nothing	-7.17964
▁found	-7.18759
▁people	-7.20366
▁place	-7.20624
▁house	-7.20846
▁last	-7.2144
▁once	-7.22188
▁yet	-7.22526
▁night	-7.23585
▁saw	-7.23814
▁off	-7.23928
▁don't	-7.24502
▁let	-7.24964
▁another	-7.26089
▁put	-7.27187
▁though	-7.28098
▁get	-7.28177
▁took	-7.30107
▁head	-7.30229
▁under	-7.30964
▁things	-7.3158
▁face	-7.34974
▁right	-7.35359
▁young	-7.3553
▁ever	-7.36046
▁new	-7.37042
▁tell	-7.37828
▁room	-7.38444
▁thing	-7.38532
▁left	-7.38576
▁missus	-7.38753
▁world	-7.38886
▁looked	-7.39777
▁asked	-7.42497
▁always	-7.44492
▁look	-7.45861
▁give	-7.46195
▁because	-7.46433
▁sir	-7.47587
▁mind	-7.48023
▁work	-7.48169
▁seemed	-7.48706
▁why	-7.49294
▁something	-7.49343
▁heard	-7.49491
▁years	-7.49985
▁far	-7.50631
▁going	-7.50931
▁also	-7.52138
▁father	-7.52341
▁soon	-7.52849
▁each	-7.529
▁against	-7.53258
▁got	-7.53822
▁home	-7.54286
▁king	-7.55117
▁few	-7.55221
▁water	-7.55274
▁find	-7.55483
▁yes	-7.56641
▁part	-7.5965
▁half	-7.59705
▁mother	-7.59814
▁side	-7.59814
▁knew	-7.59868
▁told	-7.60142
▁began	-7.60968
▁having	-7.61578
▁quite	-7.61634
▁door	-7.61689
▁called	-7.62697
▁moment	-7.62978
▁done	-7.63261
▁better	-7.63999
▁enough	-7.6417
▁god	-7.65897
▁woman	-7.65955
▁love	-7.66246
▁whole	-7.66479
▁seen	-7.67536
▁oh	-7.67654
▁heart	-7.68069
▁between	-7.68307
▁gave	-7.69143
▁course	-7.69383
▁both	-7.69564
▁light	-7.69624
▁hands	-7.69986
▁among	-7.70107
▁turned	-7.70411
▁almost	-7.72188
▁days	-7.7312
▁set	-7.74376
▁however	-7.7482
▁nor	-7.75265
▁four	-7.75841
▁until	-7.76291
▁morning	-7.76743
▁whom	-7.76808
▁it's	-7.77132
▁words	-7.77849
▁poor	-7.77915
▁stood	-7.77915
▁small	-7.78572
▁felt	-7.78836
▁country	-7.80704
▁hundred	-7.8138
▁dear	-7.81515
▁perhaps	-7.82402
▁white	-7.82882
▁end	-7.8302
▁name	-7.8399
▁miss	-7.84199
▁lady	-7.84268
▁myself	-7.84338
▁does	-7.84969
▁till	-7.85603
▁together	-7.85957
▁anything	-7.86242
▁brought	-7.86242
▁girl	-7.86313
▁herself	-7.86527
▁best	-7.86813
▁voice	-7.86813
▁next	-7.87603
▁indeed	-7.88837
▁themselves	-7.8891
▁five	-7.89865
▁since	-7.89939
▁thus	-7.90383
▁others	-7.90606
▁feet	-7.90829
▁matter	-7.90904
▁round	-7.91128
▁replied	-7.93243
▁large	-7.93472
▁cannot	-7.93625
▁looking	-7.94549
▁rather	-7.95014
▁i'm	-7.95092
▁want	-7.95247
▁taken	-7.95325
▁cried	-7.95872
▁word	-7.96186
▁twenty	-7.96344
▁along	-7.96896
▁boy	-7.97293
▁nature	-7.97612
▁kind	-7.97931
▁full	-7.98171
▁children	-7.98332
▁high	-7.98734
▁therefore	-7.99788
▁whose	-7.99951
▁gone	-8.00936
▁true	-8.01349
▁power	-8.01432
▁air	-8.01515
▁behind	-8.0168
▁open	-8.0218
▁sure	-8.02347
▁lay	-8.02431
▁death	-8.02514
▁keep	-8.02682
▁sat	-8.02766
▁wife	-8.03018
▁body	-8.03187
▁near	-8.04033
▁fire	-8.04631
▁less	-8.05231
▁alone	-8.06182
▁believe	-8.0723
▁passed	-8.07759
▁lord	-8.08112
▁friend	-8.08201
▁given	-8.0829
▁use	-8.08734
▁rest	-8.0927
▁often	-8.0936
▁sea	-8.0954
▁answered	-8.10714
▁money	-8.10805
▁thousand	-8.10805
▁leave	-8.10896
▁present	-8.10896
▁hope	-8.11261
▁child	-8.11903
▁itself	-8.1218
▁certain	-8.12549
▁black	-8.12642
▁speak	-8.1292
▁known	-8.132
▁help	-8.14324
▁used	-8.14324
▁state	-8.14513
▁city	-8.14607
▁fact	-8.14797
▁dead	-8.14986
▁earth	-8.14986
▁i'll	-8.15176
▁times	-8.15176
▁really	-8.15271
▁within	-8.15366
▁least	-8.15557
▁doctor	-8.16227
▁thou	-8.16227
▁above	-8.16323
▁ground	-8.16612
▁whether	-8.16805
▁hear	-8.1729
▁six	-8.17679
▁sent	-8.17874
▁general	-8.17971
▁point	-8.1856
▁either	-8.18658
▁means	-8.18757
▁coming	-8.19349
▁order	-8.19349
▁wish	-8.19449
▁reason	-8.19747
▁already	-8.20646
▁suddenly	-8.20747
▁fell	-8.21049
▁women	-8.2125
▁case	-8.21352
▁horse	-8.21352
▁during	-8.22062
▁hard	-8.22164
▁land	-8.22266
▁care	-8.22368
▁son	-8.23085
▁held	-8.23394
▁red	-8.23394
▁returned	-8.23498
▁around	-8.23601
▁lost	-8.23601
▁became	-8.24224
▁master	-8.24224
▁several	-8.24224
▁making	-8.2506
▁evening	-8.2527
▁hour	-8.26327
▁second	-8.27288
▁close	-8.2815
▁friends	-8.28584
▁dark	-8.28692
▁table	-8.28692
▁read	-8.29019
▁everything	-8.29238
▁kept	-8.29238
▁question	-8.29238
▁form	-8.29347
▁manner	-8.30007
▁become	-8.30338
▁beautiful	-8.30449
▁towards	-8.30781
▁town	-8.31115
▁possible	-8.3145
▁bed	-8.31562
▁sight	-8.31562
▁ten	-8.31562
▁captain	-8.32124
▁that's	-8.32124
▁year	-8.33029
▁big	-8.33256
▁o	-8.33599
▁arms	-8.33827
▁answer	-8.34172
▁sometimes	-8.34172
▁business	-8.34287
▁call	-8.34287
▁can't	-8.34287
▁says	-8.34287
▁short	-8.34287
▁mean	-8.34402
▁ready	-8.34748
▁war	-8.34748
▁river	-8.35095
▁sun	-8.35212
▁family	-8.35677
▁human	-8.35677
▁different	-8.36497
▁turn	-8.36615
▁feel	-8.37206
▁idea	-8.37206
▁ask	-8.37562
▁live	-8.378
▁else	-8.38278
▁followed	-8.39483
▁story	-8.39847
▁across	-8.41071
▁carried	-8.41318
▁rose	-8.41441
▁person	-8.41565
▁able	-8.41689
▁fine	-8.41689
▁soul	-8.41689
▁truth	-8.41689
▁sort	-8.41813
▁law	-8.42061
▁doubt	-8.42185
▁letter	-8.42185
▁ran	-8.42185
▁fear	-8.4256
▁prince	-8.42685
▁strong	-8.4281
▁bring	-8.42935
▁strange	-8.42935
▁reached	-8.44325
▁met	-8.4458
▁cold	-8.45348
▁happy	-8.45477
▁understand	-8.46512
▁sound	-8.46642
▁tree	-8.46642
▁john	-8.47426
▁longer	-8.48217
▁return	-8.48349
▁past	-8.48614
▁saying	-8.48747
▁toward	-8.49147
▁need	-8.49548
▁taking	-8.50356
▁appeared	-8.5117
▁eye	-8.5117
▁suppose	-8.5117
▁window	-8.5117
▁i've	-8.51306
▁continued	-8.51443
▁cut	-8.51443
▁didn't	-8.51443
▁deep	-8.5158
▁number	-8.5158
▁show	-8.51716
▁road	-8.51854
▁daughter	-8.52542
▁thee	-8.5268
▁sense	-8.53513
▁spoke	-8.53513
▁clear	-8.53653
▁later	-8.53653
▁hold	-8.53793
▁seven	-8.54073
▁hours	-8.54494
▁opened	-8.54494
▁talk	-8.54635
▁ought	-8.54918
▁free	-8.55059
▁seems	-8.55201
▁thy	-8.56056
▁brother	-8.56199
▁party	-8.56342
▁pretty	-8.57788
▁tried	-8.57788
▁wanted	-8.57788
▁hair	-8.58225
▁certainly	-8.58518
▁run	-8.58665
▁interest	-8.58812
▁received	-8.58812
▁cause	-8.59106
▁lived	-8.59254
▁none	-8.59698
▁early	-8.59846
▁bad	-8.59995
▁low	-8.59995
▁eighteen	-8.60293
▁neither	-8.60443
▁common	-8.60592
▁beyond	-8.60892
▁blood	-8.61193
▁although	-8.61646
▁spirit	-8.61646
▁street	-8.61949
▁seem	-8.6271
▁subject	-8.6271
▁age	-8.62863
▁husband	-8.62863
▁sleep	-8.63017
▁feeling	-8.6317
▁real	-8.6317
▁miles	-8.63324
▁entered	-8.63478
▁meet	-8.63786
▁nearly	-8.63941
▁account	-8.64096
▁gold	-8.64096
▁pleasure	-8.64251
▁wind	-8.64718
▁public	-8.64874
▁living	-8.6503
▁won't	-8.6503
▁government	-8.65187
▁green	-8.65187
▁wild	-8.65187
▁blue	-8.65501
▁minutes	-8.65501
▁church	-8.65816
▁remember	-8.65816
▁laid	-8.65974
▁further	-8.66132
▁heavy	-8.6629
▁except	-8.66608
▁necessary	-8.66926
▁change	-8.67406
▁character	-8.67566
▁happened	-8.68049
▁walked	-8.68049
▁doing	-8.68372
▁line	-8.68372
▁forward	-8.68696
▁book	-8.69021
▁thirty	-8.69348
▁eight	-8.69511
▁led	-8.69511
▁glad	-8.69839
▁fall	-8.70333
▁try	-8.70498
▁attention	-8.70829
▁fellow	-8.70995
▁self	-8.71161
▁front	-8.71328
▁late	-8.71495
▁trees	-8.71997
▁fair	-8.72333
▁seeing	-8.72502
▁tom	-8.7267
▁added	-8.72839
▁instead	-8.72839
▁force	-8.73009
▁natural	-8.73009
▁caught	-8.73178
▁stand	-8.73178
▁knowledge	-8.73348
▁purpose	-8.73348
▁fifty	-8.73689
▁forth	-8.74031
▁army	-8.74202
▁dream	-8.74374
▁drew	-8.74374
▁trouble	-8.74891
▁english	-8.75064
▁ship	-8.75064
▁following	-8.75237
▁school	-8.75237
▁thinking	-8.75237
▁arm	-8.7541
▁grew	-8.7541
▁thoughts	-8.7541
▁ye	-8.75584
▁foot	-8.75932
▁silence	-8.75932
▁view	-8.75932
▁standing	-8.76457
▁effect	-8.76809
▁ago	-8.77162
▁food	-8.77162
▁stopped	-8.77516
▁afraid	-8.77693
▁whatever	-8.78227
▁act	-8.78585
▁ill	-8.78944
▁there's	-8.79124
▁beauty	-8.79305
▁garden	-8.79305
▁besides	-8.79485
▁position	-8.79666
▁distance	-8.79848
▁length	-8.80029
▁paper	-8.80393
▁wall	-8.80393
▁england	-8.80576
▁mine	-8.80576
▁eat	-8.80759
▁yourself	-8.80759
▁hardly	-8.81126
▁stone	-8.81126
▁makes	-8.8131
▁aunt	-8.81494
▁princess	-8.81679
▁sister	-8.81679
▁boys	-8.82049
▁gentleman	-8.82049
▁dinner	-8.82235
▁exclaimed	-8.82235
▁smile	-8.82235
▁society	-8.82235
▁slowly	-8.82421
▁art	-8.82607
▁company	-8.82794
▁bright	-8.83169
▁queen	-8.83357
▁died	-8.83922
▁horses	-8.83922
▁mouth	-8.84111
▁palace	-8.84111
▁uncle	-8.84111
▁desire	-8.84491
▁placed	-8.84681
▁save	-8.85063
▁bear	-8.85254
▁chance	-8.85254
▁pass	-8.85254
▁immediately	-8.85446
▁wonder	-8.85446
▁third	-8.85638
▁girls	-8.8583
▁easy	-8.86217
▁fight	-8.86217
▁quickly	-8.8641
▁strength	-8.86604
▁broken	-8.86799
▁filled	-8.86799
▁nine	-8.86799
▁saint	-8.86799
▁sweet	-8.86799
▁hall	-8.86993
▁walk	-8.87189
▁comes	-8.8758
▁action	-8.87776
▁french	-8.87776
▁getting	-8.87973
▁loved	-8.8817
▁top	-8.8817
▁beside	-8.88565
▁states	-8.88565
▁court	-8.88962
▁remained	-8.88962
▁sitting	-8.89161
▁impossible	-8.8936
▁piece	-8.8936
▁rich	-8.8936
▁single	-8.8936
▁cat	-8.8976
▁man's	-8.8976
▁he's	-8.89961
▁stay	-8.89961
▁play	-8.90162
▁opinion	-8.90363
▁follow	-8.90565
▁probably	-8.90565
▁waiting	-8.90565
▁chair	-8.90767
▁struck	-8.90767
▁wait	-8.90767
▁greater	-8.9097
▁started	-8.9097
▁according	-8.91173
▁deal	-8.91173
▁lips	-8.91173
▁heaven	-8.91376
▁object	-8.9158
▁bird	-8.92195
▁tears	-8.92195
▁arrived	-8.92812
▁pay	-8.93227
▁peace	-8.93227
▁laughed	-8.93434
▁wood	-8.93434
▁ah	-8.93642
▁dog	-8.93642
▁wide	-8.93642
▁danger	-8.9406
▁duty	-8.9406
▁soft	-8.94269
▁sudden	-8.94269
▁outside	-8.94479
▁please	-8.949
▁simple	-8.949
▁floor	-8.95111
▁books	-8.95535
▁south	-8.95535
▁speaking	-8.95748
▁experience	-8.95961
▁de	-8.96174
▁fast	-8.96388
▁clothes	-8.96602
▁die	-8.96602
▁tone	-8.96602
▁afternoon	-8.96817
▁below	-8.97464
▁boat	-8.97464
▁chapter	-8.97681
▁spring	-8.97898
▁history	-8.98334
▁north	-8.98334
▁usual	-8.98334
▁forest	-8.98553
▁latter	-8.98772
▁mary	-8.98772
▁straight	-8.98772
▁field	-8.98991
▁evil	-8.99211
▁forty	-8.99211
▁island	-8.99211
▁hot	-8.99432
▁learned	-8.99432
▁send	-8.99432
▁corner	-8.99874
▁quiet	-8.99874
▁wrong	-8.99874
▁dress	-9.00096
▁giving	-9.00096
▁months	-9.00096
▁presence	-9.00096
▁merely	-9.00319
▁glass	-9.00542
▁expected	-9.00989
▁scarcely	-9.01664
▁sky	-9.01664
▁appearance	-9.0189
▁born	-9.0189
▁cross	-9.02116
▁leaving	-9.02116
▁running	-9.02116
▁showed	-9.02116
▁battle	-9.02571
▁carry	-9.02571
▁couldn't	-9.02571
▁flowers	-9.02571
▁ladies	-9.02571
▁easily	-9.02799
▁talking	-9.02799
▁morrow	-9.03028
▁secret	-9.03028
▁especially	-9.03257
▁stop	-9.03257
▁camp	-9.03486
▁entirely	-9.03486
▁knows	-9.03486
▁music	-9.03486
▁you're	-9.03486
▁chief	-9.03947
▁direction	-9.03947
▁watch	-9.03947
▁wished	-9.0441
▁brown	-9.04642
▁london	-9.04642
▁finally	-9.05109
▁joy	-9.05109
▁mountain	-9.05109
▁raised	-9.05109
▁wise	-9.05109
▁twelve	-9.05342
▁service	-9.05577
▁killed	-9.05812
▁moved	-9.05812
▁perfect	-9.05812
▁beginning	-9.06048
▁fresh	-9.06048
▁game	-9.06284
▁persons	-9.06284
▁bit	-9.0652
▁important	-9.0652
▁plain	-9.06758
▁changed	-9.06995
▁tea	-9.06995
▁turning	-9.06995
▁count	-9.07234
▁escape	-9.07234
▁week	-9.07234
▁closed	-9.07473
▁existence	-9.07712
▁cry	-9.08434
▁fortune	-9.08434
▁office	-9.08434
▁particular	-9.08434
▁places	-9.08434
▁rock	-9.08434
▁allowed	-9.08676
▁afterwards	-9.08919
▁condition	-9.08919
▁covered	-9.09405
▁golden	-9.09649
▁married	-9.09649
▁meant	-9.09649
▁moon	-9.09649
▁animals	-9.09894
▁figure	-9.09894
▁happiness	-9.09894
▁understood	-9.09894
▁write	-9.09894
▁box	-9.1014
▁reach	-9.1014
▁silent	-9.1014
▁visit	-9.1014
▁conversation	-9.10386
▁lives	-9.10632
▁expression	-9.1088
▁respect	-9.11127
▁step	-9.11127
▁trying	-9.11127
▁wouldn't	-9.11127
▁anne	-9.11376
▁middle	-9.11376
▁simply	-9.11625
▁unless	-9.11625
▁written	-9.11625
▁isn't	-9.11874
▁minute	-9.11874
▁shot	-9.11874
▁terrible	-9.11874
▁worth	-9.11874
▁ideas	-9.12125
▁ears	-9.12376
▁bread	-9.12627
▁circumstances	-9.12627
▁observed	-9.12627
▁add	-9.1288
▁news	-9.1288
▁perfectly	-9.1288
▁ancient	-9.13386
▁threw	-9.13386
▁wonderful	-9.13386
▁knight	-9.1364
▁surprise	-9.1364
▁winter	-9.1364
▁spot	-9.13895
▁discovered	-9.14406
▁legs	-9.14406
▁iron	-9.14663
▁silver	-9.14663
▁future	-9.1492
▁thank	-9.1492
▁birds	-9.15437
▁you'll	-9.15437
▁animal	-9.15697
▁youth	-9.15697
▁instant	-9.15957
▁lying	-9.15957
▁shook	-9.15957
▁american	-9.16217
▁passing	-9.16217
▁pleasant	-9.16217
▁neck	-9.16479
▁regard	-9.16479
▁lie	-9.16741
▁proper	-9.16741
▁beneath	-9.17004
▁sit	-9.17267
▁walls	-9.17267
▁warm	-9.17267
▁fish	-9.17532
▁pain	-9.17532
▁presently	-9.18062
▁mere	-9.18328
▁parts	-9.18595
▁built	-9.18863
▁faith	-9.18863
▁hill	-9.18863
▁considered	-9.19132
▁father's	-9.19132
▁note	-9.19132
▁speech	-9.19132
▁steps	-9.19401
▁appear	-9.19671
▁dropped	-9.19671
▁leaves	-9.19671
▁wrote	-9.19671
▁broke	-9.19941
▁colonel	-9.19941
▁determined	-9.19941
▁formed	-9.20213
▁laws	-9.20213
▁occasion	-9.20213
▁peter	-9.20213
▁creature	-9.20485
▁heads	-9.20485
▁surely	-9.20485
▁difficult	-9.20758
▁greatest	-9.20758
▁west	-9.20758
▁command	-9.21031
▁remain	-9.21031
▁darkness	-9.21306
▁united	-9.21306
▁castle	-9.21581
▁paid	-9.21581
▁learn	-9.21856
▁various	-9.21856
▁fifteen	-9.22133
▁grave	-9.22133
▁spite	-9.22133
▁enemy	-9.22411
▁hat	-9.22411
▁o'clock	-9.22411
▁reply	-9.22411
▁result	-9.22411
▁degree	-9.22689
▁drawn	-9.22689
▁exactly	-9.22689
▁journey	-9.22689
▁serve	-9.22689
▁pale	-9.22968
▁ways	-9.22968
▁begin	-9.23247
▁houses	-9.23247
▁space	-9.23247
▁sharp	-9.23528
▁likely	-9.23809
▁snow	-9.23809
▁bottom	-9.24091
▁dressed	-9.24091
▁former	-9.24374
▁goes	-9.24374
▁remembered	-9.24374
▁somewhat	-9.24374
▁carefully	-9.24658
▁promise	-9.24942
▁believed	-9.25228
▁difficulty	-9.25228
▁influence	-9.25228
▁greatly	-9.25514
▁race	-9.25514
▁sign	-9.25514
▁lad	-9.25801
▁thick	-9.25801
▁train	-9.25801
▁drawing	-9.26377
▁marriage	-9.26377
▁board	-9.26666
▁holding	-9.26666
▁breath	-9.26957
▁scene	-9.26957
▁consider	-9.27248
▁forget	-9.2754
▁hung	-9.2754
▁pleased	-9.2754
▁surface	-9.2754
▁tired	-9.2754
▁touch	-9.2754
▁decided	-9.27833
▁period	-9.28126
▁shut	-9.28126
▁i'd	-9.28421
▁sorry	-9.28421
▁altogether	-9.28716
▁class	-9.28716
▁fixed	-9.28716
▁grown	-9.28716
▁letters	-9.28716
▁pieces	-9.28716
▁property	-9.28716
▁watched	-9.28716
▁ourselves	-9.29013
▁mountains	-9.2931
▁president	-9.2931
▁summer	-9.2931
▁tall	-9.2931
▁drink	-9.29608
▁notice	-9.29608
▁path	-9.29608
▁shadow	-9.29907
▁break	-9.30207
▁fingers	-9.30207
▁lot	-9.30207
▁madame	-9.30207
▁shore	-9.30207
▁success	-9.30207
▁waited	-9.30207
▁finished	-9.30507
▁lake	-9.30507
▁seat	-9.30507
▁declared	-9.30809
▁soldiers	-9.30809
▁gate	-9.31112
▁opportunity	-9.31112
▁repeated	-9.31112
▁sad	-9.31112
▁attempt	-9.31415
▁bell	-9.31415
▁opposite	-9.31415
▁equal	-9.3172
▁safe	-9.3172
▁bank	-9.32025
▁butter	-9.32025
▁crowd	-9.32025
▁reading	-9.32025
▁social	-9.32025
▁yellow	-9.32025
▁noise	-9.32331
▁village	-9.32331
▁bound	-9.32638
▁lines	-9.32638
▁listen	-9.32638
▁noticed	-9.32638
▁royal	-9.32638
▁york	-9.32638
▁cast	-9.32947
▁language	-9.32947
▁laugh	-9.32947
▁usually	-9.32947
▁spent	-9.33256
▁sufficient	-9.33256
▁weather	-9.33256
▁worse	-9.33256
▁grass	-9.33566
▁france	-9.33877
▁touched	-9.33877
▁knowing	-9.34189
▁narrow	-9.34189
▁generally	-9.34502
▁picture	-9.34502
▁situation	-9.34816
▁spread	-9.34816
▁effort	-9.35131
▁grace	-9.35131
▁lead	-9.35131
▁meaning	-9.35131
▁personal	-9.35131
▁stranger	-9.35131
▁fit	-9.35447
▁ordinary	-9.35447
▁henry	-9.35764
▁quick	-9.35764
▁start	-9.35764
▁forgotten	-9.36082
▁inside	-9.36082
▁nobody	-9.36082
▁sides	-9.36082
▁breakfast	-9.36401
▁feelings	-9.36401
▁grow	-9.36401
▁value	-9.36401
▁finding	-9.36721
▁sword	-9.36721
▁whispered	-9.36721
▁edge	-9.37364
▁everybody	-9.37364
▁nice	-9.37364
▁rise	-9.37364
▁building	-9.37687
▁lose	-9.37687
▁difference	-9.38011
▁smiled	-9.38011
▁valley	-9.38011
▁charge	-9.38336
▁coat	-9.38336
▁lower	-9.38336
▁angry	-9.38662
▁looks	-9.38662
▁pride	-9.38662
▁seventeen	-9.38662
▁higher	-9.3899
▁judge	-9.3899
▁shoulder	-9.3899
▁surprised	-9.3899
▁obliged	-9.39318
▁sake	-9.39318
▁fallen	-9.39648
▁pocket	-9.39648
▁private	-9.39648
▁rode	-9.39648
▁settled	-9.39648
▁allow	-9.39978
▁offered	-9.39978
▁carriage	-9.4031
▁dare	-9.4031
▁dollars	-9.4031
▁guard	-9.4031
▁questions	-9.4031
▁salt	-9.4031
▁beat	-9.40643
▁move	-9.40643
▁nose	-9.40643
▁anxious	-9.40977
▁attack	-9.40977
▁george	-9.40977
▁kill	-9.40977
▁supposed	-9.40977
▁empty	-9.41312
▁principle	-9.41312
▁contrary	-9.41648
▁dry	-9.41648
▁fate	-9.41648
▁gray	-9.41648
▁quietly	-9.41648
▁rocks	-9.41648
▁forced	-9.41985
▁jane	-9.41985
▁marry	-9.41985
▁noble	-9.41985
▁ones	-9.41985
▁ordered	-9.41985
▁shape	-9.41985
▁taste	-9.41985
▁walking	-9.41985
▁complete	-9.42323
▁gods	-9.42323
▁caused	-9.42663
▁species	-9.42663
▁worked	-9.42663
▁instance	-9.43004
▁margaret	-9.43004
▁sixty	-9.43004
▁spoken	-9.43004
▁streets	-9.43004
▁america	-9.43346
▁authority	-9.43346
▁courage	-9.43346
▁curious	-9.43346
▁kitchen	-9.43346
▁matters	-9.43346
▁prepared	-9.43346
▁windows	-9.43346
▁king's	-9.43689
▁proved	-9.43689
▁rain	-9.43689
▁shoulders	-9.43689
▁stones	-9.43689
▁thrown	-9.43689
▁vast	-9.43689
▁wasn't	-9.43689
▁glance	-9.44033
▁hills	-9.44033
▁seventy	-9.44033
▁sick	-9.44378
▁liberty	-9.44725
▁you've	-9.44725
▁baby	-9.45073
▁broad	-9.45073
▁due	-9.45073
▁evidently	-9.45073
▁officers	-9.45422
▁paris	-9.45422
▁servant	-9.45422
▁brothers	-9.45772
▁cases	-9.45772
▁gentlemen	-9.45772
▁justice	-9.45772
▁listened	-9.45772
▁opening	-9.45772
▁kingdom	-9.46124
▁memory	-9.46124
▁asleep	-9.46476
▁em	-9.46476
▁plan	-9.46476
▁prove	-9.46476
▁trust	-9.46476
▁thin	-9.4683
▁writing	-9.4683
▁liked	-9.47186
▁political	-9.47186
▁enter	-9.47542
▁faces	-9.47542
▁quarter	-9.47542
▁stream	-9.47542
▁woods	-9.47542
▁beast	-9.479
▁growing	-9.479
▁hearing	-9.479
▁imagine	-9.479
▁companion	-9.48259
▁gathered	-9.48259
▁loss	-9.48259
▁twice	-9.48259
▁alive	-9.48619
▁bent	-9.48619
▁cup	-9.48619
▁example	-9.48619
▁lifted	-9.48619
▁serious	-9.48619
▁watching	-9.48619
▁conduct	-9.48981
▁east	-9.48981
▁failed	-9.48981
▁fancy	-9.48981
▁honour	-9.48981
▁produced	-9.48981
▁promised	-9.48981
▁rising	-9.48981
▁square	-9.48981
▁cover	-9.49344
▁directly	-9.49344
▁pulled	-9.49344
▁receive	-9.49344
▁weeks	-9.49344
▁bodies	-9.49708
▁milk	-9.49708
▁orders	-9.49708
▁putting	-9.49708
▁rate	-9.49708
▁study	-9.49708
▁heat	-9.50074
▁tongue	-9.50074
▁william	-9.50074
▁comfort	-9.50441
▁fashion	-9.50441
▁gentle	-9.50441
▁named	-9.50441
▁union	-9.50441
▁mighty	-9.50809
▁offer	-9.50809
▁wine	-9.50809
▁carrying	-9.51179
▁forms	-9.51179
▁habit	-9.51179
▁unknown	-9.51179
▁meeting	-9.5155
▁religion	-9.5155
▁aside	-9.51922
▁individual	-9.51922
▁measure	-9.51922
▁takes	-9.51922
▁health	-9.52296
▁nearer	-9.52296
▁substance	-9.52296
▁supper	-9.52296
▁we'll	-9.52296
▁what's	-9.52296
▁expect	-9.52671
▁terms	-9.52671
▁works	-9.52671
▁doesn't	-9.53048
▁ring	-9.53048
▁vain	-9.53048
▁ball	-9.53426
▁blow	-9.53426
▁catch	-9.53426
▁engaged	-9.53426
▁interesting	-9.53426
▁main	-9.53426
▁seek	-9.53426
▁stairs	-9.53426
▁affairs	-9.53806
▁freedom	-9.53806
▁march	-9.53806
▁naturally	-9.53806
▁wealth	-9.53806
▁working	-9.53806
▁aware	-9.54186
▁draw	-9.54186
▁ear	-9.54186
▁keeping	-9.54186
▁laughing	-9.54186
▁satisfied	-9.54186
▁servants	-9.54186
▁stars	-9.54186
▁hurt	-9.54569
▁moments	-9.54569
▁slaves	-9.54569
▁unto	-9.54569
▁happen	-9.54953
▁movement	-9.54953
▁season	-9.54953
▁confidence	-9.55338
▁moving	-9.55338
▁falling	-9.55725
▁meat	-9.55725
▁one's	-9.55725
▁burst	-9.56113
▁completely	-9.56113
▁distant	-9.56113
▁otherwise	-9.56113
▁post	-9.56113
▁ships	-9.56113
▁doors	-9.56503
▁evidence	-9.56503
▁gun	-9.56503
▁hence	-9.56503
▁names	-9.56503
▁possessed	-9.56503
▁sought	-9.56503
▁tail	-9.56503
▁talked	-9.56503
▁busy	-9.56895
▁drive	-9.56895
▁excellent	-9.56895
▁mark	-9.56895
▁tender	-9.56895
▁agreed	-9.57288
▁guess	-9.57288
▁ice	-9.57288
▁instantly	-9.57288
▁necessity	-9.57288
▁possession	-9.57288
▁required	-9.57288
▁needed	-9.57682
▁skin	-9.57682
▁slow	-9.57682
▁chamber	-9.58078
▁intended	-9.58078
▁pray	-9.58078
▁similar	-9.58078
▁system	-9.58078
▁telling	-9.58078
▁wants	-9.58078
▁century	-9.58476
▁clearly	-9.58476
▁eighty	-9.58476
▁events	-9.58476
▁seated	-9.58476
▁served	-9.58476
▁lovely	-9.58875
▁yours	-9.58875
▁dogs	-9.59276
▁honor	-9.59276
▁weak	-9.59276
▁duke	-9.59678
▁frequently	-9.59678
▁mother's	-9.59678
▁particularly	-9.59678
▁played	-9.59678
▁succeeded	-9.59678
▁waters	-9.59678
▁control	-9.60082
▁huge	-9.60082
▁rule	-9.60082
▁brave	-9.60488
▁delight	-9.60488
▁loud	-9.60488
▁pair	-9.60488
▁song	-9.60488
▁clean	-9.60895
▁conditions	-9.60895
▁importance	-9.60895
▁indians	-9.60895
▁remarked	-9.60895
▁search	-9.60895
▁sorrow	-9.60895
▁throw	-9.60895
▁trade	-9.60895
▁calm	-9.61304
▁content	-9.61304
▁flower	-9.61304
▁hath	-9.61304
▁mile	-9.61304
▁professor	-9.61304
▁rooms	-9.61304
▁singing	-9.61304
▁advice	-9.61715
▁awful	-9.61715
▁cloud	-9.61715
▁fond	-9.61715
▁grand	-9.61715
▁horror	-9.61715
▁indian	-9.61715
▁month	-9.61715
▁pointed	-9.61715
▁powerful	-9.61715
▁sunday	-9.61715
▁daily	-9.62127
▁frightened	-9.62127
▁mentioned	-9.62127
▁possibly	-9.62127
▁pounds	-9.62127
▁sand	-9.62127
▁smoke	-9.62127
▁handsome	-9.62541
▁pity	-9.62541
▁proud	-9.62541
▁special	-9.62541
▁christian	-9.62957
▁honest	-9.62957
▁pure	-9.62957
▁terror	-9.62957
▁actually	-9.63375
▁ain't	-9.63375
▁equally	-9.63375
▁joined	-9.63375
▁moral	-9.63375
▁motion	-9.63375
▁buy	-9.63794
▁divine	-9.63794
▁gives	-9.63794
▁lies	-9.63794
▁nevertheless	-9.63794
▁powers	-9.63794
▁softly	-9.63794
▁breast	-9.64215
▁calling	-9.64215
▁demanded	-9.64215
▁driven	-9.64215
▁fields	-9.64215
▁flew	-9.64215
▁fort	-9.64215
▁goods	-9.64215
▁occurred	-9.64215
▁science	-9.64215
▁spirits	-9.64215
▁faint	-9.64638
▁rope	-9.64638
▁cousin	-9.65062
▁dick	-9.65062
▁explained	-9.65062
▁fly	-9.65062
▁grey	-9.65062
▁hole	-9.65062
▁material	-9.65062
▁becomes	-9.65489
▁cook	-9.65489
▁finger	-9.65489
▁gently	-9.65489
▁haven't	-9.65489
▁image	-9.65489
▁passion	-9.65489
▁shown	-9.65489
▁whenever	-9.65489
▁advantage	-9.65917
▁aid	-9.65917
▁disappeared	-9.65917
▁education	-9.65917
▁false	-9.65917
▁hunting	-9.65917
▁minds	-9.65917
▁officer	-9.65917
▁prevent	-9.65917
▁regarded	-9.65917
▁fighting	-9.66347
▁leading	-9.66347
▁peculiar	-9.66347
▁progress	-9.66347
▁absolutely	-9.66779
▁bill	-9.66779
▁christ	-9.67213
▁color	-9.67213
▁hearts	-9.67213
▁passage	-9.67213
▁smiling	-9.67213
▁weight	-9.67213
▁welcome	-9.67213
▁apparently	-9.67649
▁dust	-9.67649
▁holy	-9.67649
▁members	-9.67649
▁share	-9.67649
▁voices	-9.67649
▁blind	-9.68086
▁cottage	-9.68086
▁mad	-9.68086
▁slight	-9.68086
▁soldier	-9.68086
▁stick	-9.68086
▁worthy	-9.68086
▁consciousness	-9.68526
▁drove	-9.68526
▁eggs	-9.68526
▁objects	-9.68526
▁advanced	-9.68967
▁dangerous	-9.68967
▁explain	-9.68967
▁papa	-9.68967
▁remarkable	-9.68967
▁sixteen	-9.68967
▁wore	-9.68967
▁anybody	-9.69411
▁basket	-9.69411
▁despair	-9.69411
▁dreadful	-9.69411
▁fully	-9.69411
▁suggested	-9.69411
▁waves	-9.69411
▁curiosity	-9.69856
▁flesh	-9.69856
▁group	-9.69856
▁nation	-9.69856
▁nineteen	-9.69856
▁paused	-9.69856
▁splendid	-9.69856
▁taught	-9.69856
▁worn	-9.69856
▁cruel	-9.70304
▁enemies	-9.70304
▁resolved	-9.70304
▁amount	-9.70753
▁burning	-9.70753
▁dance	-9.70753
▁grandfather	-9.70753
▁knees	-9.70753
▁regular	-9.70753
▁speed	-9.70753
▁countenance	-9.71205
▁europe	-9.71205
▁facts	-9.71205
▁flying	-9.71205
▁fourth	-9.71205
▁mistress	-9.71205
▁slave	-9.71205
▁suit	-9.71205
▁virtue	-9.71205
▁excitement	-9.71658
▁farther	-9.71658
▁fool	-9.71658
▁information	-9.71658
▁relation	-9.71658
▁satisfaction	-9.71658
▁wear	-9.71658
▁accept	-9.72114
▁christmas	-9.72114
▁entire	-9.72114
▁support	-9.72114
▁upper	-9.72114
▁eleven	-9.72571
▁emperor	-9.72571
▁message	-9.72571
▁ocean	-9.72571
▁points	-9.72571
▁ride	-9.72571
▁she's	-9.72571
▁arose	-9.73031
▁car	-9.73031
▁crossed	-9.73031
▁german	-9.73031
▁helped	-9.73031
▁interested	-9.73031
▁major	-9.73031
▁presented	-9.73031
▁ceased	-9.73493
▁drop	-9.73493
▁fat	-9.73493
▁grant	-9.73493
▁judgment	-9.73493
▁larger	-9.73493
▁modern	-9.73493
▁moreover	-9.73493
▁rapidly	-9.73493
▁companions	-9.73957
▁double	-9.73957
▁highest	-9.73957
▁imagination	-9.73957
▁prison	-9.73957
▁wings	-9.73957
▁belief	-9.74423
▁capable	-9.74423
▁don	-9.74423
▁extraordinary	-9.74423
▁midst	-9.74423
▁wholly	-9.74423
▁yesterday	-9.74423
▁coast	-9.74892
▁constantly	-9.74892
▁couple	-9.74892
▁glory	-9.74892
▁hidden	-9.74892
▁hoped	-9.74892
▁mc	-9.74892
▁pressed	-9.74892
▁shoes	-9.74892
▁stories	-9.74892
▁temple	-9.74892
▁trail	-9.74892
▁bitter	-9.75362
▁bore	-9.75362
▁mass	-9.75362
▁military	-9.75362
▁monsieur	-9.75362
▁picked	-9.75362
▁shining	-9.75362
▁sounds	-9.75362
▁wounded	-9.75362
▁closely	-9.75835
▁foreign	-9.75835
▁removed	-9.75835
▁sprang	-9.75835
▁vessel	-9.75835
▁affair	-9.7631
▁choice	-9.7631
▁considerable	-9.7631
▁constitution	-9.7631
▁meanwhile	-9.7631
▁proceeded	-9.7631
▁task	-9.7631
▁bow	-9.76788
▁harm	-9.76788
▁occupied	-9.76788
▁perceived	-9.76788
▁thoroughly	-9.76788
▁dreams	-9.77267
▁famous	-9.77267
▁flat	-9.77267
▁plenty	-9.77267
▁robert	-9.77267
▁star	-9.77267
▁accordingly	-9.77749
▁admit	-9.77749
▁approached	-9.77749
▁avoid	-9.77749
▁creatures	-9.77749
▁expressed	-9.77749
▁intelligence	-9.77749
▁meal	-9.77749
▁rushed	-9.77749
▁suffered	-9.77749
▁tristram	-9.77749
▁wishes	-9.77749
▁delighted	-9.78233
▁extent	-9.78233
▁gradually	-9.78233
▁hide	-9.78233
▁magic	-9.78233
▁refused	-9.78233
▁sooner	-9.78233
▁storm	-9.78233
▁bare	-9.7872
▁british	-9.7872
▁concerned	-9.7872
▁eager	-9.7872
▁efforts	-9.7872
▁evident	-9.7872
▁increased	-9.7872
▁begun	-9.79209
▁delicate	-9.79209
▁direct	-9.79209
▁entrance	-9.79209
▁exist	-9.79209
▁familiar	-9.79209
▁relief	-9.79209
▁store	-9.79209
▁suffer	-9.79209
▁truly	-9.79209
▁anger	-9.797
▁express	-9.797
▁jesus	-9.797
▁precious	-9.797
▁papers	-9.80194
▁principles	-9.80194
▁shouted	-9.80194
▁stage	-9.80194
▁accepted	-9.8069
▁anyone	-9.8069
▁capital	-9.8069
▁cats	-9.8069
▁custom	-9.8069
▁dull	-9.8069
▁intellect	-9.8069
▁religious	-9.8069
▁superior	-9.8069
▁wondered	-9.8069
▁affection	-9.81189
▁branches	-9.81189
▁conscious	-9.81189
▁fault	-9.81189
▁forces	-9.81189
▁height	-9.81189
▁maid	-9.81189
▁saved	-9.81189
▁stepped	-9.81189
▁becoming	-9.8169
▁dying	-9.8169
▁escaped	-9.8169
▁established	-9.8169
▁fellows	-9.8169
▁fruit	-9.8169
▁impression	-9.8169
▁kinds	-9.8169
▁marked	-9.8169
▁physical	-9.8169
▁practice	-9.8169
▁roof	-9.8169
▁sing	-9.8169
▁stir	-9.8169
▁strike	-9.8169
▁sugar	-9.8169
▁whence	-9.8169
▁clouds	-9.82194
▁hurried	-9.82194
▁key	-9.82194
▁lights	-9.82194
▁paul	-9.82194
▁asking	-9.82701
▁begged	-9.82701
▁fill	-9.82701
▁flight	-9.82701
▁mistake	-9.82701
▁older	-9.82701
▁teeth	-9.82701
▁we're	-9.82701
▁absence	-9.83209
▁concerning	-9.83209
▁discover	-9.83209
▁polly	-9.83209
▁throughout	-9.83209
▁wet	-9.83209
▁bag	-9.83721
▁cities	-9.83721
▁grief	-9.83721
▁jack	-9.83721
▁portion	-9.83721
▁sheep	-9.83721
▁yard	-9.83721
▁yards	-9.83721
▁bearing	-9.84235
▁miserable	-9.84235
▁seldom	-9.84235
▁unable	-9.84235
▁willing	-9.84235
▁worst	-9.84235
▁careful	-9.84752
▁edward	-9.84752
▁flour	-9.84752
▁ninety	-9.84752
▁safety	-9.84752
▁sisters	-9.84752
▁buried	-9.85271
▁choose	-9.85271
▁desired	-9.85271
▁m	-9.85271
▁original	-9.85271
▁pardon	-9.85271
▁proof	-9.85271
▁provided	-9.85271
▁remains	-9.85271
▁thanks	-9.85271
▁theory	-9.85271
▁troops	-9.85271
▁understanding	-9.85271
▁victory	-9.85271
▁wooden	-9.85271
▁approach	-9.85794
▁arrival	-9.85794
▁crying	-9.85794
▁dignity	-9.85794
▁farm	-9.85794
▁leg	-9.85794
▁prisoner	-9.85794
▁rank	-9.85794
▁rough	-9.85794
▁slipped	-9.85794
▁somewhere	-9.85794
▁station	-9.85794
▁whilst	-9.85794
▁ahead	-9.86319
▁crime	-9.86319
▁everywhere	-9.86319
▁mention	-9.86319
▁relations	-9.86319
▁throat	-9.86319
▁arranged	-9.86846
▁brain	-9.86846
▁nay	-9.86846
▁suffering	-9.86846
▁weary	-9.86846
▁worship	-9.86846
▁behold	-9.87377
▁bought	-9.87377
▁distinguished	-9.87377
▁friendship	-9.87377
▁kindly	-9.87377
▁obtained	-9.87377
▁plainly	-9.87377
▁slept	-9.87377
▁struggle	-9.87377
▁admitted	-9.8791
▁deeply	-9.8791
▁hungry	-9.8791
▁somehow	-9.8791
▁wicked	-9.8791
▁actions	-9.88446
▁appears	-9.88446
▁enjoy	-9.88446
▁joe	-9.88446
▁national	-9.88446
▁playing	-9.88446
▁sold	-9.88446
▁supply	-9.88446
▁waste	-9.88446
▁western	-9.88446
▁consequence	-9.88985
▁produce	-9.88985
▁savage	-9.88985
▁useful	-9.88985
▁alas	-9.89527
▁ended	-9.89527
▁ends	-9.89527
▁fail	-9.89527
▁hans	-9.89527
▁julia	-9.89527
▁labor	-9.89527
▁level	-9.89527
▁machine	-9.89527
▁returning	-9.89527
▁sons	-9.89527
▁stands	-9.89527
▁wound	-9.89527
▁infinite	-9.90072
▁inhabitants	-9.90072
▁pushed	-9.90072
▁shame	-9.90072
▁temper	-9.90072
▁cool	-9.9062
▁exercise	-9.9062
▁features	-9.9062
▁firm	-9.9062
▁hotel	-9.9062
▁knife	-9.9062
▁method	-9.9062
▁rolled	-9.9062
▁accustomed	-9.91171
▁bridge	-9.91171
▁carpet	-9.91171
▁clever	-9.91171
▁distinct	-9.91171
▁fairly	-9.91171
▁hopes	-9.91171
▁inquired	-9.91171
▁member	-9.91171
▁parties	-9.91171
▁setting	-9.91171
▁wisdom	-9.91171
▁beaten	-9.91725
▁billy	-9.91725
▁bowed	-9.91725
▁comfortable	-9.91725
▁extreme	-9.91725
▁loose	-9.91725
▁process	-9.91725
▁uttered	-9.91725
▁visible	-9.91725
▁council	-9.92282
▁explanation	-9.92282
▁hadn't	-9.92282
▁interrupted	-9.92282
▁maiden	-9.92282
▁numerous	-9.92282
▁nurse	-9.92282
▁shop	-9.92282
▁excuse	-9.92843
▁informed	-9.92843
▁listening	-9.92843
▁nations	-9.92843
▁partly	-9.92843
▁unhappy	-9.92843
▁bishop	-9.93406
▁bringing	-9.93406
▁consideration	-9.93406
▁eagerly	-9.93406
▁forgot	-9.93406
▁lighted	-9.93406
▁needs	-9.93406
▁permitted	-9.93406
▁alice	-9.93973
▁conclusion	-9.93973
▁earnest	-9.93973
▁hate	-9.93973
▁sensible	-9.93973
▁ashamed	-9.94542
▁cloth	-9.94542
▁club	-9.94542
▁knights	-9.94542
▁parents	-9.94542
▁price	-9.94542
▁sympathy	-9.94542
▁tale	-9.94542
▁tower	-9.94542
▁acquaintance	-9.95115
▁amongst	-9.95115
▁chest	-9.95115
▁dared	-9.95115
▁devil	-9.95115
▁discovery	-9.95115
▁kindness	-9.95115
▁remark	-9.95115
▁retired	-9.95115
▁swift	-9.95115
▁treasure	-9.95115
▁trembling	-9.95115
▁utterly	-9.95115
▁birth	-9.95692
▁dish	-9.95692
▁excited	-9.95692
▁fled	-9.95692
▁friendly	-9.95692
▁highly	-9.95692
▁hurry	-9.95692
▁murmured	-9.95692
▁sentence	-9.95692
▁thinks	-9.95692
▁tiny	-9.95692
▁type	-9.95692
▁brilliant	-9.96272
▁degrees	-9.96272
▁follows	-9.96272
▁fought	-9.96272
▁guide	-9.96272
▁lest	-9.96272
▁let's	-9.96272
▁patient	-9.96272
▁praise	-9.96272
▁stared	-9.96272
▁they're	-9.96272
▁violent	-9.96272
▁active	-9.96855
▁apart	-9.96855
▁approaching	-9.96855
▁feared	-9.96855
▁sank	-9.96855
▁causes	-9.97441
▁corn	-9.97441
▁foolish	-9.97441
▁immense	-9.97441
▁join	-9.97441
▁mysterious	-9.97441
▁souls	-9.97441
▁teach	-9.97441
▁thousands	-9.97441
▁thrust	-9.97441
▁won	-9.97441
▁advance	-9.98031
▁ages	-9.98031
▁assistance	-9.98031
▁claim	-9.98031
▁ease	-9.98031
▁event	-9.98031
▁increase	-9.98031
▁managed	-9.98031
▁mercy	-9.98031
▁native	-9.98031
▁oak	-9.98031
▁odd	-9.98031
▁queer	-9.98031
▁roman	-9.98031
▁shows	-9.98031
▁southern	-9.98031
▁stock	-9.98031
▁stretched	-9.98031
▁coffee	-9.98625
▁delightful	-9.98625
▁figures	-9.98625
▁gain	-9.98625
▁genius	-9.98625
▁governor	-9.98625
▁kissed	-9.98625
▁observe	-9.98625
▁press	-9.98625
▁proposed	-9.98625
▁secure	-9.98625
▁treated	-9.98625
▁utmost	-9.98625
▁wolf	-9.98625
▁hanging	-9.99222
▁interests	-9.99222
▁melancholy	-9.99222
▁qualities	-9.99222
▁showing	-9.99222
▁skill	-9.99222
▁striking	-9.99222
▁ate	-9.99822
▁bay	-9.99822
▁chosen	-9.99822
▁circle	-9.99822
▁connection	-9.99822
▁continue	-9.99822
▁crown	-9.99822
▁divided	-9.99822
▁effects	-9.99822
▁employed	-9.99822
▁fox	-9.99822
▁handed	-9.99822
▁plants	-9.99822
▁smooth	-9.99822
▁ugly	-9.99822
▁useless	-9.99822
▁woman's	-9.99822
▁admiration	-10.0043
▁agree	-10.0043
▁armed	-10.0043
▁centre	-10.0043
▁connected	-10.0043
▁difficulties	-10.0043
▁eating	-10.0043
▁glanced	-10.0043
▁haste	-10.0043
▁household	-10.0043
▁james	-10.0043
▁mamma	-10.0043
▁mode	-10.0043
▁mounted	-10.0043
▁murder	-10.0043
▁range	-10.0043
▁rome	-10.0043
▁spare	-10.0043
▁beg	-10.0103
▁gained	-10.0103
▁jim	-10.0103
▁argument	-10.0165
▁cabin	-10.0165
▁congress	-10.0165
▁dawn	-10.0165
▁destruction	-10.0165
▁duties	-10.0165
▁extended	-10.0165
▁guns	-10.0165
▁park	-10.0165
▁police	-10.0165
▁raise	-10.0165
▁refuse	-10.0165
▁spend	-10.0165
▁boots	-10.0226
▁cap	-10.0226
▁constant	-10.0226
▁departed	-10.0226
▁forgive	-10.0226
▁magnificent	-10.0226
▁pictures	-10.0226
▁sail	-10.0226
▁smith	-10.0226
▁squire	-10.0226
▁surrounded	-10.0226
▁appointed	-10.0288
▁bade	-10.0288
▁climbed	-10.0288
▁confusion	-10.0288
▁conscience	-10.0288
▁described	-10.0288
▁intellectual	-10.0288
▁pause	-10.0288
▁pepper	-10.0288
▁pink	-10.0288
▁quality	-10.0288
▁rapid	-10.0288
▁sacred	-10.0288
▁slightly	-10.0288
▁somebody	-10.0288
▁sorts	-10.0288
▁commanded	-10.035
▁consent	-10.035
▁faced	-10.035
▁guilty	-10.035
▁harry	-10.035
▁learning	-10.035
▁luck	-10.035
▁northern	-10.035
▁notes	-10.035
▁shadows	-10.035
▁soil	-10.035
▁sufficiently	-10.035
▁tied	-10.035
▁wash	-10.035
▁you'd	-10.035
▁bottle	-10.0413
▁cheeks	-10.0413
▁cost	-10.0413
▁hastily	-10.0413
▁immediate	-10.0413
▁introduced	-10.0413
▁lover	-10.0413
▁manners	-10.0413
▁market	-10.0413
▁merry	-10.0413
▁patience	-10.0413
▁practical	-10.0413
▁sacrifice	-10.0413
▁sancho	-10.0413
▁sleeping	-10.0413
▁visited	-10.0413
▁adventure	-10.0476
▁boil	-10.0476
▁david	-10.0476
▁extremely	-10.0476
▁intention	-10.0476
▁laughter	-10.0476
▁mankind	-10.0476
▁mistaken	-10.0476
▁reflection	-10.0476
▁senses	-10.0476
▁sigh	-10.0476
▁signs	-10.0476
▁sum	-10.0476
▁tis	-10.0476
▁arthur	-10.054
▁charming	-10.054
▁current	-10.054
▁gift	-10.054
▁majesty	-10.054
▁nights	-10.054
▁pan	-10.054
▁separate	-10.054
▁slavery	-10.054
▁virginia	-10.054
▁win	-10.054
▁destroyed	-10.0604
▁energy	-10.0604
▁kings	-10.0604
▁lamp	-10.0604
▁misery	-10.0604
▁nodded	-10.0604
▁operation	-10.0604
▁report	-10.0604
▁shade	-10.0604
▁sighed	-10.0604
▁alike	-10.0668
▁base	-10.0668
▁horrible	-10.0668
▁ignorant	-10.0668
▁joseph	-10.0668
▁pipe	-10.0668
▁quantity	-10.0668
▁rendered	-10.0668
▁sin	-10.0668
▁solemn	-10.0668
▁trial	-10.0668
▁everyone	-10.0733
▁nearest	-10.0733
▁popular	-10.0733
▁prayer	-10.0733
▁protection	-10.0733
▁punishment	-10.0733
▁quarters	-10.0733
▁rare	-10.0733
▁swept	-10.0733
▁travel	-10.0733
▁troubled	-10.0733
▁absolute	-10.0798
▁address	-10.0798
▁banks	-10.0798
▁charles	-10.0798
▁enormous	-10.0798
▁folk	-10.0798
▁fourteen	-10.0798
▁innocent	-10.0798
▁lands	-10.0798
▁principal	-10.0798
▁reasons	-10.0798
▁sees	-10.0798
▁suspicion	-10.0798
▁band	-10.0863
▁directed	-10.0863
▁firmly	-10.0863
▁flame	-10.0863
▁jumped	-10.0863
▁mount	-10.0863
▁properly	-10.0863
▁reality	-10.0863
▁bold	-10.0929
▁convinced	-10.0929
▁dancing	-10.0929
▁deck	-10.0929
▁flung	-10.0929
▁locked	-10.0929
▁lonely	-10.0929
▁oil	-10.0929
▁plans	-10.0929
▁rage	-10.0929
▁results	-10.0929
▁sell	-10.0929
▁source	-10.0929
▁washington	-10.0929
▁we've	-10.0929
▁accomplished	-10.0996
▁acquainted	-10.0996
▁belong	-10.0996
▁concluded	-10.0996
▁created	-10.0996
▁habits	-10.0996
▁kate	-10.0996
▁lately	-10.0996
▁quixote	-10.0996
▁silk	-10.0996
▁subjects	-10.0996
▁accompanied	-10.1063
▁gets	-10.1063
▁hut	-10.1063
▁lucy	-10.1063
▁mental	-10.1063
▁minister	-10.1063
▁recovered	-10.1063
▁resumed	-10.1063
▁universal	-10.1063
▁bushes	-10.113
▁composed	-10.113
▁disposition	-10.113
▁empire	-10.113
▁gratitude	-10.113
▁prisoners	-10.113
▁stronger	-10.113
▁affected	-10.1198
▁assured	-10.1198
▁awake	-10.1198
▁dim	-10.1198
▁granted	-10.1198
▁helen	-10.1198
▁merchant	-10.1198
▁successful	-10.1198
▁throne	-10.1198
▁violence	-10.1198
▁wedding	-10.1198
▁astonishment	-10.1266
▁attitude	-10.1266
▁beheld	-10.1266
▁departure	-10.1266
▁female	-10.1266
▁he'll	-10.1266
▁hid	-10.1266
▁hitherto	-10.1266
▁june	-10.1266
▁pull	-10.1266
▁reader	-10.1266
▁rights	-10.1266
▁steel	-10.1266
▁trip	-10.1266
▁triumph	-10.1266
▁wondering	-10.1266
▁afford	-10.1335
▁announced	-10.1335
▁burned	-10.1335
▁compelled	-10.1335
▁emotion	-10.1335
▁expedition	-10.1335
▁god's	-10.1335
▁ours	-10.1335
▁pick	-10.1335
▁reduced	-10.1335
▁remaining	-10.1335
▁require	-10.1335
▁rested	-10.1335
▁shaking	-10.1335
▁style	-10.1335
▁younger	-10.1335
▁agreeable	-10.1404
▁beard	-10.1404
▁crept	-10.1404
▁demand	-10.1404
▁faithful	-10.1404
▁fifth	-10.1404
▁local	-10.1404
▁pour	-10.1404
▁rush	-10.1404
▁series	-10.1404
▁severe	-10.1404
▁wherever	-10.1404
▁afterward	-10.1474
▁angel	-10.1474
▁breaking	-10.1474
▁classes	-10.1474
▁crew	-10.1474
▁descended	-10.1474
▁movements	-10.1474
▁mystery	-10.1474
▁notion	-10.1474
▁possess	-10.1474
▁request	-10.1474
▁sang	-10.1474
▁shone	-10.1474
▁smaller	-10.1474
▁tells	-10.1474
▁torn	-10.1474
▁vision	-10.1474
▁acts	-10.1544
▁anxiety	-10.1544
▁attached	-10.1544
▁bones	-10.1544
▁build	-10.1544
▁changes	-10.1544
▁characters	-10.1544
▁college	-10.1544
▁colored	-10.1544
▁favour	-10.1544
▁page	-10.1544
▁painful	-10.1544
▁poet	-10.1544
▁saddle	-10.1544
▁addressed	-10.1614
▁cave	-10.1614
▁details	-10.1614
▁eternal	-10.1614
▁final	-10.1614
▁humanity	-10.1614
▁humble	-10.1614
▁leader	-10.1614
▁likewise	-10.1614
▁scattered	-10.1614
▁sylvia	-10.1614
▁vague	-10.1614
▁contained	-10.1686
▁deserted	-10.1686
▁desperate	-10.1686
▁gates	-10.1686
▁giant	-10.1686
▁hers	-10.1686
▁loving	-10.1686
▁numbers	-10.1686
▁observation	-10.1686
▁previous	-10.1686
▁rid	-10.1686
▁sounded	-10.1686
▁thunder	-10.1686
▁track	-10.1686
▁wept	-10.1686
▁winds	-10.1686
▁adam	-10.1757
▁amid	-10.1757
▁button	-10.1757
▁bye	-10.1757
▁diamond	-10.1757
▁duchess	-10.1757
▁favor	-10.1757
▁fierce	-10.1757
▁glorious	-10.1757
▁guests	-10.1757
▁hunger	-10.1757
▁mixed	-10.1757
▁proportion	-10.1757
▁region	-10.1757
▁attended	-10.183
▁bosom	-10.183
▁consequently	-10.183
▁continually	-10.183
▁d'artagnan	-10.183
▁examined	-10.183
▁majority	-10.183
▁opposition	-10.183
▁port	-10.183
▁provisions	-10.183
▁seriously	-10.183
▁stuff	-10.183
▁trap	-10.183
▁unfortunate	-10.183
▁astonished	-10.1902
▁district	-10.1902
▁dread	-10.1902
▁farmer	-10.1902
▁fatal	-10.1902
▁growth	-10.1902
▁islands	-10.1902
▁katy	-10.1902
▁nonsense	-10.1902
▁occasions	-10.1902
▁record	-10.1902
▁sensation	-10.1902
▁shaggy	-10.1902
▁term	-10.1902
▁abandoned	-10.1976
▁beef	-10.1976
▁blame	-10.1976
▁brief	-10.1976
▁chiefly	-10.1976
▁chris	-10.1976
▁directions	-10.1976
▁frame	-10.1976
▁repeat	-10.1976
▁scientific	-10.1976
▁staring	-10.1976
▁strain	-10.1976
▁title	-10.1976
▁alarm	-10.2049
▁bride	-10.2049
▁egg	-10.2049
▁instinct	-10.2049
▁ned	-10.2049
▁pace	-10.2049
▁slain	-10.2049
▁stable	-10.2049
▁utter	-10.2049
▁apple	-10.2124
▁article	-10.2124
▁borne	-10.2124
▁description	-10.2124
▁furniture	-10.2124
▁hollow	-10.2124
▁invited	-10.2124
▁lion	-10.2124
▁madam	-10.2124
▁occasionally	-10.2124
▁reaching	-10.2124
▁ruin	-10.2124
▁accident	-10.2199
▁anywhere	-10.2199
▁assure	-10.2199
▁cheerful	-10.2199
▁delay	-10.2199
▁devoted	-10.2199
▁doubtless	-10.2199
▁folks	-10.2199
▁ghost	-10.2199
▁masters	-10.2199
▁midnight	-10.2199
▁muttered	-10.2199
▁parliament	-10.2199
▁pine	-10.2199
▁pot	-10.2199
▁probable	-10.2199
▁pursued	-10.2199
▁steadily	-10.2199
▁valuable	-10.2199
▁vanished	-10.2199
▁variety	-10.2199
▁warning	-10.2199
▁abroad	-10.2274
▁atmosphere	-10.2274
▁beasts	-10.2274
▁community	-10.2274
▁concealed	-10.2274
▁hang	-10.2274
▁he'd	-10.2274
▁inclined	-10.2274
▁leaned	-10.2274
▁leaning	-10.2274
▁maybe	-10.2274
▁plant	-10.2274
▁problem	-10.2274
▁reward	-10.2274
▁row	-10.2274
▁seeking	-10.2274
▁shake	-10.2274
▁spiritual	-10.2274
▁sultan	-10.2274
▁actual	-10.235
▁badly	-10.235
▁confess	-10.235
▁countries	-10.235
▁distress	-10.235
▁flood	-10.235
▁italy	-10.235
▁lieutenant	-10.235
▁metal	-10.235
▁perceive	-10.235
▁priests	-10.235
▁shoot	-10.235
▁slightest	-10.235
▁van	-10.235
▁aloud	-10.2427
▁boiled	-10.2427
▁chose	-10.2427
▁committed	-10.2427
▁crowded	-10.2427
▁delivered	-10.2427
▁destroy	-10.2427
▁domestic	-10.2427
▁exact	-10.2427
▁germany	-10.2427
▁guest	-10.2427
▁loves	-10.2427
▁match	-10.2427
▁nervous	-10.2427
▁per	-10.2427
▁philosophy	-10.2427
▁priest	-10.2427
▁represented	-10.2427
▁sending	-10.2427
▁shock	-10.2427
▁strongly	-10.2427
▁ambition	-10.2504
▁applied	-10.2504
▁circumstance	-10.2504
▁dressing	-10.2504
▁driving	-10.2504
▁hit	-10.2504
▁host	-10.2504
▁instrument	-10.2504
▁million	-10.2504
▁outer	-10.2504
▁permit	-10.2504
▁prospect	-10.2504
▁render	-10.2504
▁services	-10.2504
▁shed	-10.2504
▁shooting	-10.2504
▁signal	-10.2504
▁attempted	-10.2582
▁author	-10.2582
▁belonged	-10.2582
▁craft	-10.2582
▁daughters	-10.2582
▁desert	-10.2582
▁eaten	-10.2582
▁happens	-10.2582
▁hastened	-10.2582
▁hesitated	-10.2582
▁hospital	-10.2582
▁la	-10.2582
▁origin	-10.2582
▁poured	-10.2582
▁rabbit	-10.2582
▁rang	-10.2582
▁regret	-10.2582
▁smell	-10.2582
▁stern	-10.2582
▁stiff	-10.2582
▁thomas	-10.2582
▁throwing	-10.2582
▁venture	-10.2582
▁views	-10.2582
▁wandered	-10.2582
▁beach	-10.266
▁check	-10.266
▁credit	-10.266
▁fancied	-10.266
▁forehead	-10.266
▁hundreds	-10.266
▁irish	-10.266
▁leaf	-10.266
▁marched	-10.266
▁mood	-10.266
▁population	-10.266
▁profound	-10.266
▁readily	-10.266
▁riding	-10.266
▁unusual	-10.266
▁walter	-10.266
▁wandering	-10.266
▁weakness	-10.266
▁assumed	-10.2739
▁belongs	-10.2739
▁burden	-10.2739
▁developed	-10.2739
▁fed	-10.2739
▁furnished	-10.2739
▁planet	-10.2739
▁risk	-10.2739
▁steady	-10.2739
▁vessels	-10.2739
▁wearing	-10.2739
▁writer	-10.2739
▁angels	-10.2819
▁beings	-10.2819
▁beloved	-10.2819
▁bench	-10.2819
▁development	-10.2819
▁duration	-10.2819
▁essential	-10.2819
▁fairy	-10.2819
▁grandmother	-10.2819
▁hero	-10.2819
▁knocked	-10.2819
▁lunch	-10.2819
▁manage	-10.2819
▁obey	-10.2819
▁roll	-10.2819
▁rules	-10.2819
▁trot	-10.2819
▁calls	-10.2899
▁communication	-10.2899
▁frequent	-10.2899
▁insisted	-10.2899
▁italian	-10.2899
▁job	-10.2899
▁library	-10.2899
▁morgan	-10.2899
▁noon	-10.2899
▁painted	-10.2899
▁poetry	-10.2899
▁poverty	-10.2899
▁richmond	-10.2899
▁safely	-10.2899
▁supreme	-10.2899
▁tad	-10.2899
▁thine	-10.2899
▁treat	-10.2899
▁wives	-10.2899
▁apparent	-10.298
▁bless	-10.298
▁cheek	-10.298
▁elsie	-10.298
▁intimate	-10.298
▁lift	-10.298
▁lightly	-10.298
▁shouldn't	-10.298
▁spanish	-10.298
▁stayed	-10.298
▁stuck	-10.298
▁stupid	-10.298
▁swiftly	-10.298
▁witness	-10.298
▁china	-10.3062
▁cream	-10.3062
▁describe	-10.3062
▁dining	-10.3062
▁feed	-10.3062
▁fitted	-10.3062
▁greek	-10.3062
▁headed	-10.3062
▁ideal	-10.3062
▁industry	-10.3062
▁intense	-10.3062
▁keen	-10.3062
▁meantime	-10.3062
▁voyage	-10.3062
▁cared	-10.3144
▁cease	-10.3144
▁centuries	-10.3144
▁darling	-10.3144
▁failure	-10.3144
▁fashioned	-10.3144
▁fastened	-10.3144
▁heavens	-10.3144
▁hunt	-10.3144
▁multitude	-10.3144
▁powder	-10.3144
▁rivers	-10.3144
▁sex	-10.3144
▁sharply	-10.3144
▁shell	-10.3144
▁singular	-10.3144
▁solid	-10.3144
▁tones	-10.3144
▁appeal	-10.3227
▁deny	-10.3227
▁desires	-10.3227
▁families	-10.3227
▁gay	-10.3227
▁hiding	-10.3227
▁lamb	-10.3227
▁list	-10.3227
▁pack	-10.3227
▁separated	-10.3227
▁smoking	-10.3227
▁bernard	-10.3311
▁boats	-10.3311
▁enthusiasm	-10.3311
▁formerly	-10.3311
▁leisure	-10.3311
▁neighbors	-10.3311
▁prey	-10.3311
▁rice	-10.3311
▁territory	-10.3311
▁twilight	-10.3311
▁acquired	-10.3395
▁activity	-10.3395
▁apartment	-10.3395
▁benefit	-10.3395
▁chase	-10.3395
▁clock	-10.3395
▁decision	-10.3395
▁design	-10.3395
▁eyed	-10.3395
▁feast	-10.3395
▁finds	-10.3395
▁hast	-10.3395
▁hated	-10.3395
▁mortal	-10.3395
▁nest	-10.3395
▁noted	-10.3395
▁pretended	-10.3395
▁someone	-10.3395
▁treatment	-10.3395
▁turns	-10.3395
▁beds	-10.348
▁bitterly	-10.348
▁buildings	-10.348
▁central	-10.348
▁coloured	-10.348
▁consequences	-10.348
▁earlier	-10.348
▁emily	-10.348
▁fired	-10.348
▁hatred	-10.348
▁hell	-10.348
▁millions	-10.348
▁parted	-10.348
▁proceed	-10.348
▁retreat	-10.348
▁shelter	-10.348
▁succeed	-10.348
▁suspected	-10.348
▁tie	-10.348
▁washed	-10.348
▁brow	-10.3566
▁diana	-10.3566
▁drank	-10.3566
▁drinking	-10.3566
▁drunk	-10.3566
▁elder	-10.3566
▁estate	-10.3566
▁et	-10.3566
▁exceedingly	-10.3566
▁fur	-10.3566
▁generous	-10.3566
▁heels	-10.3566
▁images	-10.3566
▁inches	-10.3566
▁kiss	-10.3566
▁lincoln	-10.3566
▁mud	-10.3566
▁neighbourhood	-10.3566
▁obtain	-10.3566
▁overcome	-10.3566
▁rear	-10.3566
▁rifle	-10.3566
▁rude	-10.3566
▁scrooge	-10.3566
▁strangers	-10.3566
▁straw	-10.3566
▁teaching	-10.3566
▁towns	-10.3566
▁wilson	-10.3566
▁articles	-10.3653
▁aspect	-10.3653
▁autumn	-10.3653
▁cake	-10.3653
▁closer	-10.3653
▁dearest	-10.3653
▁discussion	-10.3653
▁englishman	-10.3653
▁fears	-10.3653
▁fever	-10.3653
▁forever	-10.3653
▁fun	-10.3653
▁heavily	-10.3653
▁ignorance	-10.3653
▁lack	-10.3653
▁pound	-10.3653
▁purple	-10.3653
▁rachel	-10.3653
▁regarding	-10.3653
▁roses	-10.3653
▁sailed	-10.3653
▁thither	-10.3653
▁ventured	-10.3653
▁wave	-10.3653
▁bees	-10.374
▁civil	-10.374
▁concern	-10.374
▁earl	-10.374
▁fearful	-10.374
▁imagined	-10.374
▁inch	-10.374
▁passions	-10.374
▁purposes	-10.374
▁resolution	-10.374
▁rolling	-10.374
▁swung	-10.374
▁tide	-10.374
▁trained	-10.374
▁virtues	-10.374
▁widow	-10.374
▁acted	-10.3828
▁capacity	-10.3828
▁cart	-10.3828
▁correct	-10.3828
▁crossing	-10.3828
▁exhausted	-10.3828
▁existed	-10.3828
▁flash	-10.3828
▁frank	-10.3828
▁hunter	-10.3828
▁notwithstanding	-10.3828
▁obvious	-10.3828
▁operations	-10.3828
▁performed	-10.3828
▁piano	-10.3828
▁plate	-10.3828
▁reflected	-10.3828
▁sauce	-10.3828
▁shortly	-10.3828
▁test	-10.3828
▁ability	-10.3917
▁acting	-10.3917
▁anyway	-10.3917
▁beating	-10.3917
▁bob	-10.3917
▁branch	-10.3917
▁center	-10.3917
▁disposed	-10.3917
▁enjoyed	-10.3917
▁entering	-10.3917
▁ere	-10.3917
▁male	-10.3917
▁opinions	-10.3917
▁oven	-10.3917
▁persuaded	-10.3917
▁phoenix	-10.3917
▁roads	-10.3917
▁sailor	-10.3917
▁songs	-10.3917
▁staff	-10.3917
▁stirred	-10.3917
▁tent	-10.3917
▁wake	-10.3917
▁wheel	-10.3917
▁audience	-10.4007
▁bible	-10.4007
▁climb	-10.4007
▁danced	-10.4007
▁deeper	-10.4007
▁disease	-10.4007
▁dragged	-10.4007
▁eastern	-10.4007
▁flames	-10.4007
▁goodness	-10.4007
▁grateful	-10.4007
▁intelligent	-10.4007
▁jews	-10.4007
▁leaped	-10.4007
▁monster	-10.4007
▁precisely	-10.4007
▁supported	-10.4007
▁tobacco	-10.4007
▁april	-10.4097
▁athenians	-10.4097
▁bake	-10.4097
▁begins	-10.4097
▁candle	-10.4097
▁chain	-10.4097
▁compared	-10.4097
▁cow	-10.4097
▁disturbed	-10.4097
▁division	-10.4097
▁hale	-10.4097
▁interview	-10.4097
▁leather	-10.4097
▁misfortune	-10.4097
▁mixture	-10.4097
▁pockets	-10.4097
▁pointing	-10.4097
▁prayers	-10.4097
▁prefer	-10.4097
▁province	-10.4097
▁solitary	-10.4097
▁starting	-10.4097
▁sunshine	-10.4097
▁wheels	-10.4097
▁addition	-10.4189
▁cattle	-10.4189
▁consists	-10.4189
▁contempt	-10.4189
▁cries	-10.4189
▁date	-10.4189
▁dirty	-10.4189
▁disappointed	-10.4189
▁distinction	-10.4189
▁fence	-10.4189
▁fix	-10.4189
▁fury	-10.4189
▁guards	-10.4189
▁handkerchief	-10.4189
▁heap	-10.4189
▁lawyer	-10.4189
▁lean	-10.4189
▁lesson	-10.4189
▁levin	-10.4189
▁measures	-10.4189
▁mingled	-10.4189
▁missed	-10.4189
▁platform	-10.4189
▁pursuit	-10.4189
▁remote	-10.4189
▁scarce	-10.4189
▁scenes	-10.4189
▁startled	-10.4189
▁unexpected	-10.4189
▁urged	-10.4189
▁wishing	-10.4189
▁adopted	-10.4281
▁bar	-10.4281
▁boiling	-10.4281
▁contact	-10.4281
▁conviction	-10.4281
▁copy	-10.4281
▁decide	-10.4281
▁falls	-10.4281
▁jest	-10.4281
▁limbs	-10.4281
▁masses	-10.4281
▁naked	-10.4281
▁necessarily	-10.4281
▁reasonable	-10.4281
▁romans	-10.4281
▁stated	-10.4281
▁swear	-10.4281
▁yield	-10.4281
▁anthea	-10.4374
▁arrangement	-10.4374
▁countess	-10.4374
▁cutting	-10.4374
▁independent	-10.4374
▁indifferent	-10.4374
▁jackson	-10.4374
▁medicine	-10.4374
▁motive	-10.4374
▁reckon	-10.4374
▁rent	-10.4374
▁sore	-10.4374
▁succession	-10.4374
▁tin	-10.4374
▁weeping	-10.4374
▁whisper	-10.4374
▁wretched	-10.4374
▁aged	-10.4468
▁attend	-10.4468
▁career	-10.4468
▁ceremony	-10.4468
▁commander	-10.4468
▁committee	-10.4468
▁deed	-10.4468
▁depend	-10.4468
▁finish	-10.4468
▁fleet	-10.4468
▁inner	-10.4468
▁lit	-10.4468
▁lofty	-10.4468
▁politics	-10.4468
▁preparing	-10.4468
▁reputation	-10.4468
▁root	-10.4468
▁sale	-10.4468
▁settle	-10.4468
▁threatened	-10.4468
▁tight	-10.4468
▁wagon	-10.4468
▁whip	-10.4468
▁witch	-10.4468
▁absorbed	-10.4562
▁apples	-10.4562
▁arts	-10.4562
▁considering	-10.4562
▁contented	-10.4562
▁diamonds	-10.4562
▁disappointment	-10.4562
▁endure	-10.4562
▁experienced	-10.4562
▁feels	-10.4562
▁flow	-10.4562
▁methods	-10.4562
▁mouse	-10.4562
▁newspaper	-10.4562
▁pains	-10.4562
▁pirates	-10.4562
▁possibility	-10.4562
▁revolution	-10.4562
▁sensations	-10.4562
▁stole	-10.4562
▁thereby	-10.4562
▁today	-10.4562
▁trace	-10.4562
▁visitors	-10.4562
▁weapons	-10.4562
▁wilderness	-10.4562
▁absurd	-10.4658
▁agent	-10.4658
▁apt	-10.4658
▁burnt	-10.4658
▁charm	-10.4658
▁clothing	-10.4658
▁drops	-10.4658
▁e	-10.4658
▁engagement	-10.4658
▁examine	-10.4658
▁gather	-10.4658
▁gloomy	-10.4658
▁invitation	-10.4658
▁labour	-10.4658
▁lock	-10.4658
▁marble	-10.4658
▁owner	-10.4658
▁plunged	-10.4658
▁prevented	-10.4658
▁rays	-10.4658
▁resting	-10.4658
▁springs	-10.4658
▁they'll	-10.4658
▁warriors	-10.4658
▁weep	-10.4658
▁aim	-10.4755
▁ashore	-10.4755
▁attacked	-10.4755
▁august	-10.4755
▁baron	-10.4755
▁belt	-10.4755
▁card	-10.4755
▁coach	-10.4755
▁county	-10.4755
▁daring	-10.4755
▁daylight	-10.4755
▁depths	-10.4755
▁election	-10.4755
▁electric	-10.4755
▁exposed	-10.4755
▁fortunate	-10.4755
▁fro	-10.4755
▁gifts	-10.4755
▁here's	-10.4755
▁jimmy	-10.4755
▁preserved	-10.4755
▁quarrel	-10.4755
▁related	-10.4755
▁richard	-10.4755
▁scotland	-10.4755
▁silly	-10.4755
▁whereas	-10.4755
▁wrapped	-10.4755
▁comrade	-10.4852
▁condemned	-10.4852
▁danglars	-10.4852
▁depth	-10.4852
▁driver	-10.4852
▁error	-10.4852
▁grounds	-10.4852
▁hearted	-10.4852
▁heartily	-10.4852
▁india	-10.4852
▁landed	-10.4852
▁non	-10.4852
▁opposed	-10.4852
▁pole	-10.4852
▁presents	-10.4852
▁shaped	-10.4852
▁slender	-10.4852
▁troubles	-10.4852
▁arrive	-10.4951
▁belonging	-10.4951
▁brush	-10.4951
▁changing	-10.4951
▁coal	-10.4951
▁comrades	-10.4951
▁deeds	-10.4951
▁depends	-10.4951
▁dried	-10.4951
▁finest	-10.4951
▁grim	-10.4951
▁knock	-10.4951
▁linen	-10.4951
▁pen	-10.4951
▁pile	-10.4951
▁receiving	-10.4951
▁regiment	-10.4951
▁scheme	-10.4951
▁schools	-10.4951
▁steam	-10.4951
▁stout	-10.4951
▁tear	-10.4951
▁tenderness	-10.4951
▁thirteen	-10.4951
▁visitor	-10.4951
▁agnes	-10.505
▁anxiously	-10.505
▁ashes	-10.505
▁burn	-10.505
▁charged	-10.505
▁colour	-10.505
▁examination	-10.505
▁girl's	-10.505
▁heavenly	-10.505
▁helpless	-10.505
▁incident	-10.505
▁load	-10.505
▁log	-10.505
▁pressure	-10.505
▁pulling	-10.505
▁raising	-10.505
▁revenge	-10.505
▁sentiment	-10.505
▁struggling	-10.505
▁susan	-10.505
▁upstairs	-10.505
▁absent	-10.5151
▁assist	-10.5151
▁awoke	-10.5151
▁bee	-10.5151
▁brings	-10.5151
▁cetera	-10.5151
▁farewell	-10.5151
▁gardens	-10.5151
▁genuine	-10.5151
▁guessed	-10.5151
▁income	-10.5151
▁instances	-10.5151
▁lane	-10.5151
▁maintain	-10.5151
▁marks	-10.5151
▁murderer	-10.5151
▁oath	-10.5151
▁owing	-10.5151
▁reign	-10.5151
▁score	-10.5151
▁socrates	-10.5151
▁t	-10.5151
▁thence	-10.5151
▁unconscious	-10.5151
▁vengeance	-10.5151
▁vote	-10.5151
▁wit	-10.5151
▁worry	-10.5151
▁blessed	-10.5252
▁dwell	-10.5252
▁essence	-10.5252
▁fathers	-10.5252
▁federal	-10.5252
▁freely	-10.5252
▁objection	-10.5252
▁procession	-10.5252
▁profession	-10.5252
▁recent	-10.5252
▁section	-10.5252
▁silently	-10.5252
▁statement	-10.5252
▁string	-10.5252
▁volume	-10.5252
▁arise	-10.5355
▁b	-10.5355
▁basin	-10.5355
▁chimney	-10.5355
▁contents	-10.5355
▁convenient	-10.5355
▁desk	-10.5355
▁distinctly	-10.5355
▁favorite	-10.5355
▁flashed	-10.5355
▁gallery	-10.5355
▁inclination	-10.5355
▁including	-10.5355
▁instruments	-10.5355
▁intervals	-10.5355
▁machinery	-10.5355
▁negro	-10.5355
▁owe	-10.5355
▁practically	-10.5355
▁prepare	-10.5355
▁pretend	-10.5355
▁recall	-10.5355
▁relative	-10.5355
▁shoe	-10.5355
▁slew	-10.5355
▁suggestion	-10.5355
▁touching	-10.5355
▁trembled	-10.5355
▁universe	-10.5355
▁wanting	-10.5355
▁wire	-10.5355
▁amelia	-10.5459
▁awakened	-10.5459
▁betrayed	-10.5459
▁commonly	-10.5459
▁confined	-10.5459
▁counsel	-10.5459
▁display	-10.5459
▁fetch	-10.5459
▁gesture	-10.5459
▁hither	-10.5459
▁impressions	-10.5459
▁impulse	-10.5459
▁individuals	-10.5459
▁issued	-10.5459
▁lasted	-10.5459
▁lemon	-10.5459
▁lily	-10.5459
▁lovers	-10.5459
▁perfection	-10.5459
▁published	-10.5459
▁quit	-10.5459
▁resistance	-10.5459
▁revealed	-10.5459
▁risen	-10.5459
▁sailors	-10.5459
▁satisfy	-10.5459
▁scarlet	-10.5459
▁sixth	-10.5459
▁unpleasant	-10.5459
▁advantages	-10.5563
▁advised	-10.5563
▁americans	-10.5563
▁chin	-10.5563
▁cunning	-10.5563
▁cyril	-10.5563
▁democratic	-10.5563
▁earnestly	-10.5563
▁elements	-10.5563
▁exchange	-10.5563
▁faded	-10.5563
▁fawn	-10.5563
▁feeble	-10.5563
▁gathering	-10.5563
▁glacier	-10.5563
▁louise	-10.5563
▁perform	-10.5563
▁pierre	-10.5563
▁princes	-10.5563
▁re	-10.5563
▁relieved	-10.5563
▁sheet	-10.5563
▁shirt	-10.5563
▁streams	-10.5563
▁tomb	-10.5563
▁tremendous	-10.5563
▁chairs	-10.5669
▁conceived	-10.5669
▁declare	-10.5669
▁expense	-10.5669
▁fame	-10.5669
▁holds	-10.5669
▁inn	-10.5669
▁jewels	-10.5669
▁loaded	-10.5669
▁obeyed	-10.5669
▁pie	-10.5669
▁prosperity	-10.5669
▁protested	-10.5669
▁roots	-10.5669
▁russian	-10.5669
▁san	-10.5669
▁steal	-10.5669
▁suitable	-10.5669
▁waved	-10.5669
▁wherein	-10.5669
▁abruptly	-10.5776
▁administration	-10.5776
▁barn	-10.5776
▁boston	-10.5776
▁bush	-10.5776
▁certainty	-10.5776
▁channel	-10.5776
▁cleared	-10.5776
▁copper	-10.5776
▁definite	-10.5776
▁economic	-10.5776
▁edison	-10.5776
▁expecting	-10.5776
▁favourite	-10.5776
▁folded	-10.5776
▁folly	-10.5776
▁fortunes	-10.5776
▁gladly	-10.5776
▁husband's	-10.5776
▁invisible	-10.5776
▁joke	-10.5776
▁laying	-10.5776
▁lightning	-10.5776
▁limited	-10.5776
▁mix	-10.5776
▁regards	-10.5776
▁savages	-10.5776
▁september	-10.5776
▁shouting	-10.5776
▁slip	-10.5776
▁steep	-10.5776
▁stopping	-10.5776
▁avenue	-10.5884
▁bark	-10.5884
▁characteristic	-10.5884
▁cliff	-10.5884
▁containing	-10.5884
▁detail	-10.5884
▁eldest	-10.5884
▁external	-10.5884
▁floating	-10.5884
▁increasing	-10.5884
▁indicated	-10.5884
▁monte	-10.5884
▁owned	-10.5884
▁ruins	-10.5884
▁simplicity	-10.5884
▁solitude	-10.5884
▁spell	-10.5884
▁stomach	-10.5884
▁tore	-10.5884
▁trunk	-10.5884
▁abandon	-10.5993
▁armies	-10.5993
▁assume	-10.5993
▁average	-10.5993
▁avoided	-10.5993
▁balls	-10.5993
▁bells	-10.5993
▁blew	-10.5993
▁blown	-10.5993
▁brethren	-10.5993
▁calmly	-10.5993
▁commenced	-10.5993
▁dreamed	-10.5993
▁egypt	-10.5993
▁equality	-10.5993
▁execution	-10.5993
▁fortunately	-10.5993
▁glow	-10.5993
▁handle	-10.5993
▁happily	-10.5993
▁innocence	-10.5993
▁interior	-10.5993
▁killing	-10.5993
▁landing	-10.5993
▁lions	-10.5993
▁moderate	-10.5993
▁privilege	-10.5993
▁protect	-10.5993
▁protest	-10.5993
▁reference	-10.5993
▁requires	-10.5993
▁sadly	-10.5993
▁shells	-10.5993
▁shores	-10.5993
▁speaker	-10.5993
▁steamer	-10.5993
▁stolen	-10.5993
▁sunk	-10.5993
▁thanked	-10.5993
▁using	-10.5993
▁weapon	-10.5993
▁wing	-10.5993
▁bars	-10.6104
▁cap'n	-10.6104
▁chopped	-10.6104
▁completed	-10.6104
▁cotton	-10.6104
▁dwelt	-10.6104
▁existing	-10.6104
▁fires	-10.6104
▁florence	-10.6104
▁forests	-10.6104
▁funeral	-10.6104
▁generation	-10.6104
▁groups	-10.6104
▁heroes	-10.6104
▁lively	-10.6104
▁mail	-10.6104
▁mill	-10.6104
▁porthos	-10.6104
▁promptly	-10.6104
▁proposition	-10.6104
▁refuge	-10.6104
▁remove	-10.6104
▁roar	-10.6104
▁secretary	-10.6104
▁security	-10.6104
▁sentiments	-10.6104
▁studied	-10.6104
▁total	-10.6104
▁wherefore	-10.6104
▁accounts	-10.6216
▁agony	-10.6216
▁alarmed	-10.6216
▁apply	-10.6216
▁cards	-10.6216
▁carved	-10.6216
▁continent	-10.6216
▁creek	-10.6216
▁disagreeable	-10.6216
▁emma	-10.6216
▁founded	-10.6216
▁frightful	-10.6216
▁hercules	-10.6216
▁indifference	-10.6216
▁issue	-10.6216
▁jealousy	-10.6216
▁lessons	-10.6216
▁monkey	-10.6216
▁motionless	-10.6216
▁newspapers	-10.6216
▁philadelphia	-10.6216
▁philip	-10.6216
▁poets	-10.6216
▁poison	-10.6216
▁polite	-10.6216
▁preferred	-10.6216
▁rows	-10.6216
▁slid	-10.6216
▁spear	-10.6216
▁standard	-10.6216
▁tales	-10.6216
▁thoughtfully	-10.6216
▁tip	-10.6216
▁training	-10.6216
▁victim	-10.6216
▁admired	-10.6329
▁amusement	-10.6329
▁cab	-10.6329
▁cavalry	-10.6329
▁charity	-10.6329
▁cure	-10.6329
▁deceived	-10.6329
▁department	-10.6329
▁dishes	-10.6329
▁funny	-10.6329
▁garments	-10.6329
▁grows	-10.6329
▁hasn't	-10.6329
▁indignation	-10.6329
▁injured	-10.6329
▁legal	-10.6329
▁lords	-10.6329
▁maintained	-10.6329
▁master's	-10.6329
▁minded	-10.6329
▁mist	-10.6329
▁permission	-10.6329
▁porch	-10.6329
▁regions	-10.6329
▁reported	-10.6329
▁respectable	-10.6329
▁romance	-10.6329
▁seas	-10.6329
▁vanity	-10.6329
▁waist	-10.6329
▁wife's	-10.6329
▁bedroom	-10.6443
▁bid	-10.6443
▁blank	-10.6443
▁bone	-10.6443
▁c	-10.6443
▁collar	-10.6443
▁confused	-10.6443
▁constance	-10.6443
▁deadly	-10.6443
▁doctrine	-10.6443
▁encounter	-10.6443
▁enjoyment	-10.6443
▁exists	-10.6443
▁experiment	-10.6443
▁gravely	-10.6443
▁hay	-10.6443
▁hurrying	-10.6443
▁idle	-10.6443
▁inquiry	-10.6443
▁jean	-10.6443
▁martin	-10.6443
▁meadows	-10.6443
▁michael	-10.6443
▁mission	-10.6443
▁moonlight	-10.6443
▁pages	-10.6443
▁pig	-10.6443
▁pony	-10.6443
▁prayed	-10.6443
▁rod	-10.6443
▁seconds	-10.6443
▁seventh	-10.6443
▁sole	-10.6443
▁stirring	-10.6443
▁supplied	-10.6443
▁supplies	-10.6443
▁thread	-10.6443
▁tribe	-10.6443
▁turkey	-10.6443
▁unlike	-10.6443
▁wrath	-10.6443
▁andy	-10.6559
▁anna	-10.6559
▁bred	-10.6559
▁cent	-10.6559
▁childhood	-10.6559
▁cliffs	-10.6559
▁conception	-10.6559
▁dangers	-10.6559
▁denied	-10.6559
▁determination	-10.6559
▁distinguish	-10.6559
▁envy	-10.6559
▁esteem	-10.6559
▁glimpse	-10.6559
▁haired	-10.6559
▁honey	-10.6559
▁injury	-10.6559
▁isabel	-10.6559
▁jealous	-10.6559
▁losing	-10.6559
▁loudly	-10.6559
▁neighborhood	-10.6559
▁otto	-10.6559
▁pronounced	-10.6559
▁ranks	-10.6559
▁rejoined	-10.6559
▁resources	-10.6559
▁ruined	-10.6559
▁selected	-10.6559
▁sovereign	-10.6559
▁tables	-10.6559
▁teacher	-10.6559
▁uneasy	-10.6559
▁yonder	-10.6559
▁cardinal	-10.6676
▁clearing	-10.6676
▁contract	-10.6676
▁cristo	-10.6676
▁defend	-10.6676
▁derived	-10.6676
▁displayed	-10.6676
▁francs	-10.6676
▁gloom	-10.6676
▁gown	-10.6676
▁holes	-10.6676
▁horrid	-10.6676
▁jason	-10.6676
▁july	-10.6676
▁ladder	-10.6676
▁legislature	-10.6676
▁limit	-10.6676
▁merit	-10.6676
▁mischief	-10.6676
▁namely	-10.6676
▁p	-10.6676
▁passes	-10.6676
▁persuade	-10.6676
▁plains	-10.6676
▁pleasures	-10.6676
▁railway	-10.6676
▁reasoning	-10.6676
▁responded	-10.6676
▁rubbed	-10.6676
▁saturday	-10.6676
▁sensitive	-10.6676
▁spain	-10.6676
▁associated	-10.6794
▁association	-10.6794
▁cheer	-10.6794
▁complex	-10.6794
▁defeat	-10.6794
▁depart	-10.6794
▁dot	-10.6794
▁elsewhere	-10.6794
▁flag	-10.6794
▁goat	-10.6794
▁hideous	-10.6794
▁hopeless	-10.6794
▁judges	-10.6794
▁kid	-10.6794
▁largest	-10.6794
▁longing	-10.6794
▁louis	-10.6794
▁meadow	-10.6794
▁mutual	-10.6794
▁parting	-10.6794
▁policy	-10.6794
▁push	-10.6794
▁railroad	-10.6794
▁remarks	-10.6794
▁repose	-10.6794
▁resist	-10.6794
▁sergeant	-10.6794
▁shout	-10.6794
▁sunset	-10.6794
▁thoughtful	-10.6794
▁undoubtedly	-10.6794
▁whereupon	-10.6794
▁adventures	-10.6914
▁bags	-10.6914
▁based	-10.6914
▁bath	-10.6914
▁bending	-10.6914
▁campaign	-10.6914
▁churches	-10.6914
▁collection	-10.6914
▁curtains	-10.6914
▁davy	-10.6914
▁day's	-10.6914
▁element	-10.6914
▁enterprise	-10.6914
▁firing	-10.6914
▁floated	-10.6914
▁incense	-10.6914
▁instructions	-10.6914
▁intercourse	-10.6914
▁judged	-10.6914
▁melted	-10.6914
▁musical	-10.6914
▁ox	-10.6914
▁penny	-10.6914
▁pitch	-10.6914
▁planted	-10.6914
▁porter	-10.6914
▁prairie	-10.6914
▁provide	-10.6914
▁punished	-10.6914
▁rocky	-10.6914
▁santa	-10.6914
▁senator	-10.6914
▁strangely	-10.6914
▁swallowed	-10.6914
▁thief	-10.6914
▁travellers	-10.6914
▁trusted	-10.6914
▁vigorous	-10.6914
▁wilt	-10.6914
▁youngest	-10.6914
▁amiable	-10.7035
▁assistant	-10.7035
▁blessing	-10.7035
▁breathe	-10.7035
▁breed	-10.7035
▁durham	-10.7035
▁dwelling	-10.7035
▁estralla	-10.7035
▁foe	-10.7035
▁fright	-10.7035
▁hint	-10.7035
▁homes	-10.7035
▁impressed	-10.7035
▁inspired	-10.7035
▁ireland	-10.7035
▁jump	-10.7035
▁knee	-10.7035
▁largely	-10.7035
▁le	-10.7035
▁leap	-10.7035
▁measured	-10.7035
▁ministers	-10.7035
▁mule	-10.7035
▁murmur	-10.7035
▁occupation	-10.7035
▁official	-10.7035
▁palm	-10.7035
▁peaceful	-10.7035
▁peasant	-10.7035
▁preparations	-10.7035
▁pudding	-10.7035
▁quoth	-10.7035
▁reminded	-10.7035
▁runs	-10.7035
▁scale	-10.7035
▁speaks	-10.7035
▁spectacle	-10.7035
▁stores	-10.7035
▁supposing	-10.7035
▁surrounding	-10.7035
▁theatre	-10.7035
▁thirst	-10.7035
▁assembly	-10.7158
▁awkward	-10.7158
▁britain	-10.7158
▁bull	-10.7158
▁collected	-10.7158
▁combined	-10.7158
▁conceive	-10.7158
▁contain	-10.7158
▁corners	-10.7158
▁counted	-10.7158
▁creation	-10.7158
▁crumbs	-10.7158
▁curiously	-10.7158
▁despite	-10.7158
▁devotion	-10.7158
▁drift	-10.7158
▁effective	-10.7158
▁endless	-10.7158
▁felicity	-10.7158
▁fishing	-10.7158
▁grasp	-10.7158
▁ha	-10.7158
▁improvement	-10.7158
▁keeps	-10.7158
▁medical	-10.7158
▁motives	-10.7158
▁neighbours	-10.7158
▁offering	-10.7158
▁recently	-10.7158
▁recover	-10.7158
▁romantic	-10.7158
▁ruth	-10.7158
▁satisfactory	-10.7158
▁scarecrow	-10.7158
▁shakespeare	-10.7158
▁stroke	-10.7158
▁suspect	-10.7158
▁whither	-10.7158
▁arrangements	-10.7282
▁attracted	-10.7282
▁balance	-10.7282
▁believing	-10.7282
▁damp	-10.7282
▁disgrace	-10.7282
▁easier	-10.7282
▁educated	-10.7282
▁emphasis	-10.7282
▁encountered	-10.7282
▁exquisite	-10.7282
▁gracious	-10.7282
▁harris	-10.7282
▁leads	-10.7282
▁literary	-10.7282
▁november	-10.7282
▁obedience	-10.7282
▁obviously	-10.7282
▁oliver	-10.7282
▁overhead	-10.7282
▁passengers	-10.7282
▁physician	-10.7282
▁pope	-10.7282
▁proceeding	-10.7282
▁psmith	-10.7282
▁referred	-10.7282
▁rosy	-10.7282
▁scream	-10.7282
▁shy	-10.7282
▁soup	-10.7282
▁spots	-10.7282
▁strictly	-10.7282
▁sweep	-10.7282
▁uncertain	-10.7282
▁veil	-10.7282
▁verses	-10.7282
▁wasted	-10.7282
▁wax	-10.7282
▁wonders	-10.7282
▁aboard	-10.7408
▁ape	-10.7408
▁application	-10.7408
▁battery	-10.7408
▁breathing	-10.7408
▁brute	-10.7408
▁california	-10.7408
▁captured	-10.7408
▁colors	-10.7408
▁conducted	-10.7408
▁consented	-10.7408
▁delicious	-10.7408
▁dine	-10.7408
▁disgust	-10.7408
▁doth	-10.7408
▁dug	-10.7408
▁eve	-10.7408
▁extensive	-10.7408
▁flushed	-10.7408
▁followers	-10.7408
▁latin	-10.7408
▁liquid	-10.7408
▁longed	-10.7408
▁messenger	-10.7408
▁natives	-10.7408
▁paying	-10.7408
▁rarely	-10.7408
▁rational	-10.7408
▁ray	-10.7408
▁rescue	-10.7408
▁robbed	-10.7408
▁roused	-10.7408
▁screen	-10.7408
▁stricken	-10.7408
▁theirs	-10.7408
▁toil	-10.7408
▁torture	-10.7408
▁arguments	-10.7535
▁backs	-10.7535
▁bewildered	-10.7535
▁bloody	-10.7535
▁boxes	-10.7535
▁cars	-10.7535
▁catherine	-10.7535
▁cheerfully	-10.7535
▁dashed	-10.7535
▁deprived	-10.7535
▁dorothy	-10.7535
▁enable	-10.7535
▁expectation	-10.7535
▁feature	-10.7535
▁frog	-10.7535
▁furious	-10.7535
▁glowing	-10.7535
▁grove	-10.7535
▁independence	-10.7535
▁intentions	-10.7535
▁lip	-10.7535
▁merchants	-10.7535
▁mid	-10.7535
▁motor	-10.7535
▁observations	-10.7535
▁peasants	-10.7535
▁percy	-10.7535
▁respects	-10.7535
▁ridiculous	-10.7535
▁roast	-10.7535
▁sheer	-10.7535
▁siege	-10.7535
▁sink	-10.7535
▁stove	-10.7535
▁tools	-10.7535
▁travelling	-10.7535
▁uniform	-10.7535
▁accompany	-10.7664
▁admire	-10.7664
▁asserted	-10.7664
▁assurance	-10.7664
▁authorities	-10.7664
▁bite	-10.7664
▁brass	-10.7664
▁cautiously	-10.7664
▁chances	-10.7664
▁conceal	-10.7664
▁consisted	-10.7664
▁counter	-10.7664
▁crimson	-10.7664
▁deer	-10.7664
▁deserve	-10.7664
▁emotions	-10.7664
▁employment	-10.7664
▁entitled	-10.7664
▁fatigue	-10.7664
▁fortnight	-10.7664
▁friday	-10.7664
▁graceful	-10.7664
▁hesitation	-10.7664
▁justified	-10.7664
▁lap	-10.7664
▁limits	-10.7664
▁luxury	-10.7664
▁ma'am	-10.7664
▁men's	-10.7664
▁mild	-10.7664
▁novel	-10.7664
▁other's	-10.7664
▁politeness	-10.7664
▁positive	-10.7664
▁recognition	-10.7664
▁represent	-10.7664
▁restored	-10.7664
▁she'll	-10.7664
▁shield	-10.7664
▁sire	-10.7664
▁submit	-10.7664
▁suggest	-10.7664
▁team	-10.7664
▁tenderly	-10.7664
▁ton	-10.7664
▁unfortunately	-10.7664
▁wealthy	-10.7664
▁yielded	-10.7664
▁acknowledged	-10.7795
▁agreement	-10.7795
▁anchor	-10.7795
▁aroused	-10.7795
▁arrange	-10.7795
▁attempts	-10.7795
▁backward	-10.7795
▁bears	-10.7795
▁bloom	-10.7795
▁breathed	-10.7795
▁cheese	-10.7795
▁confirmed	-10.7795
▁cruelty	-10.7795
▁customs	-10.7795
▁eighth	-10.7795
▁establishment	-10.7795
▁exception	-10.7795
▁faculties	-10.7795
▁footsteps	-10.7795
▁foul	-10.7795
▁greatness	-10.7795
▁introduce	-10.7795
▁jolly	-10.7795
▁kennedy	-10.7795
▁literature	-10.7795
▁lots	-10.7795
▁nails	-10.7795
▁nicholas	-10.7795
▁performance	-10.7795
▁permanent	-10.7795
▁propose	-10.7795
▁remedy	-10.7795
▁rider	-10.7795
▁senate	-10.7795
▁signed	-10.7795
▁sprinkle	-10.7795
▁swim	-10.7795
▁tomorrow	-10.7795
▁travelled	-10.7795
▁trick	-10.7795
▁wages	-10.7795
▁waking	-10.7795
▁warmth	-10.7795
▁warned	-10.7795
▁advise	-10.7927
▁anyhow	-10.7927
▁arrested	-10.7927
▁artificial	-10.7927
▁bestowed	-10.7927
▁boy's	-10.7927
▁catching	-10.7927
▁celebrated	-10.7927
▁clay	-10.7927
▁commission	-10.7927
▁confessed	-10.7927
▁dense	-10.7927
▁downstairs	-10.7927
▁ellen	-10.7927
▁erect	-10.7927
▁foundation	-10.7927
▁fry	-10.7927
▁helping	-10.7927
▁horn	-10.7927
▁infantry	-10.7927
▁johnson	-10.7927
▁lady's	-10.7927
▁letting	-10.7927
▁likeness	-10.7927
▁missing	-10.7927
▁mustn't	-10.7927
▁offended	-10.7927
▁preserve	-10.7927
▁records	-10.7927
▁remainder	-10.7927
▁restless	-10.7927
▁retorted	-10.7927
▁solemnly	-10.7927
▁suffrage	-10.7927
▁sunlight	-10.7927
▁vice	-10.7927
▁visiting	-10.7927
▁willingly	-10.7927
▁woe	-10.7927
▁woke	-10.7927
▁affectionate	-10.8061
▁albert	-10.8061
▁axe	-10.8061
▁ay	-10.8061
▁brains	-10.8061
▁butler	-10.8061
▁candles	-10.8061
▁careless	-10.8061
▁cares	-10.8061
▁ceiling	-10.8061
▁chicken	-10.8061
▁contains	-10.8061
▁d	-10.8061
▁demands	-10.8061
▁eustace	-10.8061
▁henriette	-10.8061
▁illness	-10.8061
▁induced	-10.8061
▁inferior	-10.8061
▁invented	-10.8061
▁jacket	-10.8061
▁juice	-10.8061
▁kitty	-10.8061
▁landscape	-10.8061
▁leaders	-10.8061
▁lodge	-10.8061
▁mirror	-10.8061
▁modest	-10.8061
▁nerves	-10.8061
▁paths	-10.8061
▁prime	-10.8061
▁riches	-10.8061
▁s	-10.8061
▁saving	-10.8061
▁secured	-10.8061
▁settlement	-10.8061
▁sinking	-10.8061
▁sins	-10.8061
▁smart	-10.8061
▁sofa	-10.8061
▁speedily	-10.8061
▁swimming	-10.8061
▁tops	-10.8061
▁treasures	-10.8061
▁uncomfortable	-10.8061
▁upward	-10.8061
▁velvet	-10.8061
▁amuse	-10.8197
▁anguish	-10.8197
▁answering	-10.8197
▁attained	-10.8197
▁baking	-10.8197
▁boffin	-10.8197
▁brook	-10.8197
▁cell	-10.8197
▁cloak	-10.8197
▁comparison	-10.8197
▁conflict	-10.8197
▁convention	-10.8197
▁cooked	-10.8197
▁defence	-10.8197
▁dispute	-10.8197
▁doorway	-10.8197
▁drowned	-10.8197
▁encouraged	-10.8197
▁facing	-10.8197
▁harder	-10.8197
▁hostile	-10.8197
▁laura	-10.8197
▁manifest	-10.8197
▁monday	-10.8197
▁murdered	-10.8197
▁orange	-10.8197
▁phrase	-10.8197
▁pleasing	-10.8197
▁plot	-10.8197
▁recalled	-10.8197
▁rigid	-10.8197
▁route	-10.8197
▁rushing	-10.8197
▁shaken	-10.8197
▁shepherd	-10.8197
▁simon	-10.8197
▁situated	-10.8197
▁sticks	-10.8197
▁stretch	-10.8197
▁sufferings	-10.8197
▁summit	-10.8197
▁temptation	-10.8197
▁tossed	-10.8197
▁wrought	-10.8197
▁yourselves	-10.8197
▁advancing	-10.8335
▁assembled	-10.8335
▁bowl	-10.8335
▁claims	-10.8335
▁composition	-10.8335
▁dragon	-10.8335
▁fogg	-10.8335
▁forming	-10.8335
▁fragments	-10.8335
▁frost	-10.8335
▁gigantic	-10.8335
▁healthy	-10.8335
▁holiday	-10.8335
▁hull	-10.8335
▁ion	-10.8335
▁j	-10.8335
▁japanese	-10.8335
▁johnny	-10.8335
▁keys	-10.8335
▁lifting	-10.8335
▁likes	-10.8335
▁neighbor	-10.8335
▁nowhere	-10.8335
▁perpetual	-10.8335
▁pint	-10.8335
▁pouring	-10.8335
▁preceding	-10.8335
▁rings	-10.8335
▁rises	-10.8335
▁seeming	-10.8335
▁selfish	-10.8335
▁sets	-10.8335
▁telephone	-10.8335
▁tendency	-10.8335
▁visits	-10.8335
▁whoever	-10.8335
▁yer	-10.8335
▁abode	-10.8475
▁amusing	-10.8475
▁blows	-10.8475
▁bunch	-10.8475
▁christians	-10.8475
▁clerk	-10.8475
▁contrast	-10.8475
▁dig	-10.8475
▁doubtful	-10.8475
▁eagle	-10.8475
▁elegant	-10.8475
▁embrace	-10.8475
▁enabled	-10.8475
▁faculty	-10.8475
▁faintly	-10.8475
▁greeted	-10.8475
▁incapable	-10.8475
▁inquiries	-10.8475
▁intend	-10.8475
▁materials	-10.8475
▁natured	-10.8475
▁occasional	-10.8475
▁occur	-10.8475
▁packed	-10.8475
▁passages	-10.8475
▁planned	-10.8475
▁portrait	-10.8475
▁potatoes	-10.8475
▁prevailed	-10.8475
▁purse	-10.8475
▁reception	-10.8475
▁representative	-10.8475
▁reserve	-10.8475
▁serpent	-10.8475
▁shalt	-10.8475
▁sober	-10.8475
▁solomon	-10.8475
▁sport	-10.8475
▁summoned	-10.8475
▁swinging	-10.8475
▁towers	-10.8475
▁waving	-10.8475
▁ali	-10.8617
▁aren't	-10.8617
▁awaited	-10.8617
▁barely	-10.8617
▁basis	-10.8617
▁cigar	-10.8617
▁conspicuous	-10.8617
▁cooking	-10.8617
▁couch	-10.8617
▁criminal	-10.8617
▁crushed	-10.8617
▁customary	-10.8617
▁darcy	-10.8617
▁december	-10.8617
▁decent	-10.8617
▁dislike	-10.8617
▁disturb	-10.8617
▁dome	-10.8617
▁dropping	-10.8617
▁dwarf	-10.8617
▁edith	-10.8617
▁enjoying	-10.8617
▁feathers	-10.8617
▁fiery	-10.8617
▁hind	-10.8617
▁jones	-10.8617
▁languages	-10.8617
▁lucky	-10.8617
▁mourning	-10.8617
▁offices	-10.8617
▁paces	-10.8617
▁polished	-10.8617
▁pressing	-10.8617
▁previously	-10.8617
▁primitive	-10.8617
▁probability	-10.8617
▁questioned	-10.8617
▁responsible	-10.8617
▁searching	-10.8617
▁slope	-10.8617
▁spaniards	-10.8617
▁structure	-10.8617
▁uses	-10.8617
▁vital	-10.8617
▁walks	-10.8617
▁wounds	-10.8617
▁afforded	-10.8761
▁agitation	-10.8761
▁altar	-10.8761
▁appetite	-10.8761
▁attain	-10.8761
▁awaiting	-10.8761
▁bend	-10.8761
▁block	-10.8761
▁cape	-10.8761
▁deliberately	-10.8761
▁dependent	-10.8761
▁descend	-10.8761
▁dost	-10.8761
▁doubted	-10.8761
▁dumb	-10.8761
▁dutch	-10.8761
▁echoed	-10.8761
▁elected	-10.8761
▁females	-10.8761
▁flies	-10.8761
▁fog	-10.8761
▁formation	-10.8761
▁gasped	-10.8761
▁governed	-10.8761
▁hamilton	-10.8761
▁harmony	-10.8761
▁harsh	-10.8761
▁holland	-10.8761
▁idiot	-10.8761
▁intent	-10.8761
▁interpretation	-10.8761
▁keeper	-10.8761
▁lakes	-10.8761
▁miller	-10.8761
▁mothers	-10.8761
▁neglected	-10.8761
▁nigh	-10.8761
▁obscure	-10.8761
▁oysters	-10.8761
▁philosopher	-10.8761
▁picturesque	-10.8761
▁pool	-10.8761
▁promises	-10.8761
▁ragged	-10.8761
▁responsibility	-10.8761
▁ridge	-10.8761
▁sailing	-10.8761
▁scorn	-10.8761
▁secretly	-10.8761
▁serving	-10.8761
▁shine	-10.8761
▁stare	-10.8761
▁surprising	-10.8761
▁surrender	-10.8761
▁tebrick	-10.8761
▁thankful	-10.8761
▁tracks	-10.8761
▁verse	-10.8761
▁violently	-10.8761
▁writes	-10.8761
▁accord	-10.8907
▁adding	-10.8907
▁africa	-10.8907
▁allah	-10.8907
▁altered	-10.8907
▁arrow	-10.8907
▁beautifully	-10.8907
▁bigger	-10.8907
▁boldly	-10.8907
▁bundle	-10.8907
▁caesar	-10.8907
▁capture	-10.8907
▁chains	-10.8907
▁christianity	-10.8907
▁clara	-10.8907
▁coffin	-10.8907
▁confession	-10.8907
▁descent	-10.8907
▁dusk	-10.8907
▁employ	-10.8907
▁flock	-10.8907
▁fruits	-10.8907
▁gretel	-10.8907
▁gulf	-10.8907
▁harbour	-10.8907
▁horse's	-10.8907
▁hurriedly	-10.8907
▁january	-10.8907
▁machines	-10.8907
▁nancy	-10.8907
▁neat	-10.8907
▁patch	-10.8907
▁people's	-10.8907
▁perish	-10.8907
▁pillow	-10.8907
▁pit	-10.8907
▁plates	-10.8907
▁poem	-10.8907
▁profit	-10.8907
▁purchase	-10.8907
▁pushing	-10.8907
▁republic	-10.8907
▁residence	-10.8907
▁seats	-10.8907
▁sickness	-10.8907
▁solution	-10.8907
▁staircase	-10.8907
▁tenth	-10.8907
▁tremble	-10.8907
▁tribes	-10.8907
▁twentieth	-10.8907
▁underground	-10.8907
▁winding	-10.8907
▁accused	-10.9055
▁beth	-10.9055
▁cellar	-10.9055
▁cents	-10.9055
▁charlotte	-10.9055
▁combination	-10.9055
▁constructed	-10.9055
▁dame	-10.9055
▁defined	-10.9055
▁dresses	-10.9055
▁engineer	-10.9055
▁fitting	-10.9055
▁flowing	-10.9055
▁forbidden	-10.9055
▁fore	-10.9055
▁gardener	-10.9055
▁herbert	-10.9055
▁inevitable	-10.9055
▁insist	-10.9055
▁institution	-10.9055
▁insult	-10.9055
▁interval	-10.9055
▁jerusalem	-10.9055
▁justify	-10.9055
▁lend	-10.9055
▁liberal	-10.9055
▁marching	-10.9055
▁mare	-10.9055
▁monstrous	-10.9055
▁outward	-10.9055
▁paint	-10.9055
▁providence	-10.9055
▁rail	-10.9055
▁recollection	-10.9055
▁reflect	-10.9055
▁scotch	-10.9055
▁shocked	-10.9055
▁smallest	-10.9055
▁stake	-10.9055
▁swords	-10.9055
▁underneath	-10.9055
▁unseen	-10.9055
▁welfare	-10.9055
▁wheat	-10.9055
▁wont	-10.9055
▁accomplish	-10.9206
▁believes	-10.9206
▁blade	-10.9206
▁blowing	-10.9206
▁bodily	-10.9206
▁buttered	-10.9206
▁cakes	-10.9206
▁chinese	-10.9206
▁coarse	-10.9206
▁commands	-10.9206
▁cousins	-10.9206
▁curse	-10.9206
▁debt	-10.9206
▁declined	-10.9206
▁dirt	-10.9206
▁douglas	-10.9206
▁embraced	-10.9206
▁entertained	-10.9206
▁flowed	-10.9206
▁forgetting	-10.9206
▁fountain	-10.9206
▁francis	-10.9206
▁furnish	-10.9206
▁gallant	-10.9206
▁guided	-10.9206
▁halted	-10.9206
▁hearty	-10.9206
▁hook	-10.9206
▁hoping	-10.9206
▁humor	-10.9206
▁indicate	-10.9206
▁lace	-10.9206
▁madness	-10.9206
▁medium	-10.9206
▁mules	-10.9206
▁muscles	-10.9206
▁narrative	-10.9206
▁neighbour	-10.9206
▁newly	-10.9206
▁opportunities	-10.9206
▁parish	-10.9206
▁pearls	-10.9206
▁phenomenon	-10.9206
▁positively	-10.9206
▁preparation	-10.9206
▁priscilla	-10.9206
▁product	-10.9206
▁quivering	-10.9206
▁remembering	-10.9206
▁resemblance	-10.9206
▁ripe	-10.9206
▁roughly	-10.9206
▁sails	-10.9206
▁sarah	-10.9206
▁significance	-10.9206
▁sincere	-10.9206
▁swore	-10.9206
▁talent	-10.9206
▁temporary	-10.9206
▁they've	-10.9206
▁thyself	-10.9206
▁tightly	-10.9206
▁upright	-10.9206
▁valjean	-10.9206
▁wreck	-10.9206
▁writers	-10.9206
▁affect	-10.9358
▁alexander	-10.9358
▁answers	-10.9358
▁arrows	-10.9358
▁background	-10.9358
▁baked	-10.9358
▁bills	-10.9358
▁child's	-10.9358
▁closing	-10.9358
▁colours	-10.9358
▁commercial	-10.9358
▁compare	-10.9358
▁complexion	-10.9358
▁comprehend	-10.9358
▁covering	-10.9358
▁creeping	-10.9358
▁defense	-10.9358
▁doll	-10.9358
▁drag	-10.9358
▁enchanted	-10.9358
▁engine	-10.9358
▁exercised	-10.9358
▁favorable	-10.9358
▁folds	-10.9358
▁glasses	-10.9358
▁gleam	-10.9358
▁hasty	-10.9358
▁hats	-10.9358
▁homer	-10.9358
▁horsemen	-10.9358
▁humour	-10.9358
▁inquire	-10.9358
▁julius	-10.9358
▁leaping	-10.9358
▁literally	-10.9358
▁mate	-10.9358
▁meals	-10.9358
▁memories	-10.9358
▁monks	-10.9358
▁observing	-10.9358
▁offence	-10.9358
▁offers	-10.9358
▁partner	-10.9358
▁personally	-10.9358
▁piled	-10.9358
▁placing	-10.9358
▁pleaded	-10.9358
▁printed	-10.9358
▁relatives	-10.9358
▁rosa	-10.9358
▁russia	-10.9358
▁smote	-10.9358
▁speeches	-10.9358
▁split	-10.9358
▁substances	-10.9358
▁tempted	-10.9358
▁thieves	-10.9358
▁wolves	-10.9358
▁angrily	-10.9513
▁arch	-10.9513
▁artist	-10.9513
▁assisted	-10.9513
▁border	-10.9513
▁bounds	-10.9513
▁bows	-10.9513
▁checked	-10.9513
▁chicago	-10.9513
▁clad	-10.9513
▁clergyman	-10.9513
▁clung	-10.9513
▁colonies	-10.9513
▁commerce	-10.9513
▁cultivated	-10.9513
▁cups	-10.9513
▁destined	-10.9513
▁discourse	-10.9513
▁disorder	-10.9513
▁doubts	-10.9513
▁dunbar	-10.9513
▁earn	-10.9513
▁earthly	-10.9513
▁elbow	-10.9513
▁eternity	-10.9513
▁exercises	-10.9513
▁exhibited	-10.9513
▁faults	-10.9513
▁filling	-10.9513
▁games	-10.9513
▁impatience	-10.9513
▁invention	-10.9513
▁jasper	-10.9513
▁justly	-10.9513
▁keith	-10.9513
▁lowest	-10.9513
▁mademoiselle	-10.9513
▁mice	-10.9513
▁minor	-10.9513
▁monk	-10.9513
▁paradise	-10.9513
▁persisted	-10.9513
▁phenomena	-10.9513
▁ponies	-10.9513
▁project	-10.9513
▁punish	-10.9513
▁released	-10.9513
▁rival	-10.9513
▁sam	-10.9513
▁samuel	-10.9513
▁separation	-10.9513
▁smiles	-10.9513
▁snatched	-10.9513
▁sunny	-10.9513
▁terrified	-10.9513
▁terry	-10.9513
▁tragedy	-10.9513
▁unjust	-10.9513
▁veins	-10.9513
▁vivid	-10.9513
▁we'd	-10.9513
▁whereby	-10.9513
▁witnessed	-10.9513
▁workmen	-10.9513
▁acknowledge	-10.9671
▁ample	-10.9671
▁area	-10.9671
▁bonds	-10.9671
▁brows	-10.9671
▁butterfly	-10.9671
▁captive	-10.9671
▁cheap	-10.9671
▁chill	-10.9671
▁clasped	-10.9671
▁column	-10.9671
▁conquered	-10.9671
▁contest	-10.9671
▁contrived	-10.9671
▁crack	-10.9671
▁delicacy	-10.9671
▁detective	-10.9671
▁determine	-10.9671
▁drain	-10.9671
▁dreaming	-10.9671
▁earliest	-10.9671
▁erected	-10.9671
▁executed	-10.9671
▁experiments	-10.9671
▁expressing	-10.9671
▁freckles	-10.9671
▁globe	-10.9671
▁grasped	-10.9671
▁grieved	-10.9671
▁guarded	-10.9671
▁hedge	-10.9671
▁impatiently	-10.9671
▁invariably	-10.9671
▁jaws	-10.9671
▁lee	-10.9671
▁marilla	-10.9671
▁morality	-10.9671
▁mostly	-10.9671
▁nobles	-10.9671
▁nora	-10.9671
▁normal	-10.9671
▁oldest	-10.9671
▁passionate	-10.9671
▁producing	-10.9671
▁reaches	-10.9671
▁recollect	-10.9671
▁rejoiced	-10.9671
▁resort	-10.9671
▁restore	-10.9671
▁searched	-10.9671
▁spreading	-10.9671
▁threshold	-10.9671
▁twas	-10.9671
▁twisted	-10.9671
▁unworthy	-10.9671
▁upset	-10.9671
▁villages	-10.9671
▁violet	-10.9671
▁vulgar	-10.9671
▁wars	-10.9671
▁wiped	-10.9671
▁alyosha	-10.9831
▁andrew	-10.9831
▁appointment	-10.9831
▁aye	-10.9831
▁buttons	-10.9831
▁cannon	-10.9831
▁ceremonies	-10.9831
▁cherished	-10.9831
▁coats	-10.9831
▁commit	-10.9831
▁conveyed	-10.9831
▁deemed	-10.9831
▁deliver	-10.9831
▁deserved	-10.9831
▁develop	-10.9831
▁discipline	-10.9831
▁editor	-10.9831
▁endeavour	-10.9831
▁entertain	-10.9831
▁examining	-10.9831
▁farmers	-10.9831
▁feather	-10.9831
▁february	-10.9831
▁garrison	-10.9831
▁gas	-10.9831
▁ginger	-10.9831
▁grain	-10.9831
▁granite	-10.9831
▁hurled	-10.9831
▁illustration	-10.9831
▁institutions	-10.9831
▁introduction	-10.9831
▁jacob	-10.9831
▁jude	-10.9831
▁miracle	-10.9831
▁moment's	-10.9831
▁moscow	-10.9831
▁needle	-10.9831
▁october	-10.9831
▁onion	-10.9831
▁outline	-10.9831
▁painting	-10.9831
▁princesses	-10.9831
▁professional	-10.9831
▁prophet	-10.9831
▁purely	-10.9831
▁robbers	-10.9831
▁secrets	-10.9831
▁snapped	-10.9831
▁spoil	-10.9831
▁sublime	-10.9831
▁thereupon	-10.9831
▁timber	-10.9831
▁umbrella	-10.9831
▁unity	-10.9831
▁weighed	-10.9831
▁wonderfully	-10.9831
▁additional	-10.9993
▁addressing	-10.9993
▁analysis	-10.9993
▁aramis	-10.9993
▁brick	-10.9993
▁crowned	-10.9993
▁culture	-10.9993
▁curled	-10.9993
▁deaf	-10.9993
▁dismay	-10.9993
▁dismissed	-10.9993
▁dollar	-10.9993
▁establish	-10.9993
▁exciting	-10.9993
▁faster	-10.9993
▁fiercely	-10.9993
▁framed	-10.9993
▁fundamental	-10.9993
▁horseback	-10.9993
▁identity	-10.9993
▁infant	-10.9993
▁interfere	-10.9993
▁link	-10.9993
▁males	-10.9993
▁mansion	-10.9993
▁monastery	-10.9993
▁montgomery	-10.9993
▁onward	-10.9993
▁picking	-10.9993
▁plane	-10.9993
▁reserved	-10.9993
▁retire	-10.9993
▁scent	-10.9993
▁sealed	-10.9993
▁slaughter	-10.9993
▁soap	-10.9993
▁sphere	-10.9993
▁staying	-10.9993
▁temperature	-10.9993
▁terribly	-10.9993
▁traveller	-10.9993
▁varied	-10.9993
▁warn	-10.9993
▁wretch	-10.9993
▁admirable	-11.0159
▁allies	-11.0159
▁amused	-11.0159
▁angle	-11.0159
▁arrest	-11.0159
▁assert	-11.0159
▁attractive	-11.0159
▁bits	-11.0159
▁brandy	-11.0159
▁brightly	-11.0159
▁buck	-11.0159
▁circles	-11.0159
▁clothed	-11.0159
▁conclude	-11.0159
▁criticism	-11.0159
▁dan	-11.0159
▁defeated	-11.0159
▁desirable	-11.0159
▁destiny	-11.0159
▁engage	-11.0159
▁errand	-11.0159
▁experiences	-11.0159
▁expressions	-11.0159
▁fits	-11.0159
▁frenchman	-11.0159
▁glittering	-11.0159
▁gloves	-11.0159
▁gravity	-11.0159
▁harmless	-11.0159
▁impatient	-11.0159
▁industrial	-11.0159
▁ink	-11.0159
▁louder	-11.0159
▁lowered	-11.0159
▁management	-11.0159
▁marvellous	-11.0159
▁meetings	-11.0159
▁ninth	-11.0159
▁norman	-11.0159
▁pacific	-11.0159
▁patiently	-11.0159
▁peoples	-11.0159
▁philosophers	-11.0159
▁plays	-11.0159
▁quest	-11.0159
▁recorded	-11.0159
▁regularly	-11.0159
▁replaced	-11.0159
▁rob	-11.0159
▁robe	-11.0159
▁rubbing	-11.0159
▁she'd	-11.0159
▁temples	-11.0159
▁they'd	-11.0159
▁trifle	-11.0159
▁watson	-11.0159
▁yoke	-11.0159
▁ancestors	-11.0327
▁ann	-11.0327
▁apartments	-11.0327
▁behave	-11.0327
▁bidding	-11.0327
▁bond	-11.0327
▁bullet	-11.0327
▁caution	-11.0327
▁comfortably	-11.0327
▁compass	-11.0327
▁crash	-11.0327
▁crimes	-11.0327
▁decidedly	-11.0327
▁enthusiastic	-11.0327
▁fare	-11.0327
▁fearing	-11.0327
▁greeting	-11.0327
▁hammer	-11.0327
▁hesitate	-11.0327
▁hired	-11.0327
▁horns	-11.0327
▁husbands	-11.0327
▁improved	-11.0327
▁included	-11.0327
▁injustice	-11.0327
▁investigation	-11.0327
▁lamps	-11.0327
▁mississippi	-11.0327
▁mitya	-11.0327
▁nobility	-11.0327
▁paste	-11.0327
▁perception	-11.0327
▁peterkin	-11.0327
▁proposal	-11.0327
▁protected	-11.0327
▁retain	-11.0327
▁seed	-11.0327
▁shadowy	-11.0327
▁shelf	-11.0327
▁specially	-11.0327
▁stool	-11.0327
▁symptoms	-11.0327
▁talents	-11.0327
▁tax	-11.0327
▁tiger	-11.0327
▁undertake	-11.0327
▁welcomed	-11.0327
▁who's	-11.0327
▁worried	-11.0327
▁apparatus	-11.0498
▁appearances	-11.0498
▁awe	-11.0498
▁babies	-11.0498
▁chorus	-11.0498
▁compassion	-11.0498
▁complain	-11.0498
▁confederate	-11.0498
▁consulted	-11.0498
▁courtesy	-11.0498
▁eagerness	-11.0498
▁eminent	-11.0498
▁evils	-11.0498
▁flashing	-11.0498
▁frankly	-11.0498
▁gabriel	-11.0498
▁generations	-11.0498
▁governments	-11.0498
▁guardian	-11.0498
▁hardy	-11.0498
▁heed	-11.0498
▁imperial	-11.0498
▁irresistible	-11.0498
▁journal	-11.0498
▁kissing	-11.0498
▁knelt	-11.0498
▁liquor	-11.0498
▁map	-11.0498
▁moves	-11.0498
▁parsley	-11.0498
▁personality	-11.0498
▁phronsie	-11.0498
▁pin	-11.0498
▁pipes	-11.0498
▁praised	-11.0498
▁propriety	-11.0498
▁pursue	-11.0498
▁rags	-11.0498
▁reigned	-11.0498
▁representatives	-11.0498
▁resentment	-11.0498
▁response	-11.0498
▁ridden	-11.0498
▁rightly	-11.0498
▁robes	-11.0498
▁rub	-11.0498
▁ruler	-11.0498
▁sage	-11.0498
▁sandy	-11.0498
▁shower	-11.0498
▁sparkling	-11.0498
▁stained	-11.0498
▁strained	-11.0498
▁struggled	-11.0498
▁sung	-11.0498
▁tearing	-11.0498
▁temperament	-11.0498
▁tries	-11.0498
▁trousers	-11.0498
▁warrior	-11.0498
▁whites	-11.0498
▁arriving	-11.0672
▁attract	-11.0672
▁brandon	-11.0672
▁bravely	-11.0672
▁canyon	-11.0672
▁casting	-11.0672
▁cathedral	-11.0672
▁catholic	-11.0672
▁circuit	-11.0672
▁claimed	-11.0672
▁clergy	-11.0672
▁commanding	-11.0672
▁convey	-11.0672
▁corpse	-11.0672
▁crawled	-11.0672
▁deepest	-11.0672
▁device	-11.0672
▁digging	-11.0672
▁discussed	-11.0672
▁doctor's	-11.0672
▁dreadfully	-11.0672
▁emerged	-11.0672
▁european	-11.0672
▁exhibit	-11.0672
▁extra	-11.0672
▁falsehood	-11.0672
▁formal	-11.0672
▁gang	-11.0672
▁honorable	-11.0672
▁inform	-11.0672
▁intolerable	-11.0672
▁launcelot	-11.0672
▁magician	-11.0672
▁mexico	-11.0672
▁n	-11.0672
▁nan	-11.0672
▁neglect	-11.0672
▁originally	-11.0672
▁parlour	-11.0672
▁pistol	-11.0672
▁poems	-11.0672
▁provision	-11.0672
▁ralph	-11.0672
▁realm	-11.0672
▁remembrance	-11.0672
▁republican	-11.0672
▁ringing	-11.0672
▁roared	-11.0672
▁seal	-11.0672
▁severely	-11.0672
▁sexual	-11.0672
▁skirt	-11.0672
▁stall	-11.0672
▁stillness	-11.0672
▁strongest	-11.0672
▁teachers	-11.0672
▁traveling	-11.0672
▁university	-11.0672
▁unnecessary	-11.0672
▁unwilling	-11.0672
▁virtuous	-11.0672
▁westward	-11.0672
▁abundant	-11.0849
▁adopt	-11.0849
▁apprehension	-11.0849
▁bargain	-11.0849
▁barrier	-11.0849
▁behalf	-11.0849
▁boast	-11.0849
▁breathless	-11.0849
▁bunny	-11.0849
▁calculated	-11.0849
▁carol	-11.0849
▁climbing	-11.0849
▁colony	-11.0849
▁comparatively	-11.0849
▁construction	-11.0849
▁continual	-11.0849
▁creep	-11.0849
▁curtain	-11.0849
▁dale	-11.0849
▁dash	-11.0849
▁daughter's	-11.0849
▁dearly	-11.0849
▁descending	-11.0849
▁dew	-11.0849
▁discuss	-11.0849
▁doctors	-11.0849
▁encouragement	-11.0849
▁favourable	-11.0849
▁heel	-11.0849
▁heights	-11.0849
▁hugh	-11.0849
▁humming	-11.0849
▁intelligible	-11.0849
▁involved	-11.0849
▁irregular	-11.0849
▁it'll	-11.0849
▁learnt	-11.0849
▁lent	-11.0849
▁liking	-11.0849
▁lungs	-11.0849
▁model	-11.0849
▁navy	-11.0849
▁occupy	-11.0849
▁owners	-11.0849
▁peak	-11.0849
▁production	-11.0849
▁prudence	-11.0849
▁queen's	-11.0849
▁raw	-11.0849
▁reflections	-11.0849
▁release	-11.0849
▁renewed	-11.0849
▁reverence	-11.0849
▁robber	-11.0849
▁scholars	-11.0849
▁shades	-11.0849
▁sheets	-11.0849
▁shops	-11.0849
▁shudder	-11.0849
▁spy	-11.0849
▁subtle	-11.0849
▁swamp	-11.0849
▁sweeping	-11.0849
▁tray	-11.0849
▁venerable	-11.0849
▁wits	-11.0849
▁ambitious	-11.1029
▁amy	-11.1029
▁appreciate	-11.1029
▁approved	-11.1029
▁ascertain	-11.1029
▁attending	-11.1029
▁attorney	-11.1029
▁awhile	-11.1029
▁climate	-11.1029
▁coachman	-11.1029
▁coral	-11.1029
▁create	-11.1029
▁crooked	-11.1029
▁crowds	-11.1029
▁declaration	-11.1029
▁definition	-11.1029
▁desolate	-11.1029
▁disguise	-11.1029
▁doom	-11.1029
▁excite	-11.1029
▁faithfully	-11.1029
▁forbid	-11.1029
▁generals	-11.1029
▁graham	-11.1029
▁hairs	-11.1029
▁haunted	-11.1029
▁historical	-11.1029
▁hounds	-11.1029
▁limb	-11.1029
▁marguerite	-11.1029
▁moss	-11.1029
▁nail	-11.1029
▁ojo	-11.1029
▁organ	-11.1029
▁peered	-11.1029
▁pet	-11.1029
▁pilot	-11.1029
▁portions	-11.1029
▁problems	-11.1029
▁races	-11.1029
▁rebecca	-11.1029
▁refer	-11.1029
▁refined	-11.1029
▁repeatedly	-11.1029
▁repetition	-11.1029
▁reproach	-11.1029
▁robin	-11.1029
▁rolls	-11.1029
▁screamed	-11.1029
▁spoiled	-11.1029
▁stamp	-11.1029
▁suited	-11.1029
▁suppressed	-11.1029
▁sweetness	-11.1029
▁tents	-11.1029
▁testimony	-11.1029
▁therein	-11.1029
▁traces	-11.1029
▁trim	-11.1029
▁undertaking	-11.1029
▁wildly	-11.1029
▁world's	-11.1029
▁abuse	-11.1212
▁annoyed	-11.1212
▁appearing	-11.1212
▁blankets	-11.1212
▁bridle	-11.1212
▁briefly	-11.1212
▁dad	-11.1212
▁daniel	-11.1212
▁dantes	-11.1212
▁demon	-11.1212
▁depended	-11.1212
▁despised	-11.1212
▁distressed	-11.1212
▁divide	-11.1212
▁dreaded	-11.1212
▁drifted	-11.1212
▁elevation	-11.1212
▁entertainment	-11.1212
▁fifteenth	-11.1212
▁foam	-11.1212
▁fools	-11.1212
▁guilt	-11.1212
▁hush	-11.1212
▁imperfect	-11.1212
▁inward	-11.1212
▁jumping	-11.1212
▁jungle	-11.1212
▁jury	-11.1212
▁knot	-11.1212
▁mike	-11.1212
▁occurrence	-11.1212
▁perceiving	-11.1212
▁practise	-11.1212
▁pupils	-11.1212
▁recommend	-11.1212
▁retained	-11.1212
▁salute	-11.1212
▁salvation	-11.1212
▁shrill	-11.1212
▁skull	-11.1212
▁sobs	-11.1212
▁spray	-11.1212
▁stately	-11.1212
▁stealing	-11.1212
▁stooped	-11.1212
▁strikes	-11.1212
▁strings	-11.1212
▁students	-11.1212
▁swam	-11.1212
▁tasted	-11.1212
▁toast	-11.1212
▁vegetable	-11.1212
▁whispering	-11.1212
▁wiser	-11.1212
▁abundance	-11.1399
▁approve	-11.1399
▁ascended	-11.1399
▁assertion	-11.1399
▁athens	-11.1399
▁battles	-11.1399
▁behaved	-11.1399
▁behaviour	-11.1399
▁berwin	-11.1399
▁bounded	-11.1399
▁brother's	-11.1399
▁bulk	-11.1399
▁captains	-11.1399
▁commissioner	-11.1399
▁concerns	-11.1399
▁confident	-11.1399
▁consult	-11.1399
▁convince	-11.1399
▁critical	-11.1399
▁differ	-11.1399
▁drake	-11.1399
▁drifting	-11.1399
▁feeding	-11.1399
▁fiction	-11.1399
▁garment	-11.1399
▁goddess	-11.1399
▁governess	-11.1399
▁h	-11.1399
▁halt	-11.1399
▁imitation	-11.1399
▁infinitely	-11.1399
▁ingredients	-11.1399
▁intensity	-11.1399
▁interposed	-11.1399
▁isle	-11.1399
▁lads	-11.1399
▁lanyard	-11.1399
▁leagues	-11.1399
▁lined	-11.1399
▁misfortunes	-11.1399
▁mob	-11.1399
▁monarch	-11.1399
▁monument	-11.1399
▁moses	-11.1399
▁openly	-11.1399
▁overboard	-11.1399
▁particulars	-11.1399
▁plague	-11.1399
▁presume	-11.1399
▁pursuing	-11.1399
▁quitted	-11.1399
▁reaction	-11.1399
▁reckless	-11.1399
▁relieve	-11.1399
▁returns	-11.1399
▁secondly	-11.1399
▁sincerely	-11.1399
▁smelling	-11.1399
▁sternly	-11.1399
▁superiority	-11.1399
▁toby	-11.1399
▁totally	-11.1399
▁tuesday	-11.1399
▁tumult	-11.1399
▁tyranny	-11.1399
▁weren't	-11.1399
▁workers	-11.1399
▁alliance	-11.159
▁animated	-11.159
▁assault	-11.159
▁assigned	-11.159
▁babe	-11.159
▁barrel	-11.159
▁beer	-11.159
▁belle	-11.159
▁blush	-11.159
▁canoes	-11.159
▁chapel	-11.159
▁clinging	-11.159
▁complicated	-11.159
▁considerably	-11.159
▁converted	-11.159
▁correspondence	-11.159
▁crest	-11.159
▁deceive	-11.159
▁endeavoured	-11.159
▁energetic	-11.159
▁expert	-11.159
▁extend	-11.159
▁formidable	-11.159
▁function	-11.159
▁glancing	-11.159
▁goose	-11.159
▁gospel	-11.159
▁greece	-11.159
▁hereafter	-11.159
▁ingenious	-11.159
▁keenly	-11.159
▁league	-11.159
▁loaf	-11.159
▁mayor	-11.159
▁mines	-11.159
▁nautilus	-11.159
▁nursery	-11.159
▁opera	-11.159
▁organs	-11.159
▁panic	-11.159
▁parallel	-11.159
▁perplexity	-11.159
▁plato	-11.159
▁poles	-11.159
▁possessions	-11.159
▁provinces	-11.159
▁rebellion	-11.159
▁remind	-11.159
▁sandford	-11.159
▁shared	-11.159
▁sticking	-11.159
▁subdued	-11.159
▁substantial	-11.159
▁suffice	-11.159
▁sustained	-11.159
▁torment	-11.159
▁unconsciously	-11.159
▁varying	-11.159
▁watchful	-11.159
▁wires	-11.159
▁witnesses	-11.159
▁acid	-11.1784
▁attributed	-11.1784
▁avail	-11.1784
▁bands	-11.1784
▁bonnet	-11.1784
▁bridges	-11.1784
▁cabinet	-11.1784
▁coldly	-11.1784
▁comforted	-11.1784
▁curate	-11.1784
▁dealing	-11.1784
▁dolly	-11.1784
▁economy	-11.1784
▁eh	-11.1784
▁embarrassment	-11.1784
▁eric	-11.1784
▁excess	-11.1784
▁factory	-11.1784
▁gaunt	-11.1784
▁happier	-11.1784
▁hasten	-11.1784
▁highness	-11.1784
▁hunted	-11.1784
▁illustrious	-11.1784
▁improve	-11.1784
▁indispensable	-11.1784
▁ing	-11.1784
▁internal	-11.1784
▁invite	-11.1784
▁jupiter	-11.1784
▁laden	-11.1784
▁liable	-11.1784
▁lo	-11.1784
▁logs	-11.1784
▁lordship	-11.1784
▁mask	-11.1784
▁miracles	-11.1784
▁missionary	-11.1784
▁motions	-11.1784
▁nephew	-11.1784
▁ohio	-11.1784
▁oppose	-11.1784
▁pigs	-11.1784
▁praying	-11.1784
▁print	-11.1784
▁promising	-11.1784
▁puts	-11.1784
▁r	-11.1784
▁reports	-11.1784
▁roaring	-11.1784
▁seventeenth	-11.1784
▁sheltered	-11.1784
▁shrugged	-11.1784
▁sincerity	-11.1784
▁snake	-11.1784
▁stepan	-11.1784
▁studying	-11.1784
▁submitted	-11.1784
▁successfully	-11.1784
▁sulphur	-11.1784
▁suspended	-11.1784
▁timid	-11.1784
▁traced	-11.1784
▁troop	-11.1784
▁universally	-11.1784
▁unnatural	-11.1784
▁vincent	-11.1784
▁waistcoat	-11.1784
▁whipped	-11.1784
▁whistle	-11.1784
▁wool	-11.1784
▁yea	-11.1784
▁agitated	-11.1982
▁alter	-11.1982
▁andrea	-11.1982
▁bin	-11.1982
▁bitterness	-11.1982
▁bleeding	-11.1982
▁blessings	-11.1982
▁boolooroo	-11.1982
▁bury	-11.1982
▁cage	-11.1982
▁candidate	-11.1982
▁carriages	-11.1982
▁carries	-11.1982
▁charms	-11.1982
▁chauvelin	-11.1982
▁closet	-11.1982
▁crust	-11.1982
▁damned	-11.1982
▁darted	-11.1982
▁decline	-11.1982
▁edges	-11.1982
▁eighteenth	-11.1982
▁examples	-11.1982
▁expenses	-11.1982
▁fairies	-11.1982
▁happening	-11.1982
▁headlong	-11.1982
▁herbs	-11.1982
▁indulgence	-11.1982
▁inevitably	-11.1982
▁inhabited	-11.1982
▁inventor	-11.1982
▁jar	-11.1982
▁jerry	-11.1982
▁kentucky	-11.1982
▁lantern	-11.1982
▁magnetic	-11.1982
▁maidens	-11.1982
▁maker	-11.1982
▁mantle	-11.1982
▁marrying	-11.1982
▁merlin	-11.1982
▁mistakes	-11.1982
▁naples	-11.1982
▁occurs	-11.1982
▁oxen	-11.1982
▁painter	-11.1982
▁practised	-11.1982
▁raymond	-11.1982
▁recommended	-11.1982
▁refusing	-11.1982
▁resolve	-11.1982
▁respected	-11.1982
▁respectfully	-11.1982
▁revolver	-11.1982
▁sack	-11.1982
▁sedley	-11.1982
▁sends	-11.1982
▁shapes	-11.1982
▁ship's	-11.1982
▁shouts	-11.1982
▁skilful	-11.1982
▁sledge	-11.1982
▁sleepy	-11.1982
▁sources	-11.1982
▁spared	-11.1982
▁steward	-11.1982
▁swallow	-11.1982
▁talks	-11.1982
▁thicket	-11.1982
▁thumb	-11.1982
▁tides	-11.1982
▁traps	-11.1982
▁tricks	-11.1982
▁understands	-11.1982
▁vacant	-11.1982
▁victorious	-11.1982
▁villefort	-11.1982
▁warmly	-11.1982
▁yielding	-11.1982
▁acquire	-11.2184
▁adorned	-11.2184
▁amendment	-11.2184
▁ardent	-11.2184
▁artistic	-11.2184
▁atlantic	-11.2184
▁backed	-11.2184
▁balin	-11.2184
▁bestow	-11.2184
▁bucket	-11.2184
▁canada	-11.2184
▁cavern	-11.2184
▁chanced	-11.2184
▁claws	-11.2184
▁columbia	-11.2184
▁combat	-11.2184
▁cord	-11.2184
▁costly	-11.2184
▁courtyard	-11.2184
▁depressed	-11.2184
▁discretion	-11.2184
▁drama	-11.2184
▁earthquake	-11.2184
▁edinburgh	-11.2184
▁elderly	-11.2184
▁endured	-11.2184
▁excellency	-11.2184
▁expectations	-11.2184
▁eyebrows	-11.2184
▁finely	-11.2184
▁fishes	-11.2184
▁frederick	-11.2184
▁friend's	-11.2184
▁fuel	-11.2184
▁gorgeous	-11.2184
▁gravel	-11.2184
▁growled	-11.2184
▁hail	-11.2184
▁henceforth	-11.2184
▁imposed	-11.2184
▁instruction	-11.2184
▁kit	-11.2184
▁landlord	-11.2184
▁larry	-11.2184
▁lid	-11.2184
▁locks	-11.2184
▁magistrate	-11.2184
▁messages	-11.2184
▁morals	-11.2184
▁mutton	-11.2184
▁net	-11.2184
▁niece	-11.2184
▁nineteenth	-11.2184
▁northward	-11.2184
▁nuts	-11.2184
▁officials	-11.2184
▁painfully	-11.2184
▁plunge	-11.2184
▁proudly	-11.2184
▁purchased	-11.2184
▁quaint	-11.2184
▁quantities	-11.2184
▁ravine	-11.2184
▁repent	-11.2184
▁requested	-11.2184
▁resemble	-11.2184
▁rests	-11.2184
▁revolutionary	-11.2184
▁salad	-11.2184
▁sara	-11.2184
▁sicily	-11.2184
▁sleeve	-11.2184
▁solely	-11.2184
▁stockings	-11.2184
▁strip	-11.2184
▁suspicious	-11.2184
▁tempest	-11.2184
▁threatening	-11.2184
▁toad	-11.2184
▁unusually	-11.2184
▁valleys	-11.2184
▁virgilius	-11.2184
▁visions	-11.2184
▁von	-11.2184
▁waiter	-11.2184
▁worm	-11.2184
▁allison	-11.239
▁allowing	-11.239
▁arabella	-11.239
▁arkadyevitch	-11.239
▁assumption	-11.239
▁bertram	-11.239
▁bind	-11.239
▁boss	-11.239
▁bother	-11.239
▁calhoun	-11.239
▁causing	-11.239
▁challenge	-11.239
▁childish	-11.239
▁choked	-11.239
▁cock	-11.239
▁complained	-11.239
▁consolation	-11.239
▁continuous	-11.239
▁costume	-11.239
▁countless	-11.239
▁cracked	-11.239
▁damage	-11.239
▁deserves	-11.239
▁desirous	-11.239
▁disappear	-11.239
▁dismal	-11.239
▁dolls	-11.239
▁dragging	-11.239
▁dripping	-11.239
▁ending	-11.239
▁executive	-11.239
▁extremity	-11.239
▁foes	-11.239
▁foliage	-11.239
▁gaily	-11.239
▁galahad	-11.239
▁gale	-11.239
▁glare	-11.239
▁grip	-11.239
▁hearth	-11.239
▁heir	-11.239
▁honesty	-11.239
▁hospitality	-11.239
▁hunters	-11.239
▁innumerable	-11.239
▁intimacy	-11.239
▁leslie	-11.239
▁logical	-11.239
▁manly	-11.239
▁manuscript	-11.239
▁mechanical	-11.239
▁milan	-11.239
▁mouths	-11.239
▁napoleon	-11.239
▁occasioned	-11.239
▁ornaments	-11.239
▁overwhelmed	-11.239
▁pavement	-11.239
▁pearl	-11.239
▁perry	-11.239
▁pitched	-11.239
▁politely	-11.239
▁pond	-11.239
▁prevail	-11.239
▁prince's	-11.239
▁proofs	-11.239
▁proportions	-11.239
▁pupil	-11.239
▁raft	-11.239
▁readiness	-11.239
▁rebel	-11.239
▁reins	-11.239
▁relate	-11.239
▁relating	-11.239
▁resembled	-11.239
▁rustling	-11.239
▁salary	-11.239
▁satin	-11.239
▁scared	-11.239
▁seasons	-11.239
▁sixteenth	-11.239
▁spoonful	-11.239
▁startling	-11.239
▁storms	-11.239
▁struggles	-11.239
▁sumter	-11.239
▁tend	-11.239
▁text	-11.239
▁throng	-11.239
▁tony	-11.239
▁torres	-11.239
▁tradition	-11.239
▁traditions	-11.239
▁valued	-11.239
▁vices	-11.239
▁voted	-11.239
▁votes	-11.239
▁w	-11.239
▁wednesday	-11.239
▁withdrew	-11.239
▁accordance	-11.2601
▁adjoining	-11.2601
▁al	-11.2601
▁babo	-11.2601
▁balloon	-11.2601
▁bet	-11.2601
▁betray	-11.2601
▁blanket	-11.2601
▁booth	-11.2601
▁canoe	-11.2601
▁cat's	-11.2601
▁communicate	-11.2601
▁compliment	-11.2601
▁consumed	-11.2601
▁continuing	-11.2601
▁countrymen	-11.2601
▁dainty	-11.2601
▁decorated	-11.2601
▁dimly	-11.2601
▁doomed	-11.2601
▁embroidered	-11.2601
▁essentially	-11.2601
▁explaining	-11.2601
▁extending	-11.2601
▁fancies	-11.2601
▁fantastic	-11.2601
▁feminine	-11.2601
▁fulfilled	-11.2601
▁functions	-11.2601
▁furnace	-11.2601
▁fyodor	-11.2601
▁gaining	-11.2601
▁generosity	-11.2601
▁grated	-11.2601
▁hanged	-11.2601
▁harbor	-11.2601
▁helmet	-11.2601
▁hen	-11.2601
▁honestly	-11.2601
▁indignant	-11.2601
▁joam	-11.2601
▁kick	-11.2601
▁lawn	-11.2601
▁lodging	-11.2601
▁marie	-11.2601
▁mars	-11.2601
▁momentary	-11.2601
▁nicely	-11.2601
▁notions	-11.2601
▁osborne	-11.2601
▁owed	-11.2601
▁passive	-11.2601
▁peaks	-11.2601
▁perplexed	-11.2601
▁pirate	-11.2601
▁pleases	-11.2601
▁reckoned	-11.2601
▁reduce	-11.2601
▁rejoice	-11.2601
▁relay	-11.2601
▁remarkably	-11.2601
▁restrain	-11.2601
▁retreated	-11.2601
▁sciences	-11.2601
▁slipping	-11.2601
▁spears	-11.2601
▁specimens	-11.2601
▁stables	-11.2601
▁strict	-11.2601
▁student	-11.2601
▁stumbled	-11.2601
▁stump	-11.2601
▁successive	-11.2601
▁tempered	-11.2601
▁theories	-11.2601
▁tramp	-11.2601
▁transformed	-11.2601
▁tread	-11.2601
▁treaty	-11.2601
▁ultimately	-11.2601
▁vaguely	-11.2601
▁vancouver	-11.2601
▁whistled	-11.2601
▁youthful	-11.2601
▁adams	-11.2816
▁afflicted	-11.2816
▁aristocratic	-11.2816
▁array	-11.2816
▁begging	-11.2816
▁chap	-11.2816
▁clumsy	-11.2816
▁communicated	-11.2816
▁concert	-11.2816
▁considerations	-11.2816
▁consist	-11.2816
▁continues	-11.2816
▁corresponding	-11.2816
▁creator	-11.2816
▁crisis	-11.2816
▁crystal	-11.2816
▁cyrus	-11.2816
▁democracy	-11.2816
▁dined	-11.2816
▁divorce	-11.2816
▁downward	-11.2816
▁eloquence	-11.2816
▁enemy's	-11.2816
▁exchanged	-11.2816
▁exclamation	-11.2816
▁f	-11.2816
▁fails	-11.2816
▁faltered	-11.2816
▁fashionable	-11.2816
▁fertile	-11.2816
▁fold	-11.2816
▁glances	-11.2816
▁gossip	-11.2816
▁greeks	-11.2816
▁handful	-11.2816
▁harold	-11.2816
▁heated	-11.2816
▁honourable	-11.2816
▁incredible	-11.2816
▁inspector	-11.2816
▁intently	-11.2816
▁jake	-11.2816
▁jersey	-11.2816
▁joyous	-11.2816
▁latest	-11.2816
▁lever	-11.2816
▁martha	-11.2816
▁massachusetts	-11.2816
▁mused	-11.2816
▁museum	-11.2816
▁nemo	-11.2816
▁nerve	-11.2816
▁nostrils	-11.2816
▁novelty	-11.2816
▁oars	-11.2816
▁opens	-11.2816
▁pavlovitch	-11.2816
▁peril	-11.2816
▁phrases	-11.2816
▁policeman	-11.2816
▁preaching	-11.2816
▁prejudice	-11.2816
▁preservation	-11.2816
▁proceedings	-11.2816
▁prolonged	-11.2816
▁proprietor	-11.2816
▁rat	-11.2816
▁readers	-11.2816
▁refusal	-11.2816
▁reginald	-11.2816
▁rejected	-11.2816
▁repentance	-11.2816
▁restraint	-11.2816
▁select	-11.2816
▁sentences	-11.2816
▁shallow	-11.2816
▁shattered	-11.2816
▁shots	-11.2816
▁sits	-11.2816
▁slice	-11.2816
▁sobbed	-11.2816
▁sophia	-11.2816
▁sorrows	-11.2816
▁sounding	-11.2816
▁southward	-11.2816
▁stretching	-11.2816
▁strode	-11.2816
▁sunrise	-11.2816
▁swell	-11.2816
▁tablespoonfuls	-11.2816
▁teddy	-11.2816
▁tons	-11.2816
▁torrent	-11.2816
▁traddles	-11.2816
▁tribute	-11.2816
▁trivial	-11.2816
▁tube	-11.2816
▁ultimate	-11.2816
▁uneasiness	-11.2816
▁victoria	-11.2816
▁washing	-11.2816
▁whirling	-11.2816
▁whiskers	-11.2816
▁winchester	-11.2816
▁wondrous	-11.2816
▁abide	-11.3035
▁agents	-11.3035
▁allowance	-11.3035
▁almighty	-11.3035
▁ammunition	-11.3035
▁anticipated	-11.3035
▁attendant	-11.3035
▁authors	-11.3035
▁beaver	-11.3035
▁beliefs	-11.3035
▁besieged	-11.3035
▁bishops	-11.3035
▁bolt	-11.3035
▁brighter	-11.3035
▁briskly	-11.3035
▁buffalo	-11.3035
▁bursting	-11.3035
▁carlyle	-11.3035
▁cash	-11.3035
▁chariot	-11.3035
▁chiltern	-11.3035
▁chocolate	-11.3035
▁complaint	-11.3035
▁conquest	-11.3035
▁contemplation	-11.3035
▁cursed	-11.3035
▁darkened	-11.3035
▁defended	-11.3035
▁depression	-11.3035
▁disposal	-11.3035
▁efficiency	-11.3035
▁elephant	-11.3035
▁elinor	-11.3035
▁embarrassed	-11.3035
▁encourage	-11.3035
▁extravagant	-11.3035
▁failing	-11.3035
▁fireplace	-11.3035
▁fist	-11.3035
▁fork	-11.3035
▁furiously	-11.3035
▁hannah	-11.3035
▁hawk	-11.3035
▁heroic	-11.3035
▁highway	-11.3035
▁lacking	-11.3035
▁malice	-11.3035
▁massive	-11.3035
▁morton	-11.3035
▁neighboring	-11.3035
▁nut	-11.3035
▁obligation	-11.3035
▁observer	-11.3035
▁obtaining	-11.3035
▁oppressed	-11.3035
▁orchard	-11.3035
▁petty	-11.3035
▁phil	-11.3035
▁positions	-11.3035
▁pre	-11.3035
▁prominent	-11.3035
▁reared	-11.3035
▁recognised	-11.3035
▁reform	-11.3035
▁repaired	-11.3035
▁ruby	-11.3035
▁saluted	-11.3035
▁scholar	-11.3035
▁scratched	-11.3035
▁sexes	-11.3035
▁shillings	-11.3035
▁shrewd	-11.3035
▁skins	-11.3035
▁slay	-11.3035
▁spectators	-11.3035
▁staggered	-11.3035
▁stooping	-11.3035
▁telegraph	-11.3035
▁theme	-11.3035
▁thrill	-11.3035
▁triumphant	-11.3035
▁trout	-11.3035
▁tune	-11.3035
▁twist	-11.3035
▁victims	-11.3035
▁volumes	-11.3035
▁wheeled	-11.3035
▁whirled	-11.3035
▁withered	-11.3035
▁yell	-11.3035
▁affections	-11.326
▁amidst	-11.326
▁amos	-11.326
▁approval	-11.326
▁assented	-11.326
▁attributes	-11.326
▁aught	-11.326
▁augustus	-11.326
▁baker	-11.326
▁barbarous	-11.326
▁beam	-11.326
▁betty	-11.326
▁blacks	-11.326
▁boot	-11.326
▁brutal	-11.326
▁carpenter	-11.326
▁chambers	-11.326
▁chateau	-11.326
▁clubs	-11.326
▁confronted	-11.326
▁constitute	-11.326
▁constitutional	-11.326
▁covers	-11.326
▁cupful	-11.326
▁delayed	-11.326
▁destitute	-11.326
▁destroying	-11.326
▁devils	-11.326
▁differences	-11.326
▁discovering	-11.326
▁dora	-11.326
▁doubled	-11.326
▁entreated	-11.326
▁environment	-11.326
▁estimate	-11.326
▁exhibition	-11.326
▁florentines	-11.326
▁forthwith	-11.326
▁francisco	-11.326
▁freed	-11.326
▁gleaming	-11.326
▁goats	-11.326
▁haughty	-11.326
▁henrietta	-11.326
▁howard	-11.326
▁howling	-11.326
▁hue	-11.326
▁indulged	-11.326
▁instincts	-11.326
▁iroquois	-11.326
▁knocking	-11.326
▁mac	-11.326
▁muddy	-11.326
▁mysteries	-11.326
▁negroes	-11.326
▁onions	-11.326
▁otter	-11.326
▁panting	-11.326
▁patent	-11.326
▁pencil	-11.326
▁perceptible	-11.326
▁piercing	-11.326
▁piles	-11.326
▁pinocchio	-11.326
▁precise	-11.326
▁prejudices	-11.326
▁procured	-11.326
▁products	-11.326
▁rag	-11.326
▁random	-11.326
▁rein	-11.326
▁repair	-11.326
▁reveal	-11.326
▁reverend	-11.326
▁sacrificed	-11.326
▁scenery	-11.326
▁seeds	-11.326
▁senor	-11.326
▁societies	-11.326
▁springing	-11.326
▁stacy	-11.326
▁stamped	-11.326
▁striped	-11.326
▁strolled	-11.326
▁stuffed	-11.326
▁sweat	-11.326
▁tablespoonful	-11.326
▁tails	-11.326
▁ter	-11.326
▁transferred	-11.326
▁troublesome	-11.326
▁trumpet	-11.326
▁twelfth	-11.326
▁types	-11.326
▁vinegar	-11.326
▁wagons	-11.326
▁year's	-11.326
▁abraham	-11.349
▁accent	-11.349
▁accurate	-11.349
▁aristobulus	-11.349
▁armor	-11.349
▁arranging	-11.349
▁attempting	-11.349
▁attentively	-11.349
▁await	-11.349
▁baba	-11.349
▁backwards	-11.349
▁beggar	-11.349
▁birch	-11.349
▁bliss	-11.349
▁blooming	-11.349
▁breaks	-11.349
▁breton	-11.349
▁canvas	-11.349
▁carolina	-11.349
▁commons	-11.349
▁comprehension	-11.349
▁counting	-11.349
▁courtiers	-11.349
▁cultivation	-11.349
▁curve	-11.349
▁defarge	-11.349
▁defiance	-11.349
▁den	-11.349
▁destructive	-11.349
▁draws	-11.349
▁dusty	-11.349
▁forts	-11.349
▁gallop	-11.349
▁gould	-11.349
▁gross	-11.349
▁happiest	-11.349
▁hostess	-11.349
▁hum	-11.349
▁hypothesis	-11.349
▁incidents	-11.349
▁judging	-11.349
▁kin	-11.349
▁knightley	-11.349
▁legislation	-11.349
▁marshal	-11.349
▁marvel	-11.349
▁marvelous	-11.349
▁mournful	-11.349
▁mukoki	-11.349
▁naval	-11.349
▁neatly	-11.349
▁neighbouring	-11.349
▁noticing	-11.349
▁offspring	-11.349
▁owl	-11.349
▁pattern	-11.349
▁periods	-11.349
▁philosophical	-11.349
▁pierced	-11.349
▁pious	-11.349
▁pitcher	-11.349
▁plantation	-11.349
▁plunder	-11.349
▁precautions	-11.349
▁prudent	-11.349
▁pussy	-11.349
▁questioning	-11.349
▁rabbits	-11.349
▁rejoicing	-11.349
▁reverse	-11.349
▁roger	-11.349
▁routine	-11.349
▁scraps	-11.349
▁screaming	-11.349
▁seemingly	-11.349
▁sliced	-11.349
▁softened	-11.349
▁spacious	-11.349
▁splendor	-11.349
▁squirrel	-11.349
▁stages	-11.349
▁stepping	-11.349
▁stormy	-11.349
▁studio	-11.349
▁sullen	-11.349
▁superstition	-11.349
▁sympathetic	-11.349
▁tastes	-11.349
▁ties	-11.349
▁treachery	-11.349
▁trifling	-11.349
▁uncommon	-11.349
▁vegetables	-11.349
▁vegetation	-11.349
▁vigorously	-11.349
▁wales	-11.349
▁wander	-11.349
▁whistling	-11.349
▁wholesome	-11.349
▁width	-11.349
▁wiggily	-11.349
▁windsor	-11.349
▁wisely	-11.349
▁worlds	-11.349
▁alert	-11.3725
▁ambrosch	-11.3725
▁angles	-11.3725
▁apron	-11.3725
▁areas	-11.3725
▁argue	-11.3725
▁asks	-11.3725
▁austria	-11.3725
▁available	-11.3725
▁awfully	-11.3725
▁bathed	-11.3725
▁birthday	-11.3725
▁blast	-11.3725
▁blinded	-11.3725
▁bottles	-11.3725
▁charges	-11.3725
▁chiefs	-11.3725
▁children's	-11.3725
▁chop	-11.3725
▁clover	-11.3725
▁collect	-11.3725
▁comb	-11.3725
▁compliments	-11.3725
▁concentrated	-11.3725
▁conference	-11.3725
▁conjecture	-11.3725
▁coroner	-11.3725
▁cradle	-11.3725
▁cupboard	-11.3725
▁cushions	-11.3725
▁deliberation	-11.3725
▁devoured	-11.3725
▁dignified	-11.3725
▁disappearance	-11.3725
▁discouraged	-11.3725
▁disgusted	-11.3725
▁donkey	-11.3725
▁dramatic	-11.3725
▁earned	-11.3725
▁eastward	-11.3725
▁edition	-11.3725
▁effected	-11.3725
▁elaborate	-11.3725
▁emergency	-11.3725
▁escaping	-11.3725
▁exalted	-11.3725
▁exertion	-11.3725
▁extension	-11.3725
▁fain	-11.3725
▁fetched	-11.3725
▁fidelity	-11.3725
▁flaming	-11.3725
▁flora	-11.3725
▁fraser	-11.3725
▁gipsy	-11.3725
▁hare	-11.3725
▁heaps	-11.3725
▁hears	-11.3725
▁horrors	-11.3725
▁immaterial	-11.3725
▁impulses	-11.3725
▁intensely	-11.3725
▁javert	-11.3725
▁jew	-11.3725
▁karl	-11.3725
▁kenneth	-11.3725
▁labours	-11.3725
▁legend	-11.3725
▁legitimate	-11.3725
▁lingered	-11.3725
▁luncheon	-11.3725
▁magnitude	-11.3725
▁maids	-11.3725
▁majestic	-11.3725
▁maryland	-11.3725
▁maud	-11.3725
▁mexican	-11.3725
▁mirth	-11.3725
▁mole	-11.3725
▁natasha	-11.3725
▁noah	-11.3725
▁objected	-11.3725
▁objections	-11.3725
▁parker	-11.3725
▁possibilities	-11.3725
▁procure	-11.3725
▁proves	-11.3725
▁quoted	-11.3725
▁rash	-11.3725
▁receives	-11.3725
▁removing	-11.3725
▁resisted	-11.3725
▁richly	-11.3725
▁rufford	-11.3725
▁ruled	-11.3725
▁sacrifices	-11.3725
▁saints	-11.3725
▁saloon	-11.3725
▁session	-11.3725
▁shan't	-11.3725
▁sheriff	-11.3725
▁shriek	-11.3725
▁significant	-11.3725
▁slopes	-11.3725
▁smet	-11.3725
▁smoked	-11.3725
▁sour	-11.3725
▁spectacles	-11.3725
▁sprung	-11.3725
▁stress	-11.3725
▁substitute	-11.3725
▁sworn	-11.3725
▁threats	-11.3725
▁thursday	-11.3725
▁tidings	-11.3725
▁toilet	-11.3725
▁tongues	-11.3725
▁tyrant	-11.3725
▁upwards	-11.3725
▁urgent	-11.3725
▁vainly	-11.3725
▁vexed	-11.3725
▁whereof	-11.3725
▁wicker	-11.3725
▁wider	-11.3725
▁willow	-11.3725
▁admiral	-11.3966
▁admiring	-11.3966
▁admission	-11.3966
▁antonia	-11.3966
▁asia	-11.3966
▁ass	-11.3966
▁athos	-11.3966
▁barren	-11.3966
▁batteries	-11.3966
▁beforehand	-11.3966
▁belly	-11.3966
▁blossoms	-11.3966
▁blushing	-11.3966
▁burne	-11.3966
▁captain's	-11.3966
▁charleston	-11.3966
▁circular	-11.3966
▁clark	-11.3966
▁clerks	-11.3966
▁conclusions	-11.3966
▁courts	-11.3966
▁curls	-11.3966
▁damon	-11.3966
▁darker	-11.3966
▁deceased	-11.3966
▁descendants	-11.3966
▁designed	-11.3966
▁diameter	-11.3966
▁diary	-11.3966
▁discussing	-11.3966
▁dove	-11.3966
▁drunken	-11.3966
▁ecclesiastical	-11.3966
▁edna	-11.3966
▁efficient	-11.3966
▁egyptian	-11.3966
▁enclosure	-11.3966
▁endowed	-11.3966
▁estates	-11.3966
▁everlasting	-11.3966
▁evolution	-11.3966
▁farms	-11.3966
▁fried	-11.3966
▁git	-11.3966
▁goin	-11.3966
▁herd	-11.3966
▁hoofs	-11.3966
▁hymn	-11.3966
▁ideals	-11.3966
▁indescribable	-11.3966
▁indulge	-11.3966
▁inheritance	-11.3966
▁inland	-11.3966
▁instinctively	-11.3966
▁interference	-11.3966
▁kennicott	-11.3966
▁kicked	-11.3966
▁labors	-11.3966
▁lame	-11.3966
▁layer	-11.3966
▁lifetime	-11.3966
▁lighter	-11.3966
▁loneliness	-11.3966
▁luminous	-11.3966
▁maria	-11.3966
▁mills	-11.3966
▁monarchy	-11.3966
▁mould	-11.3966
▁needn't	-11.3966
▁night's	-11.3966
▁nodding	-11.3966
▁obstacles	-11.3966
▁offensive	-11.3966
▁oxford	-11.3966
▁parent	-11.3966
▁peering	-11.3966
▁pennsylvania	-11.3966
▁peter's	-11.3966
▁phineas	-11.3966
▁pines	-11.3966
▁pleasantly	-11.3966
▁polish	-11.3966
▁publicly	-11.3966
▁raoul	-11.3966
▁redmain	-11.3966
▁reef	-11.3966
▁remorse	-11.3966
▁requisite	-11.3966
▁restrained	-11.3966
▁ribbon	-11.3966
▁ropes	-11.3966
▁rounded	-11.3966
▁rulers	-11.3966
▁seasoned	-11.3966
▁secrecy	-11.3966
▁selling	-11.3966
▁semi	-11.3966
▁shivered	-11.3966
▁singularly	-11.3966
▁sister's	-11.3966
▁skies	-11.3966
▁sleeves	-11.3966
▁slices	-11.3966
▁spending	-11.3966
▁starved	-11.3966
▁stew	-11.3966
▁stripped	-11.3966
▁submission	-11.3966
▁supporting	-11.3966
▁surgeon	-11.3966
▁swaying	-11.3966
▁swing	-11.3966
▁thorough	-11.3966
▁threat	-11.3966
▁tips	-11.3966
▁transparent	-11.3966
▁vicinity	-11.3966
▁vigor	-11.3966
▁wrist	-11.3966
▁yosemite	-11.3966
▁aching	-11.4213
▁acute	-11.4213
▁airs	-11.4213
▁annual	-11.4213
▁applause	-11.4213
▁astonishing	-11.4213
▁attachment	-11.4213
▁attentive	-11.4213
▁attire	-11.4213
▁aversion	-11.4213
▁banker	-11.4213
▁bardell	-11.4213
▁berengaria	-11.4213
▁breeding	-11.4213
▁brooding	-11.4213
▁bullets	-11.4213
▁carelessly	-11.4213
▁cargo	-11.4213
▁champion	-11.4213
▁charmed	-11.4213
▁chipmunk	-11.4213
▁companies	-11.4213
▁conniston	-11.4213
▁conseil	-11.4213
▁contracted	-11.4213
▁coward	-11.4213
▁cuts	-11.4213
▁data	-11.4213
▁dawned	-11.4213
▁debate	-11.4213
▁declaring	-11.4213
▁deity	-11.4213
▁deposited	-11.4213
▁detected	-11.4213
▁dip	-11.4213
▁disaster	-11.4213
▁discharge	-11.4213
▁distribution	-11.4213
▁earnestness	-11.4213
▁elevated	-11.4213
▁eleventh	-11.4213
▁enclosed	-11.4213
▁endeavor	-11.4213
▁envelope	-11.4213
▁expressive	-11.4213
▁flee	-11.4213
▁flint	-11.4213
▁flush	-11.4213
▁foremost	-11.4213
▁fuller	-11.4213
▁fulton	-11.4213
▁g	-11.4213
▁goal	-11.4213
▁gotten	-11.4213
▁ho	-11.4213
▁horace	-11.4213
▁immortal	-11.4213
▁imposing	-11.4213
▁improvements	-11.4213
▁indignantly	-11.4213
▁ingenuity	-11.4213
▁inspiration	-11.4213
▁invent	-11.4213
▁isolated	-11.4213
▁jem	-11.4213
▁jo	-11.4213
▁kettle	-11.4213
▁leapt	-11.4213
▁manhood	-11.4213
▁mary's	-11.4213
▁memorable	-11.4213
▁moisture	-11.4213
▁multiplied	-11.4213
▁nobleman	-11.4213
▁odious	-11.4213
▁ornament	-11.4213
▁parlor	-11.4213
▁passenger	-11.4213
▁passionately	-11.4213
▁peel	-11.4213
▁perched	-11.4213
▁phillips	-11.4213
▁plump	-11.4213
▁posts	-11.4213
▁prospects	-11.4213
▁prosperous	-11.4213
▁rainbow	-11.4213
▁recovery	-11.4213
▁reflecting	-11.4213
▁relics	-11.4213
▁resigned	-11.4213
▁respectful	-11.4213
▁schemes	-11.4213
▁scottish	-11.4213
▁securing	-11.4213
▁sentimental	-11.4213
▁severity	-11.4213
▁spaces	-11.4213
▁sterling	-11.4213
▁striving	-11.4213
▁studies	-11.4213
▁supernatural	-11.4213
▁suspense	-11.4213
▁suspicions	-11.4213
▁termed	-11.4213
▁terrific	-11.4213
▁theater	-11.4213
▁thereof	-11.4213
▁toes	-11.4213
▁tonight	-11.4213
▁trunks	-11.4213
▁tumbled	-11.4213
▁vavasor	-11.4213
▁verge	-11.4213
▁ward	-11.4213
▁weariness	-11.4213
▁wisest	-11.4213
▁yelled	-11.4213
▁accounted	-11.4466
▁alfred	-11.4466
▁andrews	-11.4466
▁another's	-11.4466
▁anti	-11.4466
▁apparel	-11.4466
▁appealed	-11.4466
▁beware	-11.4466
▁boards	-11.4466
▁borlsover	-11.4466
▁bryce	-11.4466
▁caravan	-11.4466
▁carrie	-11.4466
▁cautious	-11.4466
▁celestial	-11.4466
▁chant	-11.4466
▁clapped	-11.4466
▁clearer	-11.4466
▁complaints	-11.4466
▁composure	-11.4466
▁conductor	-11.4466
▁confounded	-11.4466
▁consisting	-11.4466
▁consumption	-11.4466
▁crab	-11.4466
▁damsel	-11.4466
▁delights	-11.4466
▁dinsmore	-11.4466
▁doings	-11.4466
▁dominion	-11.4466
▁du	-11.4466
▁echo	-11.4466
▁emperor's	-11.4466
▁excessive	-11.4466
▁expedient	-11.4466
▁fascinating	-11.4466
▁favoured	-11.4466
▁felix	-11.4466
▁fluttering	-11.4466
▁fred	-11.4466
▁frighten	-11.4466
▁genji	-11.4466
▁germans	-11.4466
▁gleamed	-11.4466
▁graves	-11.4466
▁handled	-11.4466
▁harness	-11.4466
▁hinder	-11.4466
▁hire	-11.4466
▁hurstwood	-11.4466
▁identical	-11.4466
▁implied	-11.4466
▁imprisoned	-11.4466
▁inclinations	-11.4466
▁induce	-11.4466
▁infancy	-11.4466
▁insensible	-11.4466
▁isabella	-11.4466
▁jaw	-11.4466
▁joining	-11.4466
▁joints	-11.4466
▁joyful	-11.4466
▁ledge	-11.4466
▁lime	-11.4466
▁lingering	-11.4466
▁loyal	-11.4466
▁mechanically	-11.4466
▁mess	-11.4466
▁missy	-11.4466
▁molly	-11.4466
▁morn	-11.4466
▁mounting	-11.4466
▁necessities	-11.4466
▁negative	-11.4466
▁obstacle	-11.4466
▁obstinate	-11.4466
▁oppression	-11.4466
▁ore	-11.4466
▁outstretched	-11.4466
▁overtook	-11.4466
▁patsy	-11.4466
▁perilous	-11.4466
▁pershing	-11.4466
▁personage	-11.4466
▁pills	-11.4466
▁possesses	-11.4466
▁presenting	-11.4466
▁principally	-11.4466
▁privileges	-11.4466
▁produces	-11.4466
▁profitable	-11.4466
▁prostrate	-11.4466
▁pump	-11.4466
▁purity	-11.4466
▁rapidity	-11.4466
▁refrain	-11.4466
▁regretted	-11.4466
▁revelation	-11.4466
▁ribbons	-11.4466
▁rug	-11.4466
▁sadness	-11.4466
▁selection	-11.4466
▁shaded	-11.4466
▁shakespeare's	-11.4466
▁sherwin	-11.4466
▁slumber	-11.4466
▁soothing	-11.4466
▁sped	-11.4466
▁statue	-11.4466
▁strait	-11.4466
▁strokes	-11.4466
▁sturdy	-11.4466
▁suggestions	-11.4466
▁survive	-11.4466
▁taxes	-11.4466
▁technical	-11.4466
▁telescope	-11.4466
▁thereafter	-11.4466
▁thirds	-11.4466
▁thirsty	-11.4466
▁thrice	-11.4466
▁tom's	-11.4466
▁tragic	-11.4466
▁transport	-11.4466
▁trinity	-11.4466
▁urge	-11.4466
▁uttering	-11.4466
▁valentine	-11.4466
▁weeds	-11.4466
▁wharton	-11.4466
▁wickedness	-11.4466
▁winged	-11.4466
▁winning	-11.4466
▁wipe	-11.4466
▁absurdity	-11.4726
▁ache	-11.4726
▁achieved	-11.4726
▁acres	-11.4726
▁activities	-11.4726
▁afar	-11.4726
▁alien	-11.4726
▁allen	-11.4726
▁appropriate	-11.4726
▁argued	-11.4726
▁attendants	-11.4726
▁batter	-11.4726
▁bedside	-11.4726
▁behavior	-11.4726
▁biggest	-11.4726
▁bluff	-11.4726
▁borders	-11.4726
▁breadth	-11.4726
▁brightness	-11.4726
▁calamity	-11.4726
▁cane	-11.4726
▁cherry	-11.4726
▁columns	-11.4726
▁comment	-11.4726
▁companionship	-11.4726
▁compromise	-11.4726
▁confidential	-11.4726
▁contradiction	-11.4726
▁convent	-11.4726
▁crow	-11.4726
▁dashing	-11.4726
▁daybreak	-11.4726
▁decisive	-11.4726
▁definitely	-11.4726
▁deliberate	-11.4726
▁designs	-11.4726
▁desperately	-11.4726
▁devices	-11.4726
▁disliked	-11.4726
▁distributed	-11.4726
▁distrust	-11.4726
▁disturbance	-11.4726
▁ditch	-11.4726
▁draught	-11.4726
▁duck	-11.4726
▁ducks	-11.4726
▁ecstasy	-11.4726
▁engines	-11.4726
▁era	-11.4726
▁evenings	-11.4726
▁eventually	-11.4726
▁forlorn	-11.4726
▁frock	-11.4726
▁frowned	-11.4726
▁funds	-11.4726
▁genus	-11.4726
▁habitual	-11.4726
▁hansel	-11.4726
▁hardened	-11.4726
▁heaped	-11.4726
▁humbly	-11.4726
▁icy	-11.4726
▁instructed	-11.4726
▁intending	-11.4726
▁invested	-11.4726
▁irritated	-11.4726
▁jam	-11.4726
▁jars	-11.4726
▁joys	-11.4726
▁kindred	-11.4726
▁lawyers	-11.4726
▁lesser	-11.4726
▁lighting	-11.4726
▁lucian	-11.4726
▁mists	-11.4726
▁mona	-11.4726
▁naught	-11.4726
▁neutral	-11.4726
▁noisy	-11.4726
▁nowadays	-11.4726
▁nursing	-11.4726
▁overlooked	-11.4726
▁palaces	-11.4726
▁peeped	-11.4726
▁pinch	-11.4726
▁pork	-11.4726
▁preach	-11.4726
▁precaution	-11.4726
▁prevailing	-11.4726
▁prompted	-11.4726
▁prowess	-11.4726
▁racing	-11.4726
▁radiant	-11.4726
▁repeating	-11.4726
▁resign	-11.4726
▁resolute	-11.4726
▁revolt	-11.4726
▁richest	-11.4726
▁rifles	-11.4726
▁roofs	-11.4726
▁rum	-11.4726
▁rushes	-11.4726
▁sawdust	-11.4726
▁shimerda	-11.4726
▁shirley	-11.4726
▁simultaneously	-11.4726
▁singer	-11.4726
▁snakes	-11.4726
▁solar	-11.4726
▁sports	-11.4726
▁spun	-11.4726
▁strengthened	-11.4726
▁strife	-11.4726
▁subsequent	-11.4726
▁sydney	-11.4726
▁systems	-11.4726
▁toy	-11.4726
▁unexpectedly	-11.4726
▁unfit	-11.4726
▁venice	-11.4726
▁version	-11.4726
▁warfare	-11.4726
▁watches	-11.4726
▁wegg	-11.4726
▁widely	-11.4726
▁workman	-11.4726
▁worthless	-11.4726
▁wrinkled	-11.4726
▁yeast	-11.4726
▁abyss	-11.4993
▁academy	-11.4993
▁acquaintances	-11.4993
▁aladdin	-11.4993
▁alarming	-11.4993
▁ale	-11.4993
▁alighted	-11.4993
▁anew	-11.4993
▁archbishop	-11.4993
▁assent	-11.4993
▁attacks	-11.4993
▁attentions	-11.4993
▁attraction	-11.4993
▁aubert	-11.4993
▁audible	-11.4993
▁banner	-11.4993
▁banners	-11.4993
▁bat	-11.4993
▁beauties	-11.4993
▁binding	-11.4993
▁blocks	-11.4993
▁boughs	-11.4993
▁brand	-11.4993
▁brood	-11.4993
▁butcher	-11.4993
▁camps	-11.4993
▁canadian	-11.4993
▁carroll	-11.4993
▁casual	-11.4993
▁channing	-11.4993
▁cheering	-11.4993
▁chickens	-11.4993
▁chuck	-11.4993
▁cleaned	-11.4993
▁clutched	-11.4993
▁compel	-11.4993
▁contemplated	-11.4993
▁conventional	-11.4993
▁converse	-11.4993
▁corridor	-11.4993
▁crop	-11.4993
▁crush	-11.4993
▁cured	-11.4993
▁curved	-11.4993
▁diet	-11.4993
▁disdain	-11.4993
▁duel	-11.4993
▁duncan	-11.4993
▁electricity	-11.4993
▁eloquent	-11.4993
▁episode	-11.4993
▁equipped	-11.4993
▁factories	-11.4993
▁fainted	-11.4993
▁finer	-11.4993
▁finishing	-11.4993
▁fir	-11.4993
▁fishermen	-11.4993
▁frances	-11.4993
▁frantic	-11.4993
▁frown	-11.4993
▁galloped	-11.4993
▁gestures	-11.4993
▁gratification	-11.4993
▁groan	-11.4993
▁hamlet	-11.4993
▁handling	-11.4993
▁hinted	-11.4993
▁hop	-11.4993
▁hudson	-11.4993
▁indication	-11.4993
▁inference	-11.4993
▁influenced	-11.4993
▁inherited	-11.4993
▁jail	-11.4993
▁jailer	-11.4993
▁jonathan	-11.4993
▁jove	-11.4993
▁lagoon	-11.4993
▁launch	-11.4993
▁litter	-11.4993
▁lodgings	-11.4993
▁mainly	-11.4993
▁mature	-11.4993
▁merits	-11.4993
▁merrily	-11.4993
▁mirrors	-11.4993
▁moist	-11.4993
▁nature's	-11.4993
▁offend	-11.4993
▁oyster	-11.4993
▁pasture	-11.4993
▁pebbles	-11.4993
▁platter	-11.4993
▁poisoned	-11.4993
▁preference	-11.4993
▁projected	-11.4993
▁proverb	-11.4993
▁renders	-11.4993
▁respecting	-11.4993
▁rewarded	-11.4993
▁rites	-11.4993
▁robbery	-11.4993
▁rubber	-11.4993
▁rugg	-11.4993
▁sands	-11.4993
▁scores	-11.4993
▁senior	-11.4993
▁serves	-11.4993
▁settling	-11.4993
▁shares	-11.4993
▁shuddered	-11.4993
▁sinister	-11.4993
▁sliding	-11.4993
▁smerdyakov	-11.4993
▁specimen	-11.4993
▁spinning	-11.4993
▁spurs	-11.4993
▁steed	-11.4993
▁strata	-11.4993
▁suleiman	-11.4993
▁survey	-11.4993
▁swayed	-11.4993
▁swelling	-11.4993
▁topic	-11.4993
▁touches	-11.4993
▁traveled	-11.4993
▁twins	-11.4993
▁uproar	-11.4993
▁utterance	-11.4993
▁vexation	-11.4993
▁villain	-11.4993
▁wallace	-11.4993
▁weaker	-11.4993
▁whatsoever	-11.4993
▁where's	-11.4993
▁withdraw	-11.4993
▁airy	-11.5267
▁alexandrovna	-11.5267
▁alternative	-11.5267
▁amory	-11.5267
▁annoyance	-11.5267
▁armour	-11.5267
▁artillery	-11.5267
▁ascertained	-11.5267
▁assuming	-11.5267
▁assuredly	-11.5267
▁automatic	-11.5267
▁baltimore	-11.5267
▁banished	-11.5267
▁bates	-11.5267
▁bessie	-11.5267
▁bicycle	-11.5267
▁bingley	-11.5267
▁blackness	-11.5267
▁blakeney	-11.5267
▁blunt	-11.5267
▁borrowed	-11.5267
▁brisk	-11.5267
▁broth	-11.5267
▁bustle	-11.5267
▁camped	-11.5267
▁canal	-11.5267
▁carr	-11.5267
▁channels	-11.5267
▁clement	-11.5267
▁cloudy	-11.5267
▁coin	-11.5267
▁communities	-11.5267
▁confirm	-11.5267
▁conservative	-11.5267
▁consternation	-11.5267
▁cornelius	-11.5267
▁crushing	-11.5267
▁currents	-11.5267
▁damosel	-11.5267
▁daresay	-11.5267
▁del	-11.5267
▁dene	-11.5267
▁despise	-11.5267
▁destination	-11.5267
▁detect	-11.5267
▁dickens	-11.5267
▁didst	-11.5267
▁dispersed	-11.5267
▁dispose	-11.5267
▁dmitri	-11.5267
▁dounia	-11.5267
▁drown	-11.5267
▁dulcinea	-11.5267
▁echoes	-11.5267
▁elapsed	-11.5267
▁englishmen	-11.5267
▁errors	-11.5267
▁exceeding	-11.5267
▁excitedly	-11.5267
▁exclusively	-11.5267
▁excursion	-11.5267
▁fared	-11.5267
▁ferry	-11.5267
▁fountains	-11.5267
▁fowl	-11.5267
▁futile	-11.5267
▁gap	-11.5267
▁georgia	-11.5267
▁ghastly	-11.5267
▁ghosts	-11.5267
▁gliding	-11.5267
▁groaned	-11.5267
▁halls	-11.5267
▁hauled	-11.5267
▁homage	-11.5267
▁impressive	-11.5267
▁inasmuch	-11.5267
▁invaded	-11.5267
▁japan	-11.5267
▁john's	-11.5267
▁judy	-11.5267
▁ketch	-11.5267
▁kittens	-11.5267
▁lain	-11.5267
▁lastly	-11.5267
▁lecture	-11.5267
▁lone	-11.5267
▁lord's	-11.5267
▁loveliness	-11.5267
▁mammy	-11.5267
▁margin	-11.5267
▁maxim	-11.5267
▁missouri	-11.5267
▁moraine	-11.5267
▁moth	-11.5267
▁naughty	-11.5267
▁needles	-11.5267
▁noakes	-11.5267
▁novels	-11.5267
▁operate	-11.5267
▁ounce	-11.5267
▁parrot	-11.5267
▁partially	-11.5267
▁pat	-11.5267
▁penetrate	-11.5267
▁pistols	-11.5267
▁posture	-11.5267
▁primary	-11.5267
▁proceeds	-11.5267
▁proclamation	-11.5267
▁prompt	-11.5267
▁provincial	-11.5267
▁provoked	-11.5267
▁rattle	-11.5267
▁recovering	-11.5267
▁regardless	-11.5267
▁resolutely	-11.5267
▁review	-11.5267
▁ridicule	-11.5267
▁rocking	-11.5267
▁rosemary	-11.5267
▁rugged	-11.5267
▁scrambled	-11.5267
▁sections	-11.5267
▁serpents	-11.5267
▁sewing	-11.5267
▁silken	-11.5267
▁slide	-11.5267
▁sprinkled	-11.5267
▁stair	-11.5267
▁standards	-11.5267
▁stray	-11.5267
▁stuart	-11.5267
▁stubborn	-11.5267
▁superb	-11.5267
▁surroundings	-11.5267
▁surveyed	-11.5267
▁tangled	-11.5267
▁texas	-11.5267
▁theodora	-11.5267
▁thrilled	-11.5267
▁tranquil	-11.5267
▁travels	-11.5267
▁tumbling	-11.5267
▁veiled	-11.5267
▁victor	-11.5267
▁virgin	-11.5267
▁vladimir	-11.5267
▁wireless	-11.5267
▁writings	-11.5267
▁acceptance	-11.5549
▁allusion	-11.5549
▁aloft	-11.5549
▁apostle	-11.5549
▁artists	-11.5549
▁associations	-11.5549
▁automobile	-11.5549
▁awaken	-11.5549
▁baggage	-11.5549
▁bennet	-11.5549
▁bewilderment	-11.5549
▁boarding	-11.5549
▁bout	-11.5549
▁bowing	-11.5549
▁brushed	-11.5549
▁butterflies	-11.5549
▁carleton	-11.5549
▁ceases	-11.5549
▁claus	-11.5549
▁co	-11.5549
▁commonplace	-11.5549
▁confederation	-11.5549
▁constituted	-11.5549
▁consulting	-11.5549
▁coolness	-11.5549
▁corporeal	-11.5549
▁costs	-11.5549
▁crowns	-11.5549
▁cruelly	-11.5549
▁dagger	-11.5549
▁delicately	-11.5549
▁demons	-11.5549
▁devote	-11.5549
▁disciples	-11.5549
▁distorted	-11.5549
▁districts	-11.5549
▁disturbing	-11.5549
▁donald	-11.5549
▁dundee	-11.5549
▁earth's	-11.5549
▁elegance	-11.5549
▁elmwood	-11.5549
▁embarked	-11.5549
▁empress	-11.5549
▁entertaining	-11.5549
▁envious	-11.5549
▁excuses	-11.5549
▁exhaustion	-11.5549
▁fearfully	-11.5549
▁feebly	-11.5549
▁financial	-11.5549
▁fisher	-11.5549
▁flank	-11.5549
▁folliot	-11.5549
▁garral	-11.5549
▁gems	-11.5549
▁glided	-11.5549
▁gloomily	-11.5549
▁grains	-11.5549
▁grate	-11.5549
▁greet	-11.5549
▁grin	-11.5549
▁guidance	-11.5549
▁harrington	-11.5549
▁honored	-11.5549
▁incessant	-11.5549
▁indebted	-11.5549
▁influences	-11.5549
▁interruption	-11.5549
▁joint	-11.5549
▁judgement	-11.5549
▁julie	-11.5549
▁kneeling	-11.5549
▁lance	-11.5549
▁launched	-11.5549
▁legged	-11.5549
▁lobby	-11.5549
▁lodged	-11.5549
▁lonesome	-11.5549
▁loyalty	-11.5549
▁lydia	-11.5549
▁mace	-11.5549
▁margaret's	-11.5549
▁marsh	-11.5549
▁mediterranean	-11.5549
▁melody	-11.5549
▁moderation	-11.5549
▁monotonous	-11.5549
▁mound	-11.5549
▁navigation	-11.5549
▁nell	-11.5549
▁nightingale	-11.5549
▁norah	-11.5549
▁notary	-11.5549
▁o'er	-11.5549
▁obscurity	-11.5549
▁oft	-11.5549
▁packet	-11.5549
▁particles	-11.5549
▁partition	-11.5549
▁penetrated	-11.5549
▁perseverance	-11.5549
▁phase	-11.5549
▁pike	-11.5549
▁pitiful	-11.5549
▁planchet	-11.5549
▁planets	-11.5549
▁porridge	-11.5549
▁possessing	-11.5549
▁preceded	-11.5549
▁pretending	-11.5549
▁prodigious	-11.5549
▁professed	-11.5549
▁profoundly	-11.5549
▁quart	-11.5549
▁ranch	-11.5549
▁ranged	-11.5549
▁relationship	-11.5549
▁reluctantly	-11.5549
▁resembling	-11.5549
▁revenue	-11.5549
▁rubbish	-11.5549
▁scales	-11.5549
▁scissors	-11.5549
▁scope	-11.5549
▁scott	-11.5549
▁scrap	-11.5549
▁serene	-11.5549
▁shawl	-11.5549
▁shifted	-11.5549
▁signals	-11.5549
▁spargo	-11.5549
▁spark	-11.5549
▁sparks	-11.5549
▁specific	-11.5549
▁starving	-11.5549
▁strewn	-11.5549
▁stupidity	-11.5549
▁succeeding	-11.5549
▁sustain	-11.5549
▁sweetest	-11.5549
▁tavern	-11.5549
▁terrace	-11.5549
▁testament	-11.5549
▁timidly	-11.5549
▁tot	-11.5549
▁tropical	-11.5549
▁uncle's	-11.5549
▁withal	-11.5549
▁withdrawn	-11.5549
▁accepting	-11.5838
▁achievements	-11.5838
▁administered	-11.5838
▁adventurer	-11.5838
▁afore	-11.5838
▁afresh	-11.5838
▁ambassador	-11.5838
▁apology	-11.5838
▁appalling	-11.5838
▁appointments	-11.5838
▁bald	-11.5838
▁beads	-11.5838
▁beams	-11.5838
▁beckoned	-11.5838
▁bleak	-11.5838
▁bored	-11.5838
▁burial	-11.5838
▁buying	-11.5838
▁cable	-11.5838
▁candy	-11.5838
▁canst	-11.5838
▁cargan	-11.5838
▁caring	-11.5838
▁caroline	-11.5838
▁catastrophe	-11.5838
▁coins	-11.5838
▁compact	-11.5838
▁conceit	-11.5838
▁conquer	-11.5838
▁contributed	-11.5838
▁controlled	-11.5838
▁cork	-11.5838
▁correctly	-11.5838
▁damn	-11.5838
▁daoud	-11.5838
▁dealt	-11.5838
▁decay	-11.5838
▁deirdre	-11.5838
▁denial	-11.5838
▁despatched	-11.5838
▁dimensions	-11.5838
▁diminished	-11.5838
▁discharged	-11.5838
▁diversion	-11.5838
▁doctrines	-11.5838
▁dreary	-11.5838
▁drinks	-11.5838
▁duly	-11.5838
▁eagles	-11.5838
▁emphatically	-11.5838
▁endeavored	-11.5838
▁entreat	-11.5838
▁evans	-11.5838
▁excepting	-11.5838
▁fewer	-11.5838
▁float	-11.5838
▁flown	-11.5838
▁fluttered	-11.5838
▁footing	-11.5838
▁fortress	-11.5838
▁fragrant	-11.5838
▁fund	-11.5838
▁garth	-11.5838
▁gilbert	-11.5838
▁gracefully	-11.5838
▁grasping	-11.5838
▁grimly	-11.5838
▁growl	-11.5838
▁hardships	-11.5838
▁harp	-11.5838
▁harvest	-11.5838
▁hatchet	-11.5838
▁homeward	-11.5838
▁honoured	-11.5838
▁housekeeper	-11.5838
▁impress	-11.5838
▁industrious	-11.5838
▁insects	-11.5838
▁invasion	-11.5838
▁l	-11.5838
▁lasting	-11.5838
▁locality	-11.5838
▁luke	-11.5838
▁magnificence	-11.5838
▁martial	-11.5838
▁mining	-11.5838
▁modes	-11.5838
▁modesty	-11.5838
▁muscular	-11.5838
▁oaks	-11.5838
▁oppressive	-11.5838
▁orderly	-11.5838
▁ordinarily	-11.5838
▁pausing	-11.5838
▁peddler	-11.5838
▁phantom	-11.5838
▁pledge	-11.5838
▁proclaimed	-11.5838
▁radiance	-11.5838
▁rascal	-11.5838
▁realised	-11.5838
▁removal	-11.5838
▁represents	-11.5838
▁resume	-11.5838
▁revived	-11.5838
▁scoundrel	-11.5838
▁sentinel	-11.5838
▁shaft	-11.5838
▁shrink	-11.5838
▁shrinking	-11.5838
▁sights	-11.5838
▁smoothly	-11.5838
▁snowy	-11.5838
▁stations	-11.5838
▁strove	-11.5838
▁subjected	-11.5838
▁sway	-11.5838
▁taylor	-11.5838
▁temperance	-11.5838
▁thickness	-11.5838
▁ticket	-11.5838
▁tiresome	-11.5838
▁tito	-11.5838
▁tough	-11.5838
▁treacherous	-11.5838
▁trials	-11.5838
▁usage	-11.5838
▁veal	-11.5838
▁venetians	-11.5838
▁verily	-11.5838
▁vine	-11.5838
▁worker	-11.5838
▁wrongs	-11.5838
▁acceptable	-11.6137
▁accidentally	-11.6137
▁affords	-11.6137
▁african	-11.6137
▁agricola	-11.6137
▁aided	-11.6137
▁anon	-11.6137
▁anticipation	-11.6137
▁arab	-11.6137
▁arisen	-11.6137
▁ark	-11.6137
▁ascend	-11.6137
▁ascending	-11.6137
▁ash	-11.6137
▁associate	-11.6137
▁asylum	-11.6137
▁babylonian	-11.6137
▁bachelor	-11.6137
▁beauchamp	-11.6137
▁ben	-11.6137
▁beseech	-11.6137
▁blake	-11.6137
▁blushed	-11.6137
▁boundary	-11.6137
▁brake	-11.6137
▁bricks	-11.6137
▁brink	-11.6137
▁bruce	-11.6137
▁bud	-11.6137
▁cells	-11.6137
▁cheered	-11.6137
▁chooses	-11.6137
▁choosing	-11.6137
▁cigarette	-11.6137
▁cloves	-11.6137
▁coadjutor	-11.6137
▁coil	-11.6137
▁commencement	-11.6137
▁competent	-11.6137
▁confided	-11.6137
▁contribute	-11.6137
▁convict	-11.6137
▁copies	-11.6137
▁cough	-11.6137
▁counties	-11.6137
▁creed	-11.6137
▁crews	-11.6137
▁crouched	-11.6137
▁crouching	-11.6137
▁crude	-11.6137
▁debts	-11.6137
▁degraded	-11.6137
▁din	-11.6137
▁displeasure	-11.6137
▁distracted	-11.6137
▁dye	-11.6137
▁elect	-11.6137
▁eminence	-11.6137
▁engaging	-11.6137
▁enlarged	-11.6137
▁enlightened	-11.6137
▁esteemed	-11.6137
▁evelyn	-11.6137
▁factor	-11.6137
▁fading	-11.6137
▁fearless	-11.6137
▁felicia	-11.6137
▁fixing	-11.6137
▁forsake	-11.6137
▁foundations	-11.6137
▁fulfil	-11.6137
▁gorge	-11.6137
▁gratify	-11.6137
▁grinding	-11.6137
▁haggard	-11.6137
▁harrison	-11.6137
▁heav'n	-11.6137
▁hello	-11.6137
▁hesitating	-11.6137
▁holmes	-11.6137
▁honours	-11.6137
▁hopeful	-11.6137
▁hound	-11.6137
▁howl	-11.6137
▁immortality	-11.6137
▁impending	-11.6137
▁inconvenience	-11.6137
▁irony	-11.6137
▁jelly	-11.6137
▁jerked	-11.6137
▁knives	-11.6137
▁linger	-11.6137
▁losses	-11.6137
▁luggage	-11.6137
▁manager	-11.6137
▁mohammed	-11.6137
▁monotony	-11.6137
▁mortar	-11.6137
▁mute	-11.6137
▁noblest	-11.6137
▁nutmeg	-11.6137
▁odor	-11.6137
▁orleans	-11.6137
▁othello	-11.6137
▁patches	-11.6137
▁peculiarly	-11.6137
▁peeping	-11.6137
▁pencroft	-11.6137
▁performing	-11.6137
▁persistent	-11.6137
▁physicians	-11.6137
▁posted	-11.6137
▁posterity	-11.6137
▁prior	-11.6137
▁prohibition	-11.6137
▁prophecy	-11.6137
▁protestant	-11.6137
▁punch	-11.6137
▁queens	-11.6137
▁queried	-11.6137
▁raggedy	-11.6137
▁rains	-11.6137
▁rattled	-11.6137
▁raven	-11.6137
▁recollected	-11.6137
▁rector	-11.6137
▁reed	-11.6137
▁refinement	-11.6137
▁rely	-11.6137
▁reporter	-11.6137
▁resulted	-11.6137
▁richer	-11.6137
▁ruling	-11.6137
▁rusty	-11.6137
▁seasonable	-11.6137
▁secondary	-11.6137
▁sermon	-11.6137
▁shelves	-11.6137
▁shorter	-11.6137
▁sickly	-11.6137
▁socialist	-11.6137
▁sorrowful	-11.6137
▁spake	-11.6137
▁speculation	-11.6137
▁splendour	-11.6137
▁spoon	-11.6137
▁stature	-11.6137
▁stead	-11.6137
▁stevens	-11.6137
▁strive	-11.6137
▁tapped	-11.6137
▁tended	-11.6137
▁terrier	-11.6137
▁theseus	-11.6137
▁thickly	-11.6137
▁threads	-11.6137
▁tour	-11.6137
▁tranquillity	-11.6137
▁translated	-11.6137
▁trimmed	-11.6137
▁truce	-11.6137
▁tunnel	-11.6137
▁twinkling	-11.6137
▁unbroken	-11.6137
▁undertook	-11.6137
▁ungrateful	-11.6137
▁viewed	-11.6137
▁villagers	-11.6137
▁void	-11.6137
▁vrain	-11.6137
▁wailing	-11.6137
▁warlike	-11.6137
▁weird	-11.6137
▁williams	-11.6137
▁abstract	-11.6445
▁accuracy	-11.6445
▁accurately	-11.6445
▁actors	-11.6445
▁advances	-11.6445
▁advertising	-11.6445
▁agricultural	-11.6445
▁alight	-11.6445
▁almah	-11.6445
▁alternately	-11.6445
▁appealing	-11.6445
▁auspicious	-11.6445
▁bacon	-11.6445
▁bang	-11.6445
▁barbarians	-11.6445
▁bathing	-11.6445
▁bearded	-11.6445
▁blount	-11.6445
▁bondage	-11.6445
▁bramble	-11.6445
▁bravery	-11.6445
▁brig	-11.6445
▁brion	-11.6445
▁burdens	-11.6445
▁burton	-11.6445
▁chestnut	-11.6445
▁circling	-11.6445
▁clearness	-11.6445
▁conceptions	-11.6445
▁conferred	-11.6445
▁congregation	-11.6445
▁constitutes	-11.6445
▁correspondent	-11.6445
▁courteous	-11.6445
▁cows	-11.6445
▁crosses	-11.6445
▁dal	-11.6445
▁dam	-11.6445
▁delusion	-11.6445
▁desiring	-11.6445
▁dicky	-11.6445
▁dies	-11.6445
▁dipped	-11.6445
▁discomfort	-11.6445
▁dismounted	-11.6445
▁dividing	-11.6445
▁eccentric	-11.6445
▁el	-11.6445
▁elbows	-11.6445
▁enduring	-11.6445
▁enveloped	-11.6445
▁er	-11.6445
▁exceed	-11.6445
▁exceeded	-11.6445
▁exerted	-11.6445
▁exile	-11.6445
▁expensive	-11.6445
▁extract	-11.6445
▁fascinated	-11.6445
▁fer	-11.6445
▁finite	-11.6445
▁fists	-11.6445
▁flows	-11.6445
▁ford	-11.6445
▁forgiven	-11.6445
▁formula	-11.6445
▁garret	-11.6445
▁genie	-11.6445
▁giants	-11.6445
▁glacial	-11.6445
▁hardest	-11.6445
▁heathen	-11.6445
▁horribly	-11.6445
▁hurts	-11.6445
▁hyrcanus	-11.6445
▁include	-11.6445
▁indications	-11.6445
▁indoors	-11.6445
▁involuntarily	-11.6445
▁jewel	-11.6445
▁kitten	-11.6445
▁lava	-11.6445
▁lennox	-11.6445
▁liver	-11.6445
▁location	-11.6445
▁magistrates	-11.6445
▁manor	-11.6445
▁martian	-11.6445
▁meets	-11.6445
▁milon	-11.6445
▁miner	-11.6445
▁monseigneur	-11.6445
▁montfort	-11.6445
▁morris	-11.6445
▁mortals	-11.6445
▁murmuring	-11.6445
▁mushrooms	-11.6445
▁needless	-11.6445
▁nelson	-11.6445
▁nobler	-11.6445
▁nod	-11.6445
▁noises	-11.6445
▁orbit	-11.6445
▁overheard	-11.6445
▁packing	-11.6445
▁pairs	-11.6445
▁parasol	-11.6445
▁partial	-11.6445
▁patted	-11.6445
▁penetrating	-11.6445
▁perfume	-11.6445
▁perished	-11.6445
▁pigeon	-11.6445
▁pillars	-11.6445
▁planning	-11.6445
▁providing	-11.6445
▁raging	-11.6445
▁reads	-11.6445
▁rebels	-11.6445
▁reckoning	-11.6445
▁reefs	-11.6445
▁refreshed	-11.6445
▁reject	-11.6445
▁renown	-11.6445
▁representation	-11.6445
▁resignation	-11.6445
▁restaurant	-11.6445
▁revolutions	-11.6445
▁rokesmith	-11.6445
▁sarka	-11.6445
▁scaffold	-11.6445
▁scare	-11.6445
▁screw	-11.6445
▁shines	-11.6445
▁shocking	-11.6445
▁shrank	-11.6445
▁shrieked	-11.6445
▁skiff	-11.6445
▁skilled	-11.6445
▁spirited	-11.6445
▁stammered	-11.6445
▁statements	-11.6445
▁stem	-11.6445
▁straightened	-11.6445
▁straining	-11.6445
▁stretches	-11.6445
▁sue	-11.6445
▁suite	-11.6445
▁suits	-11.6445
▁summons	-11.6445
▁tank	-11.6445
▁tedious	-11.6445
▁token	-11.6445
▁trains	-11.6445
▁trappers	-11.6445
▁troy	-11.6445
▁truths	-11.6445
▁twin	-11.6445
▁twisting	-11.6445
▁undergone	-11.6445
▁undertaken	-11.6445
▁unequal	-11.6445
▁unhappiness	-11.6445
▁vanquished	-11.6445
▁verdict	-11.6445
▁voluntary	-11.6445
▁warner	-11.6445
▁wasting	-11.6445
▁wears	-11.6445
▁wig	-11.6445
▁willows	-11.6445
▁worms	-11.6445
▁worshipped	-11.6445
▁adequate	-11.6762
▁ado	-11.6762
▁aimed	-11.6762
▁announcement	-11.6762
▁antiquity	-11.6762
▁appreciation	-11.6762
▁aristocracy	-11.6762
▁attribute	-11.6762
▁awakening	-11.6762
▁barbara	-11.6762
▁barred	-11.6762
▁battered	-11.6762
▁beauregard	-11.6762
▁befallen	-11.6762
▁benches	-11.6762
▁benito	-11.6762
▁beryl	-11.6762
▁betwixt	-11.6762
▁biscuit	-11.6762
▁blindness	-11.6762
▁boon	-11.6762
▁caps	-11.6762
▁cashier	-11.6762
▁cecily	-11.6762
▁characteristics	-11.6762
▁chivalry	-11.6762
▁chopin	-11.6762
▁chuckle	-11.6762
▁chuckled	-11.6762
▁code	-11.6762
▁collins	-11.6762
▁comprehended	-11.6762
▁core	-11.6762
▁crops	-11.6762
▁curry	-11.6762
▁darts	-11.6762
▁deference	-11.6762
▁deities	-11.6762
▁deliverance	-11.6762
▁deposit	-11.6762
▁disguised	-11.6762
▁divinity	-11.6762
▁dose	-11.6762
▁emphatic	-11.6762
▁en	-11.6762
▁equipment	-11.6762
▁exclusive	-11.6762
▁excused	-11.6762
▁explosion	-11.6762
▁fellowship	-11.6762
▁film	-11.6762
▁flannel	-11.6762
▁flavour	-11.6762
▁foreigners	-11.6762
▁foreseen	-11.6762
▁fragrance	-11.6762
▁frying	-11.6762
▁galleries	-11.6762
▁glaciers	-11.6762
▁gravy	-11.6762
▁grudge	-11.6762
▁hateful	-11.6762
▁hereditary	-11.6762
▁hive	-11.6762
▁hoarse	-11.6762
▁hood	-11.6762
▁hooker	-11.6762
▁humility	-11.6762
▁insane	-11.6762
▁insight	-11.6762
▁insufficient	-11.6762
▁interrupt	-11.6762
▁kangaroo	-11.6762
▁knitting	-11.6762
▁ladyship	-11.6762
▁limp	-11.6762
▁logic	-11.6762
▁lump	-11.6762
▁makers	-11.6762
▁manifested	-11.6762
▁maxims	-11.6762
▁mechanism	-11.6762
▁messengers	-11.6762
▁muffled	-11.6762
▁nightfall	-11.6762
▁notable	-11.6762
▁nursed	-11.6762
▁obedient	-11.6762
▁oldcastle	-11.6762
▁opponents	-11.6762
▁opposing	-11.6762
▁outlet	-11.6762
▁outlines	-11.6762
▁outrage	-11.6762
▁overcoat	-11.6762
▁pang	-11.6762
▁pansy	-11.6762
▁parcel	-11.6762
▁paved	-11.6762
▁penalty	-11.6762
▁penance	-11.6762
▁petition	-11.6762
▁pillows	-11.6762
▁pont	-11.6762
▁pots	-11.6762
▁powerless	-11.6762
▁preliminary	-11.6762
▁pretence	-11.6762
▁processes	-11.6762
▁prohibited	-11.6762
▁reasonably	-11.6762
▁regained	-11.6762
▁rendering	-11.6762
▁rescued	-11.6762
▁respective	-11.6762
▁resurrection	-11.6762
▁rinaldo	-11.6762
▁ruddy	-11.6762
▁rudely	-11.6762
▁scented	-11.6762
▁shady	-11.6762
▁sighs	-11.6762
▁similarly	-11.6762
▁slippers	-11.6762
▁snap	-11.6762
▁sob	-11.6762
▁sobbing	-11.6762
▁soda	-11.6762
▁spoils	-11.6762
▁spotted	-11.6762
▁sting	-11.6762
▁stony	-11.6762
▁strains	-11.6762
▁strap	-11.6762
▁strips	-11.6762
▁sums	-11.6762
▁swarm	-11.6762
▁swiss	-11.6762
▁talbot	-11.6762
▁tao	-11.6762
▁teaspoonful	-11.6762
▁theology	-11.6762
▁titles	-11.6762
▁toys	-11.6762
▁transmitted	-11.6762
▁transported	-11.6762
▁traversed	-11.6762
▁truck	-11.6762
▁turf	-11.6762
▁turtle	-11.6762
▁un	-11.6762
▁una	-11.6762
▁uneasily	-11.6762
▁unlucky	-11.6762
▁valor	-11.6762
▁varieties	-11.6762
▁vehicle	-11.6762
▁vibration	-11.6762
▁vicar	-11.6762
▁vigour	-11.6762
▁vile	-11.6762
▁vividly	-11.6762
▁walled	-11.6762
▁warrant	-11.6762
▁witches	-11.6762
▁worldly	-11.6762
▁agriculture	-11.709
▁alongside	-11.709
▁appeals	-11.709
▁approaches	-11.709
▁arbitrary	-11.709
▁arched	-11.709
▁aristotle	-11.709
▁athenian	-11.709
▁atom	-11.709
▁betsy	-11.709
▁bounty	-11.709
▁calf	-11.709
▁castles	-11.709
▁chaos	-11.709
▁civility	-11.709
▁coals	-11.709
▁conall	-11.709
▁constituents	-11.709
▁controversy	-11.709
▁corrupt	-11.709
▁crowding	-11.709
▁cushion	-11.709
▁darting	-11.709
▁developing	-11.709
▁devour	-11.709
▁differently	-11.709
▁dinars	-11.709
▁disadvantage	-11.709
▁dominant	-11.709
▁drug	-11.709
▁drugs	-11.709
▁eminently	-11.709
▁enchantment	-11.709
▁endurance	-11.709
▁energies	-11.709
▁ensued	-11.709
▁enters	-11.709
▁eruption	-11.709
▁escort	-11.709
▁especial	-11.709
▁exertions	-11.709
▁exploration	-11.709
▁explore	-11.709
▁festival	-11.709
▁feverish	-11.709
▁file	-11.709
▁flourish	-11.709
▁flutter	-11.709
▁footmen	-11.709
▁forcing	-11.709
▁fragment	-11.709
▁frail	-11.709
▁galleys	-11.709
▁glimpses	-11.709
▁glove	-11.709
▁gore	-11.709
▁gothic	-11.709
▁grandma	-11.709
▁gresham	-11.709
▁grotesque	-11.709
▁grub	-11.709
▁haunts	-11.709
▁headquarters	-11.709
▁humiliation	-11.709
▁humphrey	-11.709
▁identified	-11.709
▁illuminated	-11.709
▁imperative	-11.709
▁independently	-11.709
▁individuality	-11.709
▁insignificant	-11.709
▁insurrection	-11.709
▁inviting	-11.709
▁involuntary	-11.709
▁irritation	-11.709
▁jenks	-11.709
▁jug	-11.709
▁justification	-11.709
▁lashes	-11.709
▁longest	-11.709
▁lust	-11.709
▁mexicans	-11.709
▁milly	-11.709
▁miserably	-11.709
▁monsters	-11.709
▁mornings	-11.709
▁mortimer	-11.709
▁muscle	-11.709
▁myerst	-11.709
▁nap	-11.709
▁newton	-11.709
▁noirtier	-11.709
▁oats	-11.709
▁ounces	-11.709
▁outfit	-11.709
▁patients	-11.709
▁patriotic	-11.709
▁paw	-11.709
▁perceptions	-11.709
▁perch	-11.709
▁photograph	-11.709
▁pleading	-11.709
▁plum	-11.709
▁plunging	-11.709
▁populace	-11.709
▁pricked	-11.709
▁properties	-11.709
▁protecting	-11.709
▁quarrels	-11.709
▁quiver	-11.709
▁quote	-11.709
▁randal	-11.709
▁rats	-11.709
▁reconciled	-11.709
▁regiments	-11.709
▁reluctance	-11.709
▁retreating	-11.709
▁riddle	-11.709
▁sally	-11.709
▁salted	-11.709
▁saucepan	-11.709
▁saxon	-11.709
▁scandal	-11.709
▁scouts	-11.709
▁scrape	-11.709
▁secluded	-11.709
▁selfishness	-11.709
▁sifted	-11.709
▁skirts	-11.709
▁sleeps	-11.709
▁smothered	-11.709
▁son's	-11.709
▁stag	-11.709
▁statesmen	-11.709
▁stored	-11.709
▁streaming	-11.709
▁surrendered	-11.709
▁swan	-11.709
▁symbol	-11.709
▁tame	-11.709
▁temporarily	-11.709
▁territories	-11.709
▁tolerable	-11.709
▁tommy	-11.709
▁traffic	-11.709
▁trifles	-11.709
▁trod	-11.709
▁typical	-11.709
▁unaccountable	-11.709
▁usanga	-11.709
▁vampire	-11.709
▁vent	-11.709
▁vitality	-11.709
▁walcott	-11.709
▁waller	-11.709
▁warmed	-11.709
▁wi	-11.709
▁william's	-11.709
▁woven	-11.709
▁abbey	-11.7429
▁accidents	-11.7429
▁accumulated	-11.7429
▁admirably	-11.7429
▁aims	-11.7429
▁anne's	-11.7429
▁applying	-11.7429
▁appreciated	-11.7429
▁apprehensions	-11.7429
▁archer	-11.7429
▁associates	-11.7429
▁avenge	-11.7429
▁basement	-11.7429
▁baskets	-11.7429
▁bathe	-11.7429
▁bats	-11.7429
▁beans	-11.7429
▁benevolent	-11.7429
▁berries	-11.7429
▁boasted	-11.7429
▁bounding	-11.7429
▁calamities	-11.7429
▁calculation	-11.7429
▁calculations	-11.7429
▁chased	-11.7429
▁choking	-11.7429
▁comforts	-11.7429
▁communion	-11.7429
▁continental	-11.7429
▁convincing	-11.7429
▁coolly	-11.7429
▁curves	-11.7429
▁customer	-11.7429
▁customers	-11.7429
▁daisy	-11.7429
▁defect	-11.7429
▁departing	-11.7429
▁deposits	-11.7429
▁deprive	-11.7429
▁destroyer	-11.7429
▁disregard	-11.7429
▁duke's	-11.7429
▁eats	-11.7429
▁emptied	-11.7429
▁entrusted	-11.7429
▁estimated	-11.7429
▁evidences	-11.7429
▁exaggerated	-11.7429
▁excellence	-11.7429
▁exceptions	-11.7429
▁excluded	-11.7429
▁expresses	-11.7429
▁extinct	-11.7429
▁fascination	-11.7429
▁flattered	-11.7429
▁floors	-11.7429
▁forgiveness	-11.7429
▁foxes	-11.7429
▁gait	-11.7429
▁gentleman's	-11.7429
▁gin	-11.7429
▁girdle	-11.7429
▁glaring	-11.7429
▁goodbye	-11.7429
▁grieve	-11.7429
▁hearers	-11.7429
▁holidays	-11.7429
▁horseman	-11.7429
▁hostility	-11.7429
▁illusion	-11.7429
▁imaginary	-11.7429
▁imitate	-11.7429
▁impelled	-11.7429
▁imprisonment	-11.7429
▁inconceivable	-11.7429
▁indefinite	-11.7429
▁inequality	-11.7429
▁involve	-11.7429
▁isolation	-11.7429
▁israel	-11.7429
▁ivory	-11.7429
▁jane's	-11.7429
▁jewkes	-11.7429
▁josie	-11.7429
▁laboratory	-11.7429
▁landlady	-11.7429
▁layers	-11.7429
▁lets	-11.7429
▁lifeless	-11.7429
▁loads	-11.7429
▁lorry	-11.7429
▁maloney	-11.7429
▁martineau	-11.7429
▁maturity	-11.7429
▁metallic	-11.7429
▁micawber	-11.7429
▁millionaire	-11.7429
▁mineral	-11.7429
▁minnie	-11.7429
▁mocking	-11.7429
▁monkeys	-11.7429
▁moods	-11.7429
▁morbid	-11.7429
▁moustache	-11.7429
▁natures	-11.7429
▁necks	-11.7429
▁noiselessly	-11.7429
▁nurses	-11.7429
▁oblivion	-11.7429
▁occupations	-11.7429
▁odour	-11.7429
▁oglethorpe	-11.7429
▁omitted	-11.7429
▁overtake	-11.7429
▁package	-11.7429
▁pail	-11.7429
▁peas	-11.7429
▁pecuniary	-11.7429
▁peters	-11.7429
▁piety	-11.7429
▁pimpernel	-11.7429
▁pitied	-11.7429
▁placid	-11.7429
▁pluck	-11.7429
▁pollyanna	-11.7429
▁popularity	-11.7429
▁praises	-11.7429
